{"version":"1.0","truncation":null,"padding":null,"added_tokens":[{"id":0,"special":true,"content":"<cls>","single_word":false,"lstrip":false,"rstrip":false,"normalized":false},{"id":1,"special":true,"content":"<sep>","single_word":false,"lstrip":false,"rstrip":false,"normalized":false},{"id":2,"special":true,"content":"<unk>","single_word":false,"lstrip":false,"rstrip":false,"normalized":false},{"id":3,"special":true,"content":"<pad>","single_word":false,"lstrip":false,"rstrip":false,"normalized":false},{"id":4,"special":true,"content":"<mask>","single_word":false,"lstrip":false,"rstrip":false,"normalized":false},{"id":5,"special":true,"content":"<s>","single_word":false,"lstrip":false,"rstrip":false,"normalized":false},{"id":6,"special":true,"content":"</s>","single_word":false,"lstrip":false,"rstrip":false,"normalized":false}],"normalizer":{"type":"Sequence","normalizers":[{"type":"Replace","pattern":{"String":"``"},"content":"\""},{"type":"Replace","pattern":{"String":"''"},"content":"\""},{"type":"NFKD"},{"type":"StripAccents"},{"type":"Replace","pattern":{"Regex":" {2,}"},"content":" "}]},"pre_tokenizer":{"type":"Metaspace","replacement":"▁","add_prefix_space":true},"post_processor":null,"decoder":null,"model":{"type":"Unigram","unk_id":2,"vocab":[["<cls>",0.0],["<sep>",0.0],["<unk>",0.0],["<pad>",0.0],["<mask>",0.0],["<s>",0.0],["</s>",0.0],["▁de",-2.829344524057351],["▁",-2.8977445347669466],[",",-3.141749625626389],["▁la",-3.268247622381635],["▁que",-3.449103441788891],["a",-3.743598220756528],["▁en",-3.7626262975343163],["y",-3.8090388000821775],["▁el",-3.8459400899101794],["▁los",-4.073113496762604],["▁las",-4.469001196231755],["▁se",-4.624598079089829],["▁del",-4.625162585569287],["▁un",-4.794834237714841],["▁una",-4.8411964907492155],["▁para",-4.881876940883325],["▁no",-4.941916236579045],["▁es",-4.968334390500331],["▁por",-4.970698843232864],["▁con",-4.973587250006442],["s",-5.303463087451751],["▁al",-5.374424049958739],["▁ha",-5.506740253385473],[".\n",-5.5129582321530854],["▁esta",-5.5560779523252535],["▁lo",-5.57017225768702],["▁este",-5.573174655746891],["▁sobre",-5.603152946204656],["▁como",-5.615987511403462],["▁mas",-5.658588857790637],["▁su",-5.669879581806153],["▁Comision",-5.757916230430071],["o",-5.795343961083534],["n",-6.072100494545504],["▁Union",-6.083747613775227],["▁tambien",-6.090160884732651],["▁Parlamento",-6.187255188003025],["▁Estados",-6.23942316409696],["▁han",-6.327237287882369],["▁sus",-6.4068292475257795],["▁informe",-6.410211841187177],["▁si",-6.418120361280662],[".\nEn",-6.433512222152711],["▁Europea",-6.436062825747953],[".\nLa",-6.453582306637918],["▁Consejo",-6.497084367389775],["▁Presidente,",-6.50122495023145],["e",-6.515799408645998],["▁paises",-6.519894762775163],["▁pero",-6.526934308419625],["▁politica",-6.562759221167974],["▁entre",-6.565001516783411],[".\nEl",-6.577272494322406],["▁miembros",-6.578818441054146],["▁son",-6.604000225649877],["muy",-6.6180258968016155],["▁Europa",-6.635455952904273],[".\nPor",-6.639423326571469],["▁todos",-6.6516987626193504],["▁ser",-6.678412341872674],["▁todo",-6.684799756247925],["▁ya",-6.699190031563003],["▁mi",-6.714695920777171],["▁me",-6.7434713117816045],["▁nos",-6.7475033901543355],[":",-6.753348312698021],["▁senor",-6.76367899522929],["▁tanto",-6.764479318240429],["▁-",-6.813994036380649],["▁debe",-6.822038684771723],["▁lugar",-6.823193182465966],["▁UE",-6.834060893899654],["▁parte",-6.839820711783666],["▁importante",-6.845324308319601],["▁Europeo",-6.856857439068488],["▁sin",-6.891483023631581],["▁solo",-6.892011910703346],["▁puede",-6.905918467943824],["▁Senor",-6.916064297139252],["▁contra",-6.938479842090544],["▁acuerdo",-6.95227643815962],["▁hecho",-6.9529144728175005],["▁derechos",-6.986743516877597],["▁propuesta",-7.002314627439727],["-",-7.008241504889355],["▁hacer",-7.014949640414036],["▁porque",-7.020103551662034],["▁tiene",-7.056291323904981],[".\nNo",-7.05709880829904],["hemos",-7.078253714453012],["▁cuestion",-7.108788753513947],["▁esto",-7.108898530955214],["▁desarrollo",-7.1186485103807335],["mos",-7.12491573598431],["▁trabajo",-7.127016636412925],["▁estos",-7.135590961640242],["▁debate",-7.138523289016977],["▁hay",-7.142885440570403],["▁forma",-7.162177786201125],["▁medidas",-7.177352652173374],["▁decir",-7.181278041984397],["▁vez",-7.183637043546714],["▁Sr.",-7.184197320668762],["▁ciudadanos",-7.193287811929794],["▁embargo",-7.193948605061097],["▁situacion",-7.19427312200677],["▁ello",-7.199241906944218],[";",-7.204716431896282],["▁respecto",-7.208976242465374],["▁cuando",-7.213625470918059],["▁sino",-7.214381266622794],["▁nuestra",-7.226761038197113],["▁seguridad",-7.2277077761139505],["es",-7.230559739953923],["se",-7.23201233011979],["▁asi",-7.232769429594619],["▁sido",-7.251027046515446],["▁mercado",-7.265412350973843],["▁estan",-7.270804677214079],[".",-7.281084452279828],["▁tiempo",-7.285158427513698],["▁ahora",-7.285159984481439],["▁anos",-7.289723168365962],["▁gran",-7.306737187997959],[".\nSenor",-7.3141514351716985],["▁dos",-7.324255108779644],["▁pais",-7.329384648058509],["▁caso",-7.3378220424744125],["▁personas",-7.338514182615047],["▁desde",-7.346945909689399],[".\nEs",-7.352813975650731],["▁otros",-7.370138803384203],["▁estas",-7.379125334235013],["▁mismo",-7.38330302486821],["▁mayor",-7.3876905186888315],["▁nuestro",-7.404011677722268],["▁debemos",-7.420447248619734],["▁he",-7.428179271879362],["▁hoy",-7.429008157758654],["▁tenemos",-7.437604650666906],["▁punto",-7.439829214902035],["▁Comisario",-7.454960277611349],["▁bien",-7.462252798017667],["▁europea",-7.4632734357309225],["▁ano",-7.470100978103471],["r",-7.474715525635062],["▁trata",-7.478177895030521],["▁posible",-7.49397118469431],["▁creo",-7.494767204039055],["▁favor",-7.500742982122469],["▁hace",-7.503148797944574],["▁nuestros",-7.508334676605456],["▁haya",-7.515235163614157],["▁mucho",-7.5197921517397095],["▁Grupo",-7.521528697849098],["▁ejemplo",-7.523906000108887],[".\nSin",-7.526194031047687],["▁apoyo",-7.530390649446682],["▁fin",-7.532276987676388],["▁todas",-7.53791437041113],["▁cuenta",-7.54827984414359],["▁Presidente",-7.558278859461469],["▁deben",-7.568966353151415],["▁cooperacion",-7.57056418977958],["▁estamos",-7.572958583367079],["▁cada",-7.574251825780092],["▁primer",-7.58218528537355],["▁problema",-7.586489170349932],["durante",-7.5939754036905],["▁le",-7.596693028122578],["▁marco",-7.597749962514312],["▁tener",-7.601944491147638],["▁dicho",-7.603201582720505],["▁quiero",-7.603788474640002],[".\nLos",-7.6058398202730295],["▁sistema",-7.6069564619340735],["▁sector",-7.615363182534635],["▁humanos",-7.619439139515475],["▁tienen",-7.623355719398514],["▁algunos",-7.624889505159855],["▁menos",-7.627583876341184],["▁proteccion",-7.638511020501481],["▁ni",-7.642255401202695],["▁problemas",-7.645577670891065],["▁proceso",-7.650514348615564],["▁ambito",-7.653021734498289],["▁empresas",-7.654158315919695],["▁social",-7.65930056107964],["▁opinion",-7.668003144527077],["▁nuevo",-7.6690194583258116],["▁dar",-7.66960005409916],["▁ponente",-7.670227536526708],["▁ayuda",-7.672542589007538],["hasta",-7.679413294058163],["▁podemos",-7.680550049755027],["▁futuro",-7.680844827881236],["▁ese",-7.687938760517971],["▁mundo",-7.690137232170427],[".\nSe",-7.69167631346609],["▁pueden",-7.692193201849699],["▁deberia",-7.6926560373423225],["▁nosotros",-7.695427974809238],["▁momento",-7.698531070892232],["▁antes",-7.7137263868548605],["▁tan",-7.7138716745237],["▁relacion",-7.71530914679942],["la",-7.719632716182804],["▁objetivo",-7.720021357437329],["▁comun",-7.7208108645146165],["▁propuestas",-7.721451012608334],["▁nombre",-7.72212043067252],["▁mejor",-7.722762458122197],["▁informacion",-7.726001106710754],["▁modo",-7.726152476056674],["▁eso",-7.726688201834527],["▁europeos",-7.728370735510527],["▁europeo",-7.72901217800476],["▁medio",-7.733057276650037],["▁millones",-7.738200278888364],["▁necesario",-7.739268399821727],["▁Tratado",-7.743222548453502],["▁derecho",-7.746867093962496],["▁Estado",-7.748267847439534],["▁La",-7.750954524887039],["▁politicas",-7.752703226656871],["▁normas",-7.7529828650551735],["▁manera",-7.753518522011266],["▁servicios",-7.754725180737394],["▁usted",-7.760492378902329],["▁enmiendas",-7.7628265551144295],["▁aqui",-7.7639446755756065],["do",-7.774719003248981],["▁gracias",-7.778748052702099],["mente",-7.790481397913332],["▁toda",-7.792734756727221],["▁garantizar",-7.7954770409205985],["▁programa",-7.798438112870201],["▁Presidencia",-7.7995433960309075],["▁muchos",-7.801590444630898],["▁importancia",-7.808088451744089],["▁algo",-7.812664778265006],["▁otras",-7.815771897575161],["▁gustaria",-7.818223187699951],["l",-7.821894637785762],["▁En",-7.828849683739849],["▁resolucion",-7.831604134674484],["▁aplicacion",-7.837648450996845],["▁materia",-7.838845764154845],["▁nivel",-7.840573409804797],[".\nSi",-7.845420502039596],["▁ante",-7.849150444574354],["▁otra",-7.849981301574134],["▁particular",-7.851927469506455],["▁otro",-7.854788391442341],["▁cuestiones",-7.862350352861878],["▁condiciones",-7.8630409883661],["▁%",-7.864510954447235],["▁crisis",-7.8661094492494925],["▁senora",-7.874039658150103],["▁El",-7.880226947232087],["▁objetivos",-7.882470072101189],["▁quisiera",-7.8831849945474595],[".\nA",-7.884877031159927],["▁dia",-7.888685288113301],["▁uno",-7.890229217035294],["en",-7.890440542257615],["▁necesidad",-7.895109813547917],["▁tema",-7.896995199990455],["▁–",-7.902906175853513],["▁responsabilidad",-7.90820326646935],["▁yo",-7.908475373649278],["▁(",-7.911277386775977],["▁principio",-7.917517995022285],["▁mujeres",-7.925251118092396],["▁nuestras",-7.928748533682452],["▁sentido",-7.931087389245906],["▁aun",-7.931913688914802],["▁parece",-7.9507293702099595],["▁Gobierno",-7.952563240027564],[".\nTambien",-7.954811704228748],["▁economica",-7.955054558033908],["▁va",-7.955718809579922],["▁Senorias,",-7.960922465761717],["▁presupuesto",-7.962104126337206],["▁productos",-7.96403421226521],["▁papel",-7.965635482812283],[".\nMe",-7.969048054556721],[".\nLas",-7.969972396858752],["▁especialmente",-7.974071511264203],["▁empleo",-7.978167448471982],[".\nPero",-7.979951524102374],["▁tipo",-7.983365738061295],["▁diputados",-7.983612850963663],["▁enmienda",-7.983778361996256],["▁les",-7.984926402191872],["▁ultimo",-7.988647459496368],[".\nEsta",-7.989268976497508],["▁legislacion",-7.990776318665599],["▁vista",-7.995522710748068],["▁poder",-8.003778928736645],["▁atencion",-8.004914070942558],[".\nEsto",-8.006400778235752],["▁general",-8.011334954876919],["▁cuanto",-8.013471973082908],["▁decision",-8.014815753237224],["los",-8.029419735565371],["▁nuevos",-8.033591963984682],["▁obstante",-8.035226260522638],["▁tres",-8.035709462960439],[".\nDe",-8.039025783173617],["▁pues",-8.039354243823011],["▁tal",-8.039898112413315],["▁nacionales",-8.041057887233988],["\"",-8.043161234012876],["▁cual",-8.053705919003546],["▁cualquier",-8.054677745740568],["▁instituciones",-8.05801640484177],["▁incluso",-8.058251311896084],["lo",-8.06006319159886],["▁recursos",-8.062244643777053],["▁cambio",-8.068014282489813],["?\n",-8.071653083825552],["▁votacion",-8.081852482224223],["▁razon",-8.082353615366335],["▁posicion",-8.084421009360966],["▁control",-8.085227474460426],["▁compromiso",-8.085667443653108],["▁actual",-8.086872365176577],["▁investigacion",-8.087798028472772],["▁directiva",-8.088080237239176],["▁siempre",-8.088760372685103],["▁internacional",-8.090121373055823],["d",-8.093522612971988],["▁competencia",-8.094339500931707],["▁hacia",-8.095835983073634],["▁nueva",-8.096058560228245],[".\nCreo",-8.098196943412702],["▁primera",-8.102335709257803],["▁base",-8.1023812720205],["▁pasado",-8.104675967422693],["▁claro",-8.109438379517934],["▁donde",-8.116260335761103],["▁calidad",-8.11965268002356],["▁haber",-8.121222476471653],["▁fue",-8.122528316863972],["▁segundo",-8.124177764190458],["▁aunque",-8.124872827669456],["▁algunas",-8.12536822597646],["▁Sra.",-8.126323374607777],["▁podria",-8.126732738642676],["▁mayoria",-8.127944385477416],["▁transporte",-8.128678464286276],[".\nEste",-8.130795990463081],["▁respuesta",-8.131459613929609],["▁duda",-8.1332262162381],["▁Unidos",-8.135749831093651],["▁Directiva",-8.136455364920876],["▁negociaciones",-8.14047607605465],["▁importantes",-8.142007756513534],["▁seria",-8.144088068335963],["▁dentro",-8.144747903408552],["▁lucha",-8.155089106538535],["▁energia",-8.159623135118013],["▁despues",-8.161145514553873],["▁vida",-8.165737564201002],["▁\"",-8.169238380583012],["▁asunto",-8.170105177354436],["▁sera",-8.170514768192179],["▁especial",-8.184043669127195],["▁realmente",-8.18544553840748],["▁pregunta",-8.188377249100139],["▁accion",-8.188791795691799],["▁proyecto",-8.188883254971481],["▁autoridades",-8.189497671131226],["▁estar",-8.190207235539049],["▁Por",-8.192317583320023],["▁grandes",-8.194006203821285],["▁seguir",-8.19513001827777],["▁existe",-8.196669655667495],["▁orden",-8.197646325696994],["▁articulo",-8.21350687710271],["▁nuevas",-8.213511825991834],["▁estoy",-8.21352909020982],["▁decisiones",-8.216225347770111],["▁gestion",-8.21672812280712],["▁uso",-8.219308057146911],["▁ver",-8.221230250628935],["▁libertad",-8.223202052094837],["las",-8.225065053292418],["▁politico",-8.228893378245576],["▁trabajadores",-8.230207762887972],[")",-8.230342229275522],["▁mejorar",-8.230923848773335],["▁Camara",-8.236483267468987],["▁pueda",-8.237206127915893],[".\nComo",-8.238303058140549],["▁muchas",-8.239501219305367],["▁poco",-8.240025439221728],["▁salud",-8.243660667917936],["▁todavia",-8.24393975783754],["Presidenta,",-8.244967655049704],["nos",-8.245899641911707],["▁solucion",-8.246350578041781],["▁cabo",-8.247662133591085],["▁economia",-8.247800578195026],["▁traves",-8.24810766878528],["▁votado",-8.248123523382521],["▁regiones",-8.24912376871649],[".\nY",-8.257494989710187],["▁medida",-8.258653328605977],["▁politicos",-8.259495139077282],["▁oportunidad",-8.261032802457425],["▁interes",-8.261714168683815],["▁procedimiento",-8.270603744057293],["▁fondos",-8.271006360891079],["▁estrategia",-8.271754557206185],["▁resultado",-8.273681232269912],["▁mediante",-8.275596600009408],["▁creacion",-8.280020261073],["▁plazo",-8.28297701612735],["▁sociedad",-8.286702809631954],["▁cosas",-8.286729238794054],["▁comercio",-8.287775262295192],["▁pesar",-8.289650287054451],["▁queremos",-8.291421986632972],["▁democracia",-8.293206090063565],["▁falta",-8.294354663979842],["▁acceso",-8.296608968626836],["▁ampliacion",-8.30257702258453],["▁nada",-8.305309203204347],["▁puesto",-8.307505650420483],["Asuntos",-8.310402782232735],["▁ademas",-8.313334192476905],["▁iniciativa",-8.31403861178518],["ia",-8.31587418565288],["▁crear",-8.316792994065915],["▁aspectos",-8.317323824302042],["▁numero",-8.320080348421698],["▁ambiente",-8.322733501928292],["▁Reglamento",-8.323544883484557],["▁realidad",-8.330383627432882],["»",-8.334237998161024],["▁consumidores",-8.335326437387756],["▁Europea,",-8.337873571899639],["▁periodo",-8.340059462776852],["▁largo",-8.345530493738309],["▁europeas",-8.346266576051475],["▁relaciones",-8.347732412462017],["▁economico",-8.352425057582234],["on",-8.352443082519262],["unos",-8.352823865623211],["▁programas",-8.355852990565465],["▁esfuerzos",-8.359799295948173],["▁dado",-8.36277739497283],["▁poblacion",-8.36308601869873],["▁colegas",-8.364102367187233],["▁ningun",-8.365459820310345],["▁sociales",-8.366305064507651],["▁practica",-8.367732121104384],["▁era",-8.367745208703782],["▁habia",-8.374572377076516],["▁datos",-8.37542453822913],["▁poner",-8.378570428648807],["▁miembro",-8.380138253365466],["▁crecimiento",-8.381670569595022],["▁«",-8.381714259454847],["▁region",-8.385509405765141],["▁acuerdos",-8.388255531810739],["▁presente",-8.388670724015979],["▁siendo",-8.38958327532159],["▁fundamental",-8.393318930884037],["▁misma",-8.397046130137129],["u",-8.397960007907388],["▁efecto",-8.40100666668095],["▁paz",-8.406457685900438],["▁puedan",-8.406579863017257],[".\nLo",-8.41016275772975],["▁texto",-8.410619142759773],["▁intereses",-8.412208331379336],["▁cierto",-8.413546307901452],["▁sean",-8.41411505115138],["▁medios",-8.415067785124977],["▁paso",-8.416087239052166],["▁dialogo",-8.416330896453355],["▁ninguna",-8.418248579662597],[".\nPara",-8.418595487900879],["▁euros",-8.420225927796524],["▁nacional",-8.42254858645697],["i",-8.423678221898488],["▁resultados",-8.427367544921097],["▁refiere",-8.427732212931213],["▁supuesto",-8.429199023435585],["▁produccion",-8.430119419454062],["por",-8.431695137726658],["▁principios",-8.437563237189377],["▁diferentes",-8.438412163774696],["▁financiacion",-8.440899607399755],["▁posibilidad",-8.442345198982208],["▁resulta",-8.442993036024804],["▁unico",-8.445532552886604],["▁partes",-8.446792775020425],["▁manana",-8.44722880572515],["▁ejercicio",-8.44896509825448],["▁industria",-8.450358400806785],["▁Comisaria",-8.451329557891391],["▁apoyar",-8.453016888389344],["emos",-8.45816130867939],["▁conjunto",-8.461835041028941],["▁final",-8.465884342397366],["ndo",-8.467090152498066],["▁Lisboa",-8.467696069100207],["▁casos",-8.47566505444715],[".\nCon",-8.478011904163964],["▁esos",-8.479863864819281],["▁dinero",-8.481619190997867],["▁publica",-8.484048213644902],["▁reforma",-8.484152283100352],["▁buena",-8.490630454168148],["▁adoptar",-8.493667070241164],["▁tenido",-8.494270793467601],["▁hora",-8.495278970274255],["▁comunicacion",-8.49528553726026],["▁1",-8.498795632340551],["▁ultimos",-8.504564892020113],["▁conseguir",-8.505256798339987],["▁No",-8.508895529012396],["▁necesitamos",-8.509416480956206],["▁Comision,",-8.511498169857646],["os",-8.518575792240686],["▁libre",-8.51995674498107],["▁evitar",-8.523751053239934],["▁demas",-8.530682714389508],["▁comision",-8.534180844044311],["▁puntos",-8.535420157183475],["▁publico",-8.537038720282217],["▁acerca",-8.537998370592495],["▁contexto",-8.539220311417044],["▁frente",-8.542760622012716],["▁exito",-8.543676094851635],["▁totalmente",-8.544782662162534],["▁Turquia",-8.546191636050093],["▁Tribunal",-8.547454110052369],["▁establecer",-8.549418767840843],["▁dificil",-8.550763753296657],["▁mantener",-8.553423961273518],["▁grupo",-8.554726959544578],["▁euro",-8.55531163980328],["▁sigue",-8.559106675054089],["▁motivo",-8.559233059703525],["▁adhesion",-8.560524325647002],["▁respeto",-8.560560726642894],["▁tendra",-8.565031528033579],["▁mundial",-8.56563562976771],["▁puedo",-8.56633972986321],["▁lograr",-8.566464932250701],["▁Naciones",-8.567276639598754],["▁fundamentales",-8.567284959704097],["▁idea",-8.570287791871483],["▁ustedes",-8.5708203374786],["▁actividades",-8.571393968662433],["▁reducir",-8.571797146093674],["▁Presidenta",-8.57572352915271],["▁deberian",-8.578822028131011],["▁acciones",-8.579983159167702],["▁proyectos",-8.581484660956042],["▁interior",-8.583664267940602],["▁contrario",-8.58748201045656],["dos",-8.591740906138945],["▁espero",-8.593408425753836],["▁estado",-8.594284988709052],["▁Asamblea",-8.595520891812587],["▁serie",-8.59706723849828],["▁palabras",-8.598413039307669],["▁tras",-8.599167919785813],["▁hablar",-8.599272107817903],["▁enfoque",-8.59958916907958],["▁propia",-8.60001143579039],["▁significa",-8.600200085067216],["▁demasiado",-8.601236508255251],["▁fuera",-8.601900993899585],["ba",-8.602518143326904],["▁Rusia",-8.603960599176359],["▁mis",-8.605862498043455],["▁tomar",-8.609138787631027],["▁claramente",-8.609837389743467],["▁meses",-8.610997269070578],["▁entonces",-8.616342351952655],["▁consecuencias",-8.61946532757967],["▁grupos",-8.621129974030117],["▁constituye",-8.62284480857765],["▁deseo",-8.623729451204612],["▁presentado",-8.625621675994728],["▁aumento",-8.628193836435186],["▁ninos",-8.629247596107438],["▁respecta",-8.631136470318271],["▁riesgo",-8.631154504483153],["▁escala",-8.633544361880714],[".\nAl",-8.635220885290432],["▁bajo",-8.639358889689973],["▁sistemas",-8.640072447669189],["▁Unidas",-8.64515260956061],["ran",-8.647116813260688],["▁financiera",-8.648516535530714],["▁transparencia",-8.649173142520024],["▁A",-8.649483125690375],["▁integracion",-8.650701970017849],["▁deberiamos",-8.651699298700358],["▁van",-8.651789599284301],["▁Comunidad",-8.656508218129485],["▁Consejo,",-8.656774239830842],["▁igualdad",-8.656893900241895],["▁igual",-8.657980826258855],["▁esas",-8.659010603553957],["▁intervencion",-8.661127178518974],[".\nAdemas,",-8.663530919847965],["▁Es",-8.663840123847164],["▁consiguiente",-8.664811897726624],["▁queda",-8.666960902516152],["▁internacionales",-8.670992421967926],["▁zona",-8.67154405759739],["▁esencial",-8.673261556269589],["▁eficaz",-8.675333482501886],["▁plan",-8.675799604383942],["▁participacion",-8.676087343970371],["▁valor",-8.677820833356801],["▁elecciones",-8.67835538494996],["▁consecuencia",-8.682861396117508],["mientras",-8.687292557666522],["▁escrito.",-8.68775237059223],["▁saber",-8.695019689628866],[".\nAhora",-8.695522265507055],["▁alcanzar",-8.696662432091408],["▁relativa",-8.697262659557184],["▁asegurar",-8.699342638010203],["▁llegar",-8.699964950969635],["▁reduccion",-8.700815603424573],["▁capacidad",-8.701367637002377],["–",-8.701723666269842],["▁segunda",-8.705630221006016],["▁aprobacion",-8.705953227785994],["▁conformidad",-8.706971942952087],["▁mercados",-8.709050629950836],["▁propio",-8.70964608143069],["▁asuntos",-8.710776121834433],[".\nSenora",-8.712869321280873],["▁aquellos",-8.716693863779959],["▁objeto",-8.718611670813262],["▁debido",-8.7216684710363],["▁lado",-8.721989286006133],["▁valores",-8.723608394418896],["▁existen",-8.72499323554805],["▁criterios",-8.728698329412255],["▁zonas",-8.728801095057289],["▁unica",-8.729900943299501],["▁in",-8.732674287605231],["▁buen",-8.745062270625207],["▁actualmente",-8.745761792388869],["▁camino",-8.746234685657493],["▁formacion",-8.74637634404571],["me",-8.748633265225745],["▁aplicar",-8.749155820446743],["▁excelente",-8.749355163188019],["▁encontrar",-8.75210065040731],["▁disposiciones",-8.754196194617844],["▁presentar",-8.754508189595045],["▁quien",-8.755302138016974],["▁veces",-8.761109572362395],["▁organizaciones",-8.763840994644303],["▁pesca",-8.766276371209557],["de",-8.768890742316177],["▁aceptar",-8.76908345526595],["▁aspecto",-8.771354038338405],[".\nUna",-8.772083699197594],["▁ambitos",-8.775857401496724],["▁ayudar",-8.775885038260322],["▁clara",-8.778195569207767],["▁comunitario",-8.778600237929895],["les",-8.779879479340575],["▁llevar",-8.78078907373547],["▁miembros,",-8.782647106535414],["▁realizado",-8.782888178538135],["▁solidaridad",-8.783997571029394],["▁educacion",-8.784160052743067],[".\nHay",-8.78459148019812],["▁procedimientos",-8.78628748446264],["▁precios",-8.786779413203368],["▁fronteras",-8.787074350930023],["▁preguntas",-8.78786861847522],["▁declaracion",-8.788148303198396],["das",-8.788551113922603],["▁tengo",-8.79038290732163],["▁informes",-8.799799555377287],["▁estabilidad",-8.800949520996733],["▁evaluacion",-8.80159897316474],["▁regimen",-8.803984297535902],["▁terrorismo",-8.804995063031633],["▁jovenes",-8.805902024213193],["▁plenamente",-8.80684180756785],["▁exterior",-8.808530082689671],["▁instrumentos",-8.808545149426143],["▁proteger",-8.810475738521088],["▁terminos",-8.816458539505895],["▁cohesion",-8.819960001141462],["▁referencia",-8.820326155327649],["▁dejar",-8.820853285222928],["▁principales",-8.822173739626798],[".\nQuiero",-8.8223229488318],["▁financieros",-8.822551100236037],["▁necesaria",-8.82391628845384],["▁confianza",-8.824765993934053],["▁000",-8.826522422637296],["▁ultima",-8.831654838553295],["▁reunion",-8.834349912094513],["▁costes",-8.835089287251844],["▁segun",-8.83641561494082],["▁ayudas",-8.841764391853696],["▁instrumento",-8.841825411180482],["▁personal",-8.842265726490908],[".\nHe",-8.843789137403553],["▁violencia",-8.844195701449987],["▁satisfaccion",-8.844420386069388],["▁alguna",-8.844904299231002],["▁sectores",-8.845010002440521],["▁re",-8.846073484811255],["cion",-8.847214129173329],["▁trabajar",-8.847362666729135],["▁voluntad",-8.85040210254621],["▁Derecho",-8.85167857704283],["▁pueblo",-8.852152580789223],["▁puestos",-8.852794691632814],["▁precisamente",-8.854602447082154],["▁votar",-8.855323189502078],["▁hacerlo",-8.857834754079999],["▁Derechos",-8.858040171123523],["▁cuales",-8.85984164016545],["▁realizar",-8.860826929632502],["▁palabra",-8.866535529683732],["▁terceros",-8.867200339734167],["▁principal",-8.872819533663048],["▁quienes",-8.87340264500572],["▁abordar",-8.875007660260197],["▁reglamento",-8.876062747217627],["▁sostenible",-8.876330583659215],["▁comunitaria",-8.87773706368685],["▁De",-8.877971419329711],["▁colega",-8.878649427026557],["▁sabemos",-8.87920250729418],["▁razones",-8.880044434461563],["▁preciso",-8.882057402493103],["▁iniciativas",-8.883203190151496],["▁solamente",-8.88344195056148],["▁Conferencia",-8.889142910517036],["▁preocupacion",-8.889577281040731],["▁semana",-8.89243160332314],["▁cumplir",-8.893997330885798],["▁tercer",-8.895470637211496],["▁actuar",-8.897989059449829],["▁quiere",-8.899332514234677],["▁permitir",-8.899680835444453],["▁global",-8.901604580780475],[".\nDebemos",-8.902824133133997],["▁China",-8.905425410071478],["▁caracter",-8.907947186377774],["▁revision",-8.908817936653133],["▁expresar",-8.909225223383425],["▁pobreza",-8.912123952546395],[".\nEspero",-8.913269389444633],["▁casi",-8.91373218279103],["▁varios",-8.914081063465407],["▁2",-8.915561003502994],["▁total",-8.916446869804144],["▁mismos",-8.917242199214044],["considero",-8.919685099372877],["▁pequenas",-8.920829835244735],["▁aumentar",-8.921066008314796],["▁guerra",-8.924227109090003],["▁dice",-8.927694301147818],["▁victimas",-8.92785446311242],["▁prioridad",-8.928297252070548],["▁propone",-8.929424316063157],["▁temas",-8.929490273346177],["▁tenga",-8.930453087888266],["▁animales",-8.931995156805591],[".\nQuisiera",-8.933753821041728],["▁senalar",-8.934196565586797],["▁dificultades",-8.935128303448478],["▁recordar",-8.935231969351753],["▁dias",-8.93764539517026],[".\nHemos",-8.938700143363752],["▁bastante",-8.939781102420618],["▁efectos",-8.942555743203908],[".\nTenemos",-8.94492743807279],["▁Europeo,",-8.945830913424583],["▁Acuerdo",-8.94660480230562],["▁promover",-8.9471662021952],["▁defensa",-8.947211474699891],["▁suficiente",-8.947356859770789],["▁necesita",-8.948784524161477],["Reino",-8.950956116785894],["▁prioridades",-8.951060060200902],["▁felicitar",-8.954857286025439],["▁nunca",-8.955002546499713],["▁inmigracion",-8.95562721095168],["▁representa",-8.95592233423287],["▁haciendo",-8.957259298996197],["▁civil",-8.96024451761807],["▁responder",-8.963219031294951],["▁Ministro",-8.966040148806542],["▁desarrollar",-8.96749675443625],[".\nEstoy",-8.969165591377548],["▁vamos",-8.9703518628436],["▁resolver",-8.97062873797789],["▁mejora",-8.972427736665614],["▁agricultura",-8.97249563274114],["▁fondo",-8.972704407453639],["▁Fondo",-8.974263169153518],["▁junto",-8.976120094593592],["▁vigor",-8.977151799251715],["▁relativo",-8.977408359196836],["▁voto",-8.980229981062694],["▁luego",-8.981575072803565],["▁economicas",-8.982333964905514],["▁labor",-8.982526185079733],["▁agricola",-8.984089801194905],["▁menudo",-8.986849104468128],["▁alto",-8.989056711424864],["▁Unido",-8.990200514128613],["▁necesidades",-8.992221974680108],["▁reformas",-8.993781925240206],["▁coordinacion",-8.994736402166865],["▁dicha",-8.99505952616082],["▁positivo",-8.997788336577086],["▁apartado",-8.998324363492626],["▁economicos",-8.998520487707841],["▁marcha",-8.999511620462672],["▁utilizar",-9.001345780983065],["▁sesion",-9.002431433439744],["▁cambios",-9.003877714253978],["▁proximo",-9.005460523539245],["▁cuatro",-9.00560235374566],["Los",-9.008597532097326],["▁propios",-9.010122556579335],["▁reforzar",-9.010235214920186],[".\nYo",-9.01164131620462],["▁energetica",-9.01193658026213],["▁oportunidades",-9.013690821975628],["▁visto",-9.015277123404045],["▁alimentos",-9.01537746857095],["habria",-9.015885013260148],["▁cinco",-9.01596007350821],["▁juridico",-9.017715000005868],["▁evidente",-9.017825352834022],["▁tampoco",-9.020272818711494],["▁financiero",-9.024336576272885],["▁documento",-9.024812093782787],["▁relativas",-9.025389158188935],["▁podamos",-9.026426786444937],["▁emisiones",-9.027661756276537],["▁gente",-9.032484555562492],["▁climatico",-9.032629950022345],["▁necesarias",-9.034353074288841],["▁ocasion",-9.03461665123323],["▁justicia",-9.034929252568228],["▁tratar",-9.036123512964531],["ra",-9.037471433497691],["▁concreto",-9.037695098618743],["▁Republica",-9.0382549664374],["▁seguro",-9.04212643338667],["▁Se",-9.04844647647415],["▁practicas",-9.048500150238496],["▁funcion",-9.051537692585338],["▁habra",-9.052224695961295],[".\nAsi",-9.053386907399846],["▁debates",-9.053570541438594],["▁competitividad",-9.056083320628662],["▁servicio",-9.058461311885276],["▁Irlanda",-9.059032907893819],["▁origen",-9.06510408074104],["▁¿",-9.06657122612077],["▁comunidad",-9.067344959800906],["▁direccion",-9.070110118105863],["▁tarde",-9.073196248726777],["▁esfuerzo",-9.07358547539064],["▁20",-9.07467537726564],["▁financieras",-9.07470034114752],["▁presion",-9.078323865768404],["▁mencionado",-9.079016131516456],["ado",-9.081800236959866],["▁real",-9.082915998975734],["▁equilibrio",-9.086029174236677],["▁comunes",-9.086408942608198],["▁comerciales",-9.086646041232608],["cuyo",-9.086679179564046],["▁linea",-9.087539524817556],["▁espacio",-9.089869216391408],["▁compromisos",-9.092109975235013],["▁modelo",-9.092272839771985],["▁causa",-9.092985750526717],["▁lectura",-9.09402743146839],["▁agricultores",-9.094546718063379],["▁motivos",-9.096007229311239],["▁funcionamiento",-9.09646727643698],["▁simplemente",-9.099954740270887],["▁impacto",-9.100056084781126],["▁asistencia",-9.10444399046857],["▁Partido",-9.104536849546397],["▁llegado",-9.105151392793687],["▁actuales",-9.106717850081443],["▁partir",-9.108312108265595],["▁Politica",-9.108634926546264],["▁inversion",-9.108703893058898],["▁representantes",-9.1095564677435],["▁asociacion",-9.110421135781065],["▁regional",-9.110845003281648],["▁actividad",-9.111350217483338],["▁discriminacion",-9.113176196631226],["▁adopcion",-9.1147261169968],["▁Seguridad",-9.116225409318785],["▁niveles",-9.116753649858655],["▁colaboracion",-9.117146628837348],["▁pedir",-9.117570317845534],["▁peligro",-9.118313188037511],["▁tarea",-9.119361267308953],["▁diciembre",-9.122501262719583],["▁grave",-9.12481530867143],["bo",-9.125806419034978],["▁adelante",-9.12875924139018],["▁asimismo",-9.129319323452291],["▁permite",-9.129973951472033],[".\nEso",-9.132148375874179],["▁competencias",-9.132545732437483],["▁tengan",-9.133699477911346],["▁contribuir",-9.1340890531039],["▁posibilidades",-9.134830000183811],["▁Sin",-9.134882796777346],["▁cosa",-9.137664006260135],[".\nHa",-9.138155916567714],["▁supone",-9.139059928653074],["ria",-9.140060964584805],[".\nUn",-9.140215595796288],["▁verdad",-9.14074424652096],["▁paquete",-9.143620441333553],[".\nAsimismo",-9.144304065199222],["▁ofrecer",-9.149088652266025],["▁experiencia",-9.14913764120955],["▁trafico",-9.151009733156144],["▁conflicto",-9.153842400689573],["▁soluciones",-9.155079181475251],["▁Desarrollo",-9.155282245190323],["amos",-9.156031203183307],["▁2000",-9.157144010343169],["▁mayores",-9.15871190980554],["cuya",-9.159818019526739],["▁lista",-9.161474956031116],["▁candidatos",-9.164540233500405],["▁contribucion",-9.16455992724403],["▁haga",-9.16483513549751],["▁Cumbre",-9.166249994646272],["▁3",-9.166445577201962],["▁varias",-9.166668089715811],["▁Esto",-9.167191489434813],["▁eficacia",-9.169937236410352],["▁clave",-9.170144368555684],["▁propuesto",-9.170435274355652],["▁algun",-9.171623405019794],["▁contenido",-9.171728368138892],["▁ley",-9.172625620457794],["▁hombres",-9.175559519637973],["▁teniendo",-9.176659954887665],["▁armas",-9.177890105672457],["▁hubiera",-9.178418587579085],[".\nDesde",-9.17981935068098],["▁nuclear",-9.18016530028625],["▁podido",-9.181173313137071],["▁Medio",-9.181349054624777],["▁considerar",-9.184025806947893],["t",-9.184705837193032],["▁volver",-9.187779630859165],["▁circulacion",-9.18791513044203],["▁Francia",-9.188706165364398],["▁da",-9.189380686207258],["▁perspectiva",-9.189904581268586],["▁Constitucion",-9.190067858575269],["▁intencion",-9.191041382886405],["▁ocasiones",-9.19287559796964],["▁conclusiones",-9.19361780955135],["▁Me",-9.194075442790178],["▁incluir",-9.194416493565205],["▁fecha",-9.19462130892647],["▁tales",-9.196934874739522],["▁responsable",-9.197650297404737],["re",-9.198857490618146],["▁obtener",-9.199517925720679],["▁amplio",-9.200082853455624],["▁5",-9.201782094604718],["ban",-9.201876910007174],["ada",-9.202528763916225],["▁construccion",-9.203026674987663],["▁Convencion",-9.204366608662475],["▁considera",-9.204832995020988],["▁unicamente",-9.204929505995795],["▁mensaje",-9.206921958638674],["▁publicos",-9.207018630476131],["▁laboral",-9.208365146780787],["\n",-9.209812454966098],["▁somos",-9.210222357511483],["▁innovacion",-9.211359464503957],["▁distintos",-9.211814346148644],["▁amplia",-9.211957926288312],["▁ir",-9.213423987316371],["▁acaba",-9.214160521504043],["▁disposicion",-9.21454780877422],["▁aprobado",-9.215337020478238],["▁elementos",-9.216309440374827],["▁Justicia",-9.217245534604908],["▁historia",-9.220658943913136],["▁Este",-9.221711681560297],["▁anterior",-9.224577172391978],["▁asilo",-9.225063371193759],["as",-9.225776914940493],["▁beneficios",-9.226169397443044],["▁demostrado",-9.226395805162923],["▁fomentar",-9.22660347549038],["▁esperar",-9.227100521835348],["▁gastos",-9.227652759800389],["▁horas",-9.228287534206995],["▁graves",-9.228656726099732],["▁procede",-9.230048459834359],["▁independiente",-9.230222849995002],["▁cultura",-9.23110519864767],["▁10",-9.23234728744793],["▁fuerza",-9.232538367079748],["▁enorme",-9.23416247478357],["▁riesgos",-9.235881415814498],["▁destacar",-9.235937631935325],["▁complace",-9.236697655925537],["▁estructurales",-9.23827585707685],["▁adecuada",-9.239126395015077],["▁Banco",-9.23968198837637],["▁locales",-9.239884523941816],["▁avanzar",-9.240801246419576],["▁juridica",-9.242799617831052],["▁gobierno",-9.244669128017271],["▁mes",-9.24690411419857],["▁agua",-9.249064586725213],["▁residuos",-9.250597425630417],["▁momentos",-9.250788527088702],["▁redes",-9.251364483598064],["▁primero",-9.253374916069287],["▁15",-9.253677399332636],["▁hacen",-9.254327264842289],["▁productores",-9.255221572443222],["▁siguen",-9.256100619414426],["▁cabe",-9.257796421803864],["▁toma",-9.259392650099269],["▁fase",-9.261589040588513],["podrian",-9.26438040336037],["▁seis",-9.264702224011845],["▁introducir",-9.265500332278606],["▁analisis",-9.265530834981645],["▁liberalizacion",-9.265564170136255],["▁organizacion",-9.265861979040645],["▁medioambiental",-9.265965209399901],["▁reconocimiento",-9.268385685322933],["▁obligacion",-9.269226776490495],["▁ejecucion",-9.269966043511818],["▁desempleo",-9.27018390951324],["▁fuerte",-9.270212435831333],["▁absolutamente",-9.271392533730507],["▁participar",-9.274434615409923],["▁Estrategia",-9.275412527478288],["▁mejores",-9.276281003027217],["▁fuerzas",-9.276503806000603],["▁nadie",-9.27826204671619],["▁proximos",-9.280074891544485],["▁alli",-9.280357040261913],["▁positiva",-9.28048953176975],["▁consumo",-9.28165147494188],["/",-9.281794535036571],[".\nMi",-9.28332247365517],["▁democratico",-9.285036006280098],["▁introduccion",-9.285869908373389],["▁conclusion",-9.286320919731665],["▁Internacional",-9.290243829390622],["▁requisitos",-9.290640729709901],["▁seran",-9.291703590083857],["▁Africa",-9.293317621946313],["▁cultural",-9.295005593818097],["▁diez",-9.297025640464874],["▁empresa",-9.297524549078696],["▁podra",-9.298402234965156],["▁progreso",-9.299891972590903],["▁terreno",-9.29991319438109],["▁comercial",-9.30058610591272],["▁consumidor",-9.300717774106296],["te",-9.300901862931674],["▁continuar",-9.301111706437785],["▁inversiones",-9.301273039723485],["▁responsables",-9.301716905843312],["▁concepto",-9.302156594038566],["▁Alemania",-9.302537331764226],["▁voy",-9.303278450956595],["▁combatir",-9.303691279368607],["▁encuentra",-9.303952813542194],["▁empezar",-9.305147225518104],["▁quieren",-9.305826684878543],["▁sabe",-9.307732037384811],["▁Si",-9.307907603933039],["▁necesitan",-9.308948472671325],["▁amenaza",-9.311340728201559],["▁declaraciones",-9.31307032237635],["▁reconocer",-9.314697017278945],["▁pretende",-9.315770560019198],["▁adoptado",-9.315956026742525],["▁alla",-9.316312870976107],["▁junio",-9.316706916797543],["▁actualidad",-9.317851254873728],["▁formas",-9.317863994652768],["▁fueron",-9.318655858282355],["▁impuestos",-9.318844192621059],["▁hincapie",-9.320464552667767],["▁territorio",-9.321238742531452],["▁Israel",-9.322100011797714],["▁gobiernos",-9.32317553589035],["▁prevencion",-9.325216486520079],["▁luchar",-9.325598400120189],["▁adecuado",-9.325685964118037],["ian",-9.327270522948227],["▁pena",-9.327589079577443],["▁necesarios",-9.328463017208218],["▁mandato",-9.328938336942262],["▁pueblos",-9.329947785509917],["▁cantidad",-9.330275302621121],["▁Comite",-9.33049177062949],["▁planes",-9.331224536082502],["▁existentes",-9.333085324287218],[".\nTodos",-9.333166409150593],["▁campo",-9.334444967597824],["▁establece",-9.335973216901413],["▁sanciones",-9.337515887371884],[".\nAunque",-9.34176202182691],["▁muerte",-9.342655174494316],["-,",-9.344974271535893],["▁contar",-9.346783664563187],["▁central",-9.347187140669707],["▁mal",-9.347916077338404],["▁opiniones",-9.35099690391085],["▁facilitar",-9.351766813367602],["▁diferencias",-9.352269092449284],["▁Exteriores",-9.354654839789779],["▁estaba",-9.35807638068974],["▁precio",-9.358391847172609],["▁proxima",-9.358659852206575],["▁peticion",-9.359137443608844],["▁intentar",-9.359187539058212],["▁fiscal",-9.359537252574054],["▁Bruselas",-9.360397069122344],["▁capital",-9.36123777229768],["▁conseguido",-9.363270527186014],["▁mencionar",-9.363312796584522],["▁naturalmente",-9.363957480003016],["▁saben",-9.36440943310286],["▁Senorias",-9.36441989371374],["▁OMC",-9.365482068068102],["▁Kosovo",-9.365772338767611],["▁perspectivas",-9.369044914248908],["▁recibido",-9.370967795577243],["▁pronto",-9.37123803132217],["▁afecta",-9.372421776198635],["▁postura",-9.375213890156807],["▁pobres",-9.376687196413238],["▁justo",-9.378343464294637],["▁actitud",-9.380735886473152],["▁He",-9.380815650408952],["▁semanas",-9.381397571103612],["▁Internet",-9.38176011638391],["▁enero",-9.382599234021642],[".\nEstamos",-9.383291578917277],["▁Esta",-9.383515648749638],["▁posibles",-9.384151475804773],["▁logrado",-9.384304018093104],["▁avances",-9.385473968152564],["▁democratica",-9.387804847038554],["▁siguiente",-9.38938633842362],["▁utilizacion",-9.391594072577202],["▁ilegal",-9.391735845748341],["▁militar",-9.39244381254127],["ta",-9.392445560512662],["▁obligaciones",-9.393226199940752],[".\nCuando",-9.393644902149118],["▁pido",-9.39416324772158],["▁persona",-9.394373141491913],["▁conocimiento",-9.39490210617941],["▁red",-9.395681604321918],["▁debera",-9.395876804870593],["▁cambiar",-9.39632681785911],["▁naturaleza",-9.397527052001346],["▁concretas",-9.397541144052619],["▁publicas",-9.39781000275967],["▁directamente",-9.399237294811986],["▁establecimiento",-9.40037583960302],["▁condicion",-9.401988826297936],["▁4",-9.403382437930965],["▁finales",-9.403822775895206],["▁encuentran",-9.40455164015407],["▁25",-9.405626157284063],["▁Mundial",-9.405689291085029],["▁cumplimiento",-9.406099337228978],[".\nLe",-9.407107985532452],["▁Central",-9.407141561462518],["▁partidos",-9.407920862035356],["medioambientales",-9.408884427490884],["▁refugiados",-9.40929313501932],["▁dimension",-9.41205092296016],["torno",-9.412753253275879],["▁entrada",-9.414833416182631],["Pero",-9.415953387192058],["▁Ministros",-9.416375848399266],["▁prohibicion",-9.418649187348791],["▁regionales",-9.418908570698541],["▁subrayar",-9.423877417507969],["▁demuestra",-9.423883761103212],["▁Grecia",-9.425597231924593],["▁aprovechar",-9.428772658088604],["▁11",-9.42950078746131],["▁comunitarias",-9.429506344145066],["s.\n",-9.430176125667687],["▁presupuestaria",-9.43086751613133],["▁preocupaciones",-9.431474911410525],["▁esperamos",-9.431519454136772],["▁documentos",-9.431644806105933],["▁vistas",-9.431659717996475],["▁circunstancias",-9.432070867965658],["ando",-9.434521660062227],["▁aprobar",-9.435029715264005],["▁defender",-9.435555038602148],["▁tecnologias",-9.435681544449356],[".\nNos",-9.436352970361295],["▁Gobiernos",-9.438235415016123],["▁limite",-9.43945142659358],["▁mismas",-9.439597795707744],["▁rapidamente",-9.44013075572481],["▁anadir",-9.442641843755718],["▁conflictos",-9.442838366309116],["▁oposicion",-9.44414874627075],["▁independencia",-9.445629417228103],["▁ayer",-9.445865748702575],["▁juicio",-9.447108219587601],["▁incluye",-9.447729597641988],["▁plantea",-9.45037245590519],["que",-9.450500315835132],["▁consenso",-9.452262999048319],["▁ofrece",-9.452305168506875],["▁ponentes",-9.452458818839567],["▁esten",-9.452468026807933],["▁miles",-9.453891661227495],["al",-9.453938811316112],["▁cumbre",-9.454838998358996],["▁espiritu",-9.455144621215622],["res",-9.455360593444864],["▁alcance",-9.455610060144323],["▁pensar",-9.457747398958203],["▁prestar",-9.45907150070334],["▁armonizacion",-9.459210518958882],["basada",-9.460933120792184],[".\nSolo",-9.461645044834768],["▁marzo",-9.462423937182553],["▁cerca",-9.462840259799593],["▁recibir",-9.463603360655734],["▁pro",-9.464326233086627],["▁pasar",-9.464501866517567],["▁presencia",-9.464947946908662],["▁acontecimientos",-9.46529378509368],["▁C",-9.466749555423473],["▁mecanismo",-9.466975130609136],["▁30",-9.467256031305626],["▁estudio",-9.471907653601757],["▁capaces",-9.472438373555295],["▁generales",-9.473490248342795],["▁vehiculos",-9.473579075094026],["▁serio",-9.47399609324196],["▁mayo",-9.474567120099037],["▁flexibilidad",-9.474630918364578],["▁hablando",-9.476871541613773],["▁diferencia",-9.477046203533078],["▁claridad",-9.477049795447384],["▁principalmente",-9.477754188731923],["▁expresion",-9.478894296927308],["▁definicion",-9.480590063009975],["▁escrito",-9.480753106013042],["▁constituyen",-9.480997415932427],["ron",-9.481549791373576],["▁Fondos",-9.483117511423682],["▁agradecer",-9.484149160598736],["▁permita",-9.484228460289543],[".\nHoy",-9.485113608985854],["▁Italia",-9.485382898904982],["▁desempenar",-9.4874636430361],["▁agricolas",-9.488178960539932],["▁administracion",-9.488394703799418],["▁moneda",-9.488797724849439],["▁resto",-9.48907696756814],["▁elemento",-9.489719728116775],["▁ingresos",-9.489975287590655],["▁mano",-9.490051388517191],["▁buenas",-9.49110909294752],["▁elaborar",-9.491948953263373],["▁socios",-9.492649208381668],["▁Las",-9.492848681831557],["▁dichos",-9.493347825949026],["▁eficiencia",-9.493474304468679],["▁tipos",-9.495804168778932],["▁lleva",-9.496098071658128],["▁mecanismos",-9.496611032649307],["▁comentarios",-9.497031954606786],["▁tecnologia",-9.499344744056758],["▁beneficio",-9.499798125759911],["▁espera",-9.500055527480862],["▁Convenio",-9.501166293076736],["▁exige",-9.501856021347196],["▁relacionados",-9.501993755384706],["▁legal",-9.502141420634029],["▁ideas",-9.502197217593485],["▁facil",-9.502669432811823],["▁mucha",-9.502740876187373],["▁coste",-9.502800491861281],["▁creemos",-9.50304612308878],["▁trabajos",-9.503603991707912],["▁firme",-9.504226877221168],["▁recomendaciones",-9.50474971948106],["▁completamente",-9.504778392667841],["▁tomado",-9.505422987336225],[".\nEstas",-9.505576563615442],["▁promocion",-9.505860624829284],["▁trato",-9.50646642588518],["▁eliminar",-9.506926820572353],["▁controles",-9.507570769231819],["▁previsto",-9.50807475367936],["▁debatir",-9.509804073352042],["▁examinar",-9.51079801648018],["▁rapida",-9.511405960468279],["▁maximo",-9.513228979222045],["▁legislativo",-9.513424831476035],["c",-9.514369216593659],["5",-9.514398378689794],["▁implica",-9.514704391633513],["▁agradecimiento",-9.514734858660331],["▁desgracia",-9.515346622228906],["▁septiembre",-9.519776693535006],["▁Y",-9.520332401878001],["sta",-9.521437047522943],["▁corresponde",-9.521731290805729],["▁2004",-9.522959070062562],["▁creditos",-9.522969651043411],["▁Iraq",-9.523130449491845],[".\nYa",-9.52490798621207],["▁habido",-9.526001147299985],["▁supervision",-9.526462246871612],["▁inaceptable",-9.527430819779621],["▁respetar",-9.528177969289935],["▁seguimiento",-9.529242731645555],["▁entender",-9.529692263477243],["Tambien",-9.529906548647677],["▁situaciones",-9.530466167111378],["▁medianas",-9.53084007975479],["▁lejos",-9.531565294546581],["▁ahi",-9.531690748406666],["▁hablado",-9.532729237344144],["▁senalado",-9.533699803173489],["▁decidir",-9.535134692419078],["▁1999",-9.535322607885778],["▁2006",-9.535751052217481],["▁evolucion",-9.536490635160822],["▁negociacion",-9.53767663368484],["▁proporcionar",-9.537996079012624],["▁particularmente",-9.538213364330192],["▁alcanzado",-9.538921538940423],["▁tendremos",-9.539329375387487],["▁pide",-9.539411870550033],["▁siquiera",-9.5414936203534],["▁llamar",-9.541514475653395],["▁consideracion",-9.541644867061105],["▁Ambiente",-9.543255224950293],["▁decidido",-9.543576953571124],["▁quizas",-9.54471368055904],["▁apertura",-9.545845906328196],["▁recientemente",-9.546353452250875],["▁dichas",-9.546361092452788],["▁observacion",-9.546648531945591],["▁2009",-9.547016406472158],["▁desea",-9.547116662007008],["▁impuesto",-9.548162441168069],["▁observaciones",-9.54838553670998],["▁igualmente",-9.548612394449162],["▁Agencia",-9.548688815391257],["▁2007",-9.549117525165515],["▁minimo",-9.549265725983114],["m",-9.5509725561202],["▁delegacion",-9.551106302629282],["Libro",-9.551314995163601],["▁pruebas",-9.551603526205662],["▁potencial",-9.551842591517884],["▁noviembre",-9.551996127845305],["▁planteamiento",-9.55208429997445],["▁gasto",-9.552951292823703],["▁via",-9.553709854624627],["▁Oriente",-9.554848027470449],["▁comenzar",-9.55533917179274],["▁consiste",-9.556266865713447],["▁inmigrantes",-9.556744512764018],["▁Rumania",-9.556750263484824],["▁PYME",-9.557382807686619],["▁absoluto",-9.557468420927234],["▁prueba",-9.558821676540754],["▁concluir",-9.559390282067348],["▁verdadera",-9.55999734338035],["▁distintas",-9.562432292890941],["▁institucion",-9.562603931226288],["▁humana",-9.562753165888479],["▁luz",-9.563450743643399],["▁celebrar",-9.564223411094837],[".\nEstos",-9.566057095233395],["▁soy",-9.56610876112448],["▁Espana",-9.567762586261585],["▁preocupa",-9.568403255892463],["co",-9.568688438150826],["▁elaboracion",-9.5714153383546],["▁diferente",-9.574969719338684],["▁asumir",-9.575812667536956],["▁2005",-9.576556302099398],["▁diversos",-9.577356098645204],["z",-9.5785083624385],["▁Europea.\n",-9.578719875397427],["▁carga",-9.580666185859007],["▁demanda",-9.58069531364726],["▁esperanza",-9.580769869217141],["▁tratado",-9.581399550950593],["▁podremos",-9.581903456682296],["▁reciente",-9.58214473022042],["▁capaz",-9.582227830520543],["▁metodo",-9.583143415593412],["▁alimentaria",-9.58337000395429],["▁Ucrania",-9.584865117063389],["▁12",-9.585375131432551],["▁util",-9.585403292109886],["▁garantias",-9.586272423474155],["▁llevado",-9.586971402195587],["▁Primer",-9.587184510267354],["▁diversidad",-9.587252705545247],["▁fundamento",-9.58756252488529],["▁sustancias",-9.587977066739931],["▁tendran",-9.588502673046388],["▁diputado",-9.58931808130173],["▁intercambio",-9.589347228190945],["▁producido",-9.589658241370392],["el",-9.589943846901988],["▁fuentes",-9.590436806409198],["▁relacionadas",-9.59070605414208],["▁retos",-9.590924210467314],["▁producto",-9.592878619430005],["▁demostrar",-9.593280090825878],["▁plantear",-9.594643357253206],["▁vision",-9.594645805003394],["▁frecuencia",-9.595550056301061],["to",-9.595713809596326],["▁reservas",-9.596250781916513],[".\nSu",-9.596670231886645],["▁solicitud",-9.596821952619871],["▁determinados",-9.597808689307902],["▁cargo",-9.598891597641913],["▁minorias",-9.599252409639558],["▁tratamiento",-9.59969088552014],["▁permanente",-9.600447746525488],["▁imponer",-9.60070045903943],["▁reglas",-9.602616439235993],["▁apoya",-9.603692017504551],["▁trabajando",-9.603940436143255],["▁merece",-9.604012717590566],["▁incluido",-9.604682708562462],["▁normativa",-9.605739021031106],["▁propias",-9.60631876550014],["▁muestra",-9.6080769320658],["▁progresos",-9.609226118267964],["▁ambos",-9.609370978850524],["▁avance",-9.609935416042724],["▁leyes",-9.610173636452394],["▁seguros",-9.611651617280092],["▁regulacion",-9.61277023151613],["▁institucional",-9.61356711736249],["▁manos",-9.613654464786789],["▁enfermedades",-9.614106093457984],["▁Carta",-9.614931953862621],["▁afectados",-9.615737039141967],["▁metodos",-9.616237518824013],["▁pequenos",-9.616635491131051],["▁octubre",-9.616684932607507],["▁requiere",-9.616915081559736],["▁finalmente",-9.61742589113289],["▁Norte",-9.618209884316883],["▁anual",-9.618498271472662],["▁cierta",-9.619209842231399],["▁nota",-9.62003832575516],["▁contaminacion",-9.620372665857259],["▁consideramos",-9.620438851777106],["▁juego",-9.621721538604433],["▁General",-9.621756480899297],["▁pleno",-9.62310602075812],["▁crucial",-9.62311958048079],["▁Comun",-9.623206118266623],["▁Programa",-9.623482882391674],["▁18",-9.623519690028376],["er",-9.624150255953293],["▁encontramos",-9.624819048197317],["▁2010",-9.62492367640493],["▁libertades",-9.625712736424472],["▁grado",-9.628258628979154],["▁podran",-9.628273465754146],["▁consulta",-9.628364446567053],["▁bueno",-9.629276756826672],["▁urgencia",-9.629423559136061],["▁existencia",-9.629525019888298],["▁aguas",-9.630679965368362],["Creo",-9.631020234177583],["▁vecinos",-9.632355375222273],["▁Senoria",-9.632843987708345],[".\n(",-9.633332705372283],["▁6",-9.633959139375504],["▁concretamente",-9.6340036012161],["▁2003",-9.634193644537051],["▁coherente",-9.635467131831112],["▁ambas",-9.635594474459198],["ca",-9.635620559058456],["▁fraude",-9.635869187846815],["▁basa",-9.635998491239636],["▁Con",-9.637050337628706],["▁urgente",-9.637910046341213],["▁comunitarios",-9.638452849463619],["▁directrices",-9.639730376832166],["▁diversas",-9.640276544563063],["▁organismos",-9.640497243120118],["▁2008",-9.643733370013683],["▁llamamiento",-9.644793278511699],[".\n¿Que",-9.646987939807033],["▁pone",-9.647087739111115],["▁planteado",-9.647520079556733],["▁carne",-9.647550167003137],["▁humanitaria",-9.64797875885349],["▁Humanos",-9.648850307396506],["▁establecido",-9.649067127834584],["g",-9.649824084675753],["h",-9.649892818150354],["▁dijo",-9.651473283113559],["tuvo",-9.651597077321362],["▁pasajeros",-9.653035325117006],["▁cara",-9.653075076329682],["▁hechos",-9.655884540770714],["▁senores",-9.656078674855339],["▁autoridad",-9.656235152962017],["▁modificacion",-9.656467850606967],["▁judicial",-9.656746418377331],["▁senal",-9.65749797727777],["▁impedir",-9.65822188184892],["▁contiene",-9.658904508886964],["▁breve",-9.659431678472993],["▁mar",-9.660251270910601],["▁presidente",-9.660540887169724],["▁local",-9.661008764122265],["▁Iran",-9.661595583848309],["▁futura",-9.662770712313257],["▁8",-9.662855389887358],["▁cuentas",-9.66323414828656],["▁entrar",-9.663407315153883],["▁controlar",-9.663807472454133],["▁Lo",-9.664310210754191],["▁Amsterdam",-9.664400243349146],["▁Popular",-9.66624111564715],["▁escuchar",-9.667328450757296],["▁ampliar",-9.668017703409769],["▁bienestar",-9.668929582069387],["▁conscientes",-9.669539443578984],["▁juntos",-9.66987286164413],["▁especificas",-9.67173794523221],["▁directivas",-9.674238921065607],["6",-9.674838871582686],["▁edad",-9.67517692102778],["▁vias",-9.675294455989825],["▁Al",-9.676410275209765],["▁pagos",-9.67691121569404],["▁nucleares",-9.677107932918666],["▁estructura",-9.677220982966757],["?",-9.677938643825],["▁hizo",-9.679630872861196],["▁50",-9.679653672820608],["▁presenta",-9.680088186721841],["▁curso",-9.680100261150546],["▁mercancias",-9.68072515592591],["▁Schengen",-9.681410347402],["▁gas",-9.681690063250699],["▁olvidar",-9.681822502923865],["▁perfectamente",-9.683204082366622],["▁mujer",-9.685170059009],["(FR)",-9.685965884984808],["▁termino",-9.685975476699632],["▁actos",-9.686182219246076],["▁prensa",-9.68666385867272],["▁menor",-9.686955923506346],["▁exactamente",-9.686994963592886],["▁S",-9.687603321378534],["▁influencia",-9.687750212173931],["es,",-9.687847167126654],["EN)",-9.691582822017397],["▁presentadas",-9.691779008478937],["nte",-9.692030102438618],["▁companias",-9.692642520134141],["▁expertos",-9.693183858490938],["▁margen",-9.693545408000482],["▁adicionales",-9.693726632677373],["▁19",-9.694231873317397],["▁limites",-9.694732967995519],["p",-9.695635207635338],["▁terminar",-9.696273688410265],["▁correcta",-9.697882999953599],["▁Pacto",-9.699023750520844],["▁viene",-9.69913159565665],["▁continua",-9.69942811276704],["▁dudas",-9.7010375988372],[".\nNecesitamos",-9.702767581589072],["▁preve",-9.702819866320315],["»,",-9.703293533190775],["▁7",-9.705035409284985],["▁anteriores",-9.705161240560235],["▁recomendacion",-9.705272507140524],["▁terroristas",-9.705323816975957],["▁partido",-9.705915000760765],["▁vital",-9.706249100440736],["▁movilidad",-9.707247338032559],["▁pensiones",-9.707456722935865],["▁suministro",-9.707529705148696],["▁profesional",-9.708348855869279],["▁F",-9.709466796206351],["▁centro",-9.709754808324325],["▁lineas",-9.710810457270947],["▁presupuestario",-9.71126794756717],["▁funcionarios",-9.71155727885874],["\",",-9.713118859202359],[".\nNuestro",-9.714213286881057],["▁gobernanza",-9.714665843644362],["▁pagar",-9.715000016764256],["▁manifiesto",-9.71614241657178],["▁vea",-9.718198772525591],["▁puesta",-9.718265872845947],["idad",-9.718272117944643],["▁habla",-9.719739301745623],["▁pienso",-9.720366321184521],["ci",-9.727910682848497],["▁2002",-9.728105046743043],["▁naturales",-9.728243369873734],["▁familias",-9.72870378525221],["▁razonable",-9.728843389203531],["▁quiza",-9.72943613097539],["▁sesiones",-9.730960125596313],["▁subsidiariedad",-9.731072272412373],["▁modificar",-9.731305276952684],["▁numerosas",-9.731962747547037],["▁suficientemente",-9.732005499255523],["▁fiscales",-9.732053591884775],["▁plena",-9.73280256459471],["(DE)",-9.732904071168523],["▁alta",-9.733503461403913],["▁superar",-9.733687745441847],["▁probablemente",-9.734160535029918],["▁efectiva",-9.734311232560428],["▁permitira",-9.735062859550494],["▁mision",-9.736109110899536],["▁ve",-9.736529630908247],["▁ciertos",-9.737865715768677],["▁correcto",-9.738246991007507],["▁noche",-9.738899735972469],["▁2020",-9.739374211707213],["▁seno",-9.739430648222672],["urante",-9.740426521625581],["ro",-9.741427048197734],["▁Organizacion",-9.741637831804306],["▁In",-9.742304162374563],["▁garantia",-9.742486744798763],["ido",-9.743138306985161],["▁Como",-9.744133238817577],["▁intervenir",-9.744217077057893],["▁continuacion",-9.744671830035873],["▁cifras",-9.747287594611532],["▁julio",-9.747958829609637],["▁inclusion",-9.748536251228865],["▁refiero",-9.749036937767354],["▁aplica",-9.749438252068984],["!\n",-9.750408616085124],["▁eleccion",-9.751097611875561],["▁economias",-9.751431453205287],["▁proponer",-9.752806516800582],["▁Chipre",-9.75345805408867],["▁Portugal",-9.75417161835618],["▁medicamentos",-9.754180448433644],["▁creciente",-9.754229484817735],["▁intento",-9.754299505683289],["mamente",-9.754750415973431],["▁hacemos",-9.75645523673934],["▁17",-9.756972026414518],["▁exigencias",-9.758980452577482],["▁actuacion",-9.760215025535654],["▁evaluar",-9.760254267450446],["▁informar",-9.760826261431255],["▁reto",-9.762086167008588],["▁error",-9.763042014170777],[".\nD",-9.763121629770675],["▁estructuras",-9.76347512939193],["▁corto",-9.76406719081645],["▁considerable",-9.7640901474998],["▁areas",-9.7650027052712],["▁verdadero",-9.765784134070731],["▁recuperacion",-9.766053047493017],["▁agencias",-9.766431767334641],["▁ocurre",-9.768357833490558],["▁conceder",-9.768416375015065],["▁hacerse",-9.768842511232137],["),",-9.77066251012781],["▁pedido",-9.77150552747568],["▁clima",-9.771856705740307],["▁industrial",-9.772218669983442],["▁viven",-9.772546022804594],["4",-9.773961222369888],["▁esenciales",-9.77403816339885],["▁critica",-9.776051667399887],["▁Barroso",-9.77665346238303],["▁renovables",-9.777201199321494],["▁virtud",-9.777871747061456],["▁financiar",-9.77795958227319],["▁explotacion",-9.778348176018646],["▁voz",-9.779034415179533],["▁hara",-9.779217734134416],["▁Cuentas",-9.779938052365889],["▁Mar",-9.780041233463297],["▁activa",-9.78046906596168],["▁Polonia",-9.780798802836587],["▁ciudadano",-9.78113333578008],["1",-9.781259917731868],["▁conjunta",-9.781330605998567],["▁credibilidad",-9.782612061163016],["▁turismo",-9.782797992984989],["▁Mediterraneo",-9.783209879093317],["▁oradores",-9.783936898165852],["▁efectivamente",-9.783941962965278],["▁natural",-9.785014001608575],["▁conversaciones",-9.785675900170283],[".\nMuchas",-9.785921129166844],["▁intervenciones",-9.786015100434737],["▁relativos",-9.787143412074967],["▁mantenimiento",-9.78860638471989],["▁exteriores",-9.788753706121739],["▁reglamentos",-9.78880518412163],["▁aereo",-9.789994047190314],["▁respuestas",-9.790408438997362],["▁¿que",-9.790875525614638],["▁suficientes",-9.791714922216574],["▁civiles",-9.791948266373547],[".\nPermitanme",-9.792382517497238],["▁obstaculos",-9.793907649844533],["▁tecnicas",-9.794059973165474],["▁plano",-9.79415856634229],["▁Balcanes",-9.794334469647332],["▁limitar",-9.795089664768375],["▁ventajas",-9.795391770038838],["▁concretos",-9.796792997641274],["▁militares",-9.79681323565442],["▁conferencia",-9.7968222090936],["ce",-9.796865561678803],["▁deseamos",-9.797886562764624],["▁campana",-9.798041835504842],["▁sociedades",-9.798731050437762],["▁firmemente",-9.798852556295367],["▁continente",-9.799261587018533],["▁subvenciones",-9.800372683017674],["▁Pleno",-9.80039968743466],["▁familia",-9.800749160137284],["▁2001",-9.800794487051009],["▁parlamentaria",-9.802129101562763],["▁poderes",-9.8024474197068],["▁pasada",-9.803484064272753],["tergubernamental",-9.803547893978498],["(El",-9.803858025564658],["▁doble",-9.804820122788502],[".\nTodo",-9.805610627378131],["▁agenda",-9.806196476572522],["▁consciente",-9.806525655284732],["▁ejercer",-9.809071192255127],["▁representan",-9.809837592059173],["▁imposible",-9.811192408267468],["▁completo",-9.812082265211677],["rse",-9.812083520365565],["▁Comercio",-9.812700024782886],["▁hagan",-9.813758183131883],["▁anadido",-9.813760702458476],["ma",-9.816074584281957],["▁comprobar",-9.818685462242408],["▁reuniones",-9.819229005858217],["▁estudios",-9.81956853031547],["▁insistir",-9.819741255090051],["▁extremadamente",-9.820062263224594],["▁abierto",-9.82087781558251],["▁numerosos",-9.82103070220239],["▁afrontar",-9.822095922802909],["▁convencido",-9.822183943830524],["▁America",-9.823309393954391],["▁convertirse",-9.823646774367699],["▁incluidos",-9.823686571137959],["▁comunidades",-9.824090901451246],["procedentes",-9.824547220715623],["▁impulso",-9.82565904998401],["▁27",-9.82585470966648],["▁claras",-9.828085278670272],["▁especifica",-9.828249162745601],["▁eficaces",-9.829409590293078],["▁dispuestos",-9.829650874175165],[".\nGracias",-9.829719849905164],["▁concreta",-9.829783002411826],["adas",-9.830239006092993],["▁evidentemente",-9.830466005747462],["▁siglo",-9.83077163737982],["▁etiquetado",-9.832213559923352],["▁quedado",-9.832417678822193],["▁abril",-9.832574869220386],["▁agradezco",-9.833488667141994],["▁depende",-9.833579576352985],["▁enfermedad",-9.834279668653453],["▁centrales",-9.834287821310065],["▁humano",-9.83640906582114],["▁debatiendo",-9.83695664304188],["▁cree",-9.837092507346158],["▁explicar",-9.837741225778606],["▁directa",-9.839624686684171],["▁Su",-9.8397098465546],["▁resoluciones",-9.83990533175974],["▁presentes",-9.8405638210037],["▁buscar",-9.840662090685953],["▁poblaciones",-9.840687373351258],["▁desean",-9.841565169854524],["▁repercusiones",-9.841910491072623],["▁impresion",-9.841968175724425],["▁petroleo",-9.842616109931598],["▁tenia",-9.842721779803618],["ti",-9.843094120381055],["▁estatuto",-9.844007053095336],["▁organos",-9.844525029844936],["▁incremento",-9.84496369515417],["▁escuchado",-9.845384151087544],["▁elaborado",-9.845508183538657],["▁pocos",-9.846157181746978],["▁violaciones",-9.846464724263786],["▁ven",-9.846624346885893],["▁Acta",-9.846640267638591],["▁iniciar",-9.847135731259039],["▁especiales",-9.847556942791764],["▁Suecia",-9.848376540533664],["▁13",-9.84854060781142],["▁estrecha",-9.848639333489345],["Paises",-9.849429329702195],["▁Bulgaria",-9.849477930605786],["▁rural",-9.850081702854176],["▁OTAN",-9.851007385478447],["▁manifestar",-9.85154270884866],["▁tabaco",-9.852533849711195],["▁tercera",-9.853214760453058],["▁Comision.",-9.854950317486967],["▁totalidad",-9.855254121948207],["▁creado",-9.857873465588002],["▁positivos",-9.858019622255007],["▁cuotas",-9.859295370265786],["▁bancos",-9.85972180039912],["▁tareas",-9.859728471498478],["▁danos",-9.861484883789498],["▁suma",-9.862157996247419],["▁buques",-9.862270319219132],["b",-9.862697642232837],["▁ocupa",-9.863967833405109],["▁ciertas",-9.864961674939023],["▁Interior",-9.86509177963109],["▁tengamos",-9.865863204734143],["▁distribucion",-9.866084618629039],["▁presentada",-9.866681405842007],["▁formular",-9.866688230476017],["▁expresado",-9.867275653734001],["podriamos",-9.867549037033994],["▁verdaderamente",-9.86797218975733],["mo",-9.871546615787912],["▁Verde",-9.872481509752635],["▁siga",-9.872500434631023],["no",-9.876136255554323],["▁Salud",-9.876153438900438],["infraestructuras",-9.877693092395448],["▁E",-9.878736054217821],["▁digo",-9.880172934138937],["▁mitad",-9.880810729808887],["ni",-9.881006831593393],["▁dando",-9.881294844209545],["2",-9.882293794911831],["▁disponibles",-9.882434353060294],["IT)",-9.882486206349471],["▁determinadas",-9.88453897833259],["▁llamado",-9.884863462606562],["▁transicion",-9.885768207782382],["▁procesos",-9.885801557539057],["▁operaciones",-9.886900806096893],["▁proposito",-9.88768254373757],["▁mostrar",-9.887792906900915],["▁maxima",-9.888806124756783],["▁proceder",-9.889673222309034],["▁propiedad",-9.890223739719941],["▁Agricultura",-9.890765131116225],["▁apoyamos",-9.891487328882096],["▁sola",-9.891497593807152],["▁sanitaria",-9.891607853346732],["▁9",-9.89335922626187],["▁deficit",-9.89355520397422],["▁incluida",-9.89578240414362],["▁larga",-9.89594056853246],["tra",-9.89604491348126],[".\nNuestra",-9.897181650559578],["▁futuras",-9.897462286245528],["(PT)",-9.898438206314536],["▁ultimas",-9.898483161824236],["▁genero",-9.898557485439575],["▁pago",-9.898819924110235],["▁1998",-9.899159865005787],["▁dejado",-9.900269270395299],["▁infraestructura",-9.900273206405757],["▁tecnica",-9.900587549224593],["▁construir",-9.900729269242074],["▁comisiones",-9.901044776459425],["▁criticas",-9.90363082793338],["▁reales",-9.904453423596477],["▁presentacion",-9.90463480285458],["▁adicional",-9.905336943523821],["▁exportacion",-9.90565450263951],["acion",-9.906701927769305],["▁tendria",-9.906828434419829],["▁tiempos",-9.90781902547795],["▁drogas",-9.908756341396796],["▁definitiva",-9.909211483962999],["▁legislativa",-9.909280566818417],["▁adoptadas",-9.90955073451272],["▁ratificacion",-9.911461403969952],["▁posiciones",-9.911605779647992],["▁inter",-9.913420977643668],["▁interesante",-9.91377437942895],["▁aceptable",-9.914227723313289],["▁mejoras",-9.915151235344311],["ismo",-9.91518651664287],["▁India",-9.915720494552613],["▁siguientes",-9.916911662080226],["▁definir",-9.916963656047413],["▁culturales",-9.91705973256461],["▁Pueblo",-9.917061677890555],["▁perdida",-9.917335023280412],["▁unanimidad",-9.9180876697926],["▁conforme",-9.919423276281183],["▁dificiles",-9.920456282129454],["▁Europa.\n",-9.920845140374567],["▁Defensor",-9.922202195746374],["▁factores",-9.923740176631814],["▁O",-9.923748015286193],["?\nEn",-9.923995613789362],["▁internacional,",-9.92526433708002],["▁parecer",-9.925655130040061],["era",-9.925692526338725],["▁rechazo",-9.925988777019102],["▁factor",-9.926440508486234],["▁exclusion",-9.926678933260517],["▁eran",-9.92744857320348],["▁ACP",-9.928416750059547],["▁40",-9.928826885372523],["▁acabar",-9.928887301796522],["▁Asociacion",-9.929244023630984],["▁Bajos",-9.930183476838328],["▁corrupcion",-9.931176781858916],["3",-9.931496779142684],["▁codecision",-9.932563193307649],["▁preparacion",-9.932710756196197],["▁completa",-9.933032413977838],["▁conjuntamente",-9.934360694622764],["▁conocer",-9.934814224519577],["cu",-9.93522424508539],["▁restricciones",-9.935553239562998],["▁Copenhague",-9.93569254201919],["▁vaya",-9.93581867463646],["▁entorno",-9.936507603386499],["▁transparente",-9.937259407188314],["▁Grupos",-9.93766485472082],["▁exigir",-9.938303528391593],["▁apoyado",-9.939030532153815],["▁inicio",-9.94030996655183],["▁profesionales",-9.940596688272844],["▁Presupuestos",-9.94228578510944],["▁simple",-9.942772054732771],["▁deja",-9.943109764732528],["▁deuda",-9.94396286003115],["8",-9.944801406653774],[".\n(DE)",-9.946039794315691],["▁Estrasburgo",-9.946195001479337],["basado",-9.94834714193193],["▁16",-9.948767475281597],["▁causas",-9.95043619048704],["▁afectan",-9.950931214885435],["▁comprender",-9.951286239328173],["▁exclusivamente",-9.95234691632778],["▁energetico",-9.95239036552453],["▁enviar",-9.952526502841213],["▁carretera",-9.954217673739596],["▁delincuencia",-9.954899261515632],["▁opcion",-9.95575186241386],["▁Tratados",-9.95638068872773],["▁monetaria",-9.95667754349308],["▁sacar",-9.956975314604946],[".\nNosotros",-9.957433906668175],["▁abrir",-9.957530131603168],["▁1997",-9.958023266140778],["▁pedimos",-9.958679083348404],["▁convertido",-9.959039967426992],["▁pregunto",-9.960729110417544],["▁acoj",-9.961133376583053],["▁invertir",-9.962158449037435],[".\nDespues",-9.963187614307039],["▁14",-9.963254938843665],["▁lugares",-9.96489575987099],["▁Afganistan",-9.965381946246008],["▁dispuesto",-9.96654370018412],["▁pasos",-9.967373541618663],["▁carta",-9.968328887974494],["▁favorable",-9.968674396884978],["▁excepcion",-9.968925438359053],[".\nFinalmente",-9.96932021751632],["▁incrementar",-9.969905885097326],["▁sur",-9.970057379895842],["▁hablamos",-9.970368171835373],["▁conciencia",-9.97150531097526],["▁coherencia",-9.974029090746104],["▁policia",-9.974031095668948],["▁lamentable",-9.97426766628443],["▁vidas",-9.974273371153352],["▁pescadores",-9.974511232200278],["▁I",-9.974903052860688],["▁globalizacion",-9.97522795085532],["▁recientes",-9.976845456758163],["▁pequena",-9.977626748219976],["ter",-9.977725594469707],["▁obra",-9.97785867386611],["▁fortalecer",-9.978496262407962],["▁oral",-9.97911634615998],["▁norma",-9.979289594519749],["▁rapidez",-9.979471774596135],["▁menores",-9.979812796402115],["▁dan",-9.981471796143413],["▁Belarus",-9.981976309572875],["▁diciendo",-9.982060618585269],["▁nacionales,",-9.982951186386718],["▁legales",-9.984353657555275],["▁referido",-9.984993313307783],["▁tasa",-9.985273677787397],["deberan",-9.987524665948062],["remos",-9.988339030590275],["▁deber",-9.988486936651146],["▁fines",-9.989668966915486],["▁permitido",-9.99011795743783],["▁Democratas",-9.990312220032134],["▁cientificos",-9.991256320022757],["▁ausencia",-9.993762985656915],["▁peor",-9.994028308169598],["▁determinar",-9.995425433429988],["▁II",-9.995907037103958],["▁calendario",-9.996550124279798],["▁presento",-9.999315890474664],["▁encima",-9.999751525520338],["▁revisar",-9.999877039912871],["jo",-10.001561196264303],["▁comienzo",-10.002450953175595],["▁impulsar",-10.002516991276348],["in",-10.002802085098587],["▁fracaso",-10.002848705453928],["▁abierta",-10.004320858833811],["▁contacto",-10.005334467249568],["▁vigilancia",-10.009011784743967],["▁disponer",-10.009210066137095],[".\nEsa",-10.009452884998115],["▁aquellas",-10.009701539067485],["▁sexual",-10.010042395510526],["▁conocimientos",-10.010104752703452],["▁aprobada",-10.010801860986579],["▁PAC",-10.011276503233887],["▁permitan",-10.01294080732709],["▁Comisarios",-10.01312582611879],["▁trabajan",-10.013197102859998],["permitanme",-10.013696375284777],["▁especificos",-10.0140591952871],["▁febrero",-10.014647559667926],["▁parcial",-10.01584728825539],["▁realizacion",-10.016273395720926],["▁representante",-10.016709919917943],[".\nTal",-10.01740342466336],["▁registro",-10.017483659967693],[".\nConsidero",-10.018115438134673],["▁pacientes",-10.018730400048776],["▁inmediatamente",-10.019192936455035],["▁laborales",-10.019302653252673],["▁pilar",-10.019461587657872],["▁dignidad",-10.02031650871396],["▁orientaciones",-10.020361195506329],["▁alguien",-10.021075277703126],["▁regular",-10.021497181153373],["▁ciudades",-10.022648206446657],[".\nHace",-10.022715165604305],["▁aclarar",-10.023313596275342],["▁desafios",-10.023756918497735],["▁podia",-10.024836353960179],["▁siguiente:",-10.025892771470064],["▁significativa",-10.026148461775346],["▁centros",-10.026370674311924],[".\nEuropa",-10.02760664431893],["▁media",-10.027772534855071],["▁individuales",-10.027953198567069],["▁Para",-10.027970257704478],["▁examen",-10.029034376851893],["▁democraticos",-10.029296797254084],["▁afirmar",-10.030309810818714],["▁naciones",-10.030702942380376],["▁reflexion",-10.030824470908161],["▁agentes",-10.03112369330367],["▁fomento",-10.03405466622759],["▁eliminacion",-10.034656876729752],["▁Oriental",-10.03520796414984],["▁pequeno",-10.035333865204374],["k",-10.03547650328898],["▁¡",-10.036066481531124],["va",-10.037113972579562],["▁formulada",-10.038262017663426],["▁Juridicos",-10.03859768426881],["je",-10.038917762419434],["▁orientacion",-10.040198746473493],["▁Austria",-10.040373439599087],["▁mesa",-10.042084571095941],["▁100",-10.042144013074129],["mi",-10.042220056997582],["▁ejemplos",-10.042352686610394],["▁raiz",-10.042932494762962],["▁conciliacion",-10.042934513150595],["0",-10.043009871843752],["▁clausula",-10.045187211475028],["▁adecuadas",-10.045429300412916],["ir",-10.045666465264532],["▁-que",-10.045782984418501],["▁reconoce",-10.046328879074522],["▁rapido",-10.048045007748145],["▁juridicos",-10.048127935458648],["▁enormes",-10.048138560222796],["▁primeros",-10.04825060966098],["▁practicamente",-10.049533954741007],["▁refleja",-10.049949440585518],["▁respaldo",-10.050324530119799],["▁hijos",-10.051205117411866],["▁area",-10.051585053267683],["▁aprobo",-10.052670653400964],["▁estudiar",-10.052840890355327],["▁perder",-10.052916189999392],["▁estaban",-10.054247653578798],["▁basicos",-10.054324777234608],["▁electoral",-10.054339282178905],["▁veo",-10.054611383190279],["▁alternativa",-10.054909042334046],["▁legislativas",-10.055086171635686],["▁existir",-10.055139892876817],["▁democraticas",-10.055342456141883],["▁ecus",-10.055520049867642],["▁Proximo",-10.056985996753866],["▁existente",-10.05699624683232],["▁21",-10.0575014851369],["▁realizados",-10.057530662686487],["▁lamentablemente",-10.058718341195775],["▁privado",-10.059783092124775],["▁britanico",-10.060005910631219],["▁1996",-10.061037998405308],["▁arreglo",-10.061320125146036],["▁lamento",-10.061690177988133],["▁decirlo",-10.062601345837901],["▁visados",-10.063472836142708],["▁convergencia",-10.063561433598672],["▁presupuestarias",-10.063574670841787],["f",-10.063721874629014],["▁pesquera",-10.064780901229513],["▁analizar",-10.065324193057421],["▁modificaciones",-10.066194374432673],["▁rurales",-10.066332198497246],["▁violacion",-10.067699204177918],["▁oportuno",-10.068055591315218],["▁Informe",-10.068486348523638],["▁contratos",-10.06851775270554],["go",-10.068867599147413],[".\nSon",-10.069562102235405],["▁soberania",-10.07004514529206],["or",-10.070194661977018],["▁elevado",-10.070768962346133],["▁presupuestos",-10.070948968866709],["▁lenguas",-10.071086072383096],["▁Estabilidad",-10.07166625128917],["▁union",-10.072254889932722],["▁inicial",-10.072890422576297],["▁preguntar",-10.072916323797436],["7",-10.073048744645629],["▁aprueba",-10.073775409765727],["▁argumentos",-10.074600281104068],["▁ciertamente",-10.074636399909714],["▁inmediato",-10.07502171290621],["▁funciones",-10.075219385231598],["▁peticiones",-10.075424790922257],["▁discurso",-10.075777692782538],["▁afectadas",-10.075890030258112],["▁original",-10.075915181634215],["▁accidentes",-10.075966122071371],["▁ex",-10.076502662839268],["▁eficiente",-10.076698966332792],["▁siete",-10.077647583341788],["▁interlocutores",-10.078193543978838],["▁cerrado.\nL",-10.079386377793838],["▁decirle",-10.08091081143888],["▁rechazar",-10.081351265932057],["▁estadisticas",-10.081515617478242],["▁mantenido",-10.081663962603383],["▁darle",-10.081929404958924],["▁ocurrido",-10.084780641715442],["▁energias",-10.085111687436275],["▁especie",-10.085369026127342],["▁especifico",-10.085524504129651],["▁indicar",-10.086057079782666],["▁personalmente",-10.086143023344189],["▁ONG",-10.086765019446785],["▁alegra",-10.087189856261041],["▁Un",-10.087405502224197],["▁concesion",-10.088164700194755],["▁ilegales",-10.08849011716689],[".\nDicho",-10.08894321536556],["▁destinados",-10.089098749143774],["▁servir",-10.089406375321687],["▁turno",-10.09063494891347],["▁atras",-10.09154274354204],["▁importaciones",-10.091570175699049],["▁comentario",-10.091852957546756],["▁Agenda",-10.094497520034786],["▁tendencia",-10.095556693489218],["▁fuente",-10.095782468214633],["▁alguno",-10.096113800666194],["▁superior",-10.096831423285611],["▁Croacia",-10.097095643921318],["▁determinacion",-10.09838214717823],["▁operadores",-10.100495194201589],["▁cifra",-10.101742181116926],["▁manifestado",-10.102030959059327],["▁Protocolo",-10.10260731550024],["▁solucionar",-10.10270112252067],["car",-10.103275611022148],["▁errores",-10.103722889451607],["▁proximas",-10.104181515584164],["▁sucede",-10.104573608872697],["▁opciones",-10.106330285706196],["▁palestinos",-10.106851515149636],["▁etc.",-10.1071178788212],["▁indispensable",-10.107613726581214],["▁Europeos",-10.107679523846958],["▁personales",-10.108244046753601],["▁formar",-10.10938813119731],["▁industriales",-10.109667545967483],["▁figura",-10.109784938807058],["▁aplicarse",-10.110302262361493],[".\nEse",-10.110586795405206],["▁detalles",-10.111831635607182],["▁segura",-10.112158122079151],["▁Prodi",-10.112362225891015],["▁fijar",-10.112755737530172],["ista",-10.11313618507768],["Quiero",-10.113644959127843],["▁extraordinaria",-10.113715826546652],["▁reaccion",-10.114012709034604],["▁Investigacion",-10.11485144276469],[".\nSobre",-10.115051040303898],["▁exista",-10.11509106336008],["▁Economicos",-10.11703347677269],["▁interpretacion",-10.11711254192712],["▁equilibrado",-10.11783098178189],["▁estrategias",-10.117854110029707],["▁piensa",-10.117867260721741],["▁parecen",-10.118256234373124],["▁mostrado",-10.119024685139586],["▁contribuyentes",-10.119197200354904],["▁lengua",-10.119538932620955],["▁votaciones",-10.120402089940216],["▁frances",-10.120557047220512],["▁referente",-10.121104440122817],["▁unidad",-10.12150517970612],["▁norte",-10.122047616386666],["▁destinadas",-10.123286524480863],["▁buenos",-10.124568669822136],["▁prevenir",-10.125756345296578],["▁permiten",-10.125769276918145],[".\nSegun",-10.126193481729116],["▁miembros.\n",-10.128579614798262],["tar",-10.129110013109184],["▁retraso",-10.129358256164188],["Lamentablemente",-10.129537671279401],["▁reconstruccion",-10.131230070569021],[".\nTengo",-10.132187999635132],["▁llega",-10.132238118674465],["▁similares",-10.13356565461078],["▁pasa",-10.13359396753793],["doy",-10.13472988394059],["▁alternativas",-10.134745972687334],["▁CO2",-10.135899677170684],["fi",-10.136083159784295],["▁contribuido",-10.136396682554528],["▁Socialista",-10.136526289298978],["▁parlamentos",-10.136560117788502],["▁identidad",-10.136622486552282],["▁publicidad",-10.136753191750136],["▁representacion",-10.137017090533538],["▁vemos",-10.137993036653134],["▁vivir",-10.140028834568128],["▁quedan",-10.140091455724406],["▁suerte",-10.140166173452675],["▁destruccion",-10.140589850942739],["▁familiar",-10.140705219145147],["▁bienes",-10.140825787551748],["▁indica",-10.141544358508478],["▁instalaciones",-10.142054797396552],["▁producir",-10.14280017132894],["▁delitos",-10.14294730967551],["NL)",-10.144058180246606],["▁burocracia",-10.144444243980375],["▁obligados",-10.146192250939759],["reestructuracion",-10.147454680136157],["▁expectativas",-10.147929656649016],[".\nQueremos",-10.148079849363139],["▁casa",-10.149407083235266],["▁trabajado",-10.14991504967855],["▁claros",-10.150171171255234],["▁enfrenta",-10.150371034442603],["▁temporal",-10.15098562426537],["▁produce",-10.15164152489217],["▁aceptado",-10.152214154261062],["▁aportar",-10.15319271157912],["▁desearia",-10.153289359739075],["▁Asia",-10.153669028581522],["▁ministros",-10.153916007894193],["▁24",-10.15410029092762],["▁fenomeno",-10.154273005374204],["▁elegido",-10.157100953199889],["▁transportes",-10.157604249735854],["▁seguira",-10.158392046898241],["▁penal",-10.160005975329003],["▁visita",-10.161045394178569],["▁deporte",-10.161914771547925],["▁habitantes",-10.161965324826996],["▁dispone",-10.16221139426081],["▁crea",-10.162388779610964],["ciones",-10.162564362450835],["▁bilaterales",-10.162702417434028],["▁brevemente",-10.16304970740807],["▁bienvenida",-10.16309425639109],["▁acordado",-10.163146010240403],["▁felicito",-10.16394228591668],["▁lideres",-10.164024821466622],["izacion",-10.164700616439665],["▁mantiene",-10.16470239719606],["▁tecnico",-10.165102855456592],["▁tecnicos",-10.16540866252355],["▁simplificacion",-10.16597802435924],["▁ciudadania",-10.167887943228912],["ga",-10.168796583194018],["▁prosperidad",-10.169646533272815],["▁movimiento",-10.169821589770969],["▁materias",-10.170008965857093],["▁pocas",-10.171255501614077],["▁correspondiente",-10.171581144967368],["▁justa",-10.171747837852113],["▁correctamente",-10.17226784986026],["▁similar",-10.172948336477429],["▁Georgia",-10.173080429506154],["▁intenciones",-10.174657657088481],["▁23",-10.174845115359771],["▁garantice",-10.174847560122505],["▁Serbia",-10.174941054987405],["ble",-10.174948503886949],["▁investigaciones",-10.175524744904152],["▁usuarios",-10.176084440117652],["▁emprender",-10.176415547382472],["▁catastrofes",-10.176616228431964],["▁reserva",-10.176713523257538],["▁UE.\n",-10.176930973760697],["▁Sur",-10.176977804446892],["▁anteriormente",-10.177050876461829],["▁perdido",-10.177698568727564],["▁conducta",-10.178315958880503],["▁considerando",-10.178673122260193],["▁carece",-10.178682089489083],["▁dispuesta",-10.179780539671299],["▁duracion",-10.179978991471033],["▁partida",-10.180203585892492],["▁afirma",-10.180662727479175],["?\nLa",-10.180737281610657],[".\n¿Por",-10.18119085764522],["▁ONU",-10.18160588546978],["▁empleos",-10.18218152404486],["▁caracteristicas",-10.183245334532812],["▁emergencia",-10.1842653930766],["▁Economica",-10.185615521424264],["▁antigua",-10.186648469610908],[".\nSenorias",-10.186692061775796],["▁costa",-10.187210036014989],["▁Energia",-10.187857449132064],["▁logica",-10.187937258530237],["▁solicitado",-10.187987310816105],["▁sostenibilidad",-10.188302075926302],["imos",-10.188566516058444],["▁oficial",-10.189067180849264],["▁solicitar",-10.189926694098629],[".\nAsi,",-10.190608040684833],["▁seguido",-10.190720229302705],["▁titulo",-10.190765139866638],["▁negociar",-10.19086571834931],["▁elegir",-10.191076404603518],["▁condena",-10.191359758087057],["di",-10.19227220786528],["▁recurso",-10.192347895669553],["▁hombre",-10.192515372580438],["▁par",-10.192539427463512],["▁catastrofe",-10.192892742849505],["▁constante",-10.193164145313332],["▁cantidades",-10.193306800195217],["▁acoge",-10.193560803743557],["▁Comunicacion",-10.194146699314294],["▁bases",-10.194261895155147],["▁independientes",-10.19446950920491],["▁celebrado",-10.194622274116636],["\nDe",-10.194723990830433],["▁oido",-10.19549482601171],["▁Palestina",-10.19685606239982],["▁peso",-10.19872480184241],["▁libres",-10.199518514084064],["▁television",-10.199656885727038],["▁constitucional",-10.200300139994528],["▁baja",-10.20035654017695],["▁ataques",-10.200525119369363],["▁material",-10.201090745407953],["▁autentica",-10.201735182543413],["▁B",-10.201858007295344],["▁aproximadamente",-10.202695812214117],["▁dicen",-10.202830648320734],["▁Publica",-10.202851415296323],["▁producen",-10.202903274876938],["▁aereas",-10.20339910564077],["▁articulos",-10.203551746680073],["▁Mercado",-10.203639734359394],["▁convierta",-10.203667085605375],["▁funciona",-10.204083292164263],["▁22",-10.204216464786931],["▁inmediata",-10.20424178278016],["▁parlamentario",-10.206185251376029],["▁Gran",-10.206660534272705],["▁tratados",-10.207388685565125],["▁instancia",-10.20779804156786],["▁incluidas",-10.207924155439379],["terinstitucional",-10.20864837593356],["▁Luxemburgo",-10.20871587850036],["▁Sus",-10.20973183792464],[".\nAdemas",-10.210736038611458],["▁garantiza",-10.210777837296673],["▁Control",-10.210976624875183],["▁adoptada",-10.21108192341265],["▁cerrar",-10.211892616653891],["▁respaldar",-10.212330601565036],["Jefes",-10.212802736589985],["▁basta",-10.213448250690726],["▁cuidado",-10.214136596048693],["▁sencillamente",-10.214992143900709],["▁cuarto",-10.21510891653697],["▁conservacion",-10.215154286366866],["▁Representante",-10.216046251836499],["▁textos",-10.216686648146876],["▁tierra",-10.217417490310343],["▁preparar",-10.218978314211007],["▁senala",-10.219513625244119],["cada",-10.219537920578528],["▁asociaciones",-10.219999742281686],["▁Fundamentales",-10.22018740308005],["▁Social",-10.22023388242383],["▁estara",-10.220350305242384],["9",-10.220412692746688],["▁estatales",-10.221078900778014],["▁queria",-10.221925469167019],["mente,",-10.22227917447388],["▁sinceramente",-10.22310469324264],["▁co",-10.223309891733832],["▁siento",-10.223910528762463],["▁salir",-10.225200113315292],["▁firma",-10.226506580606397],["un",-10.227861766685933],["▁estrategica",-10.22840299434083],["▁ponga",-10.228491446460968],["▁regimenes",-10.228496672890603],["▁Pesca",-10.228553855296976],["▁jueves",-10.22995492280708],["▁dirigir",-10.230064485243727],["▁comite",-10.2303273224885],["▁generacion",-10.230582895708057],["Ademas,",-10.231277635541788],[".\n.",-10.23128653952642],["▁emision",-10.231464611813802],["▁imagen",-10.231923667176638],["▁requisito",-10.232212834316075],["▁destino",-10.233379818084483],["▁acto",-10.233807087276691],["▁ruego",-10.234170904443998],["▁-com",-10.236397857810907],["▁IVA",-10.236535085692253],["▁comparacion",-10.236607844891605],["▁Asi",-10.23712749198099],["▁clase",-10.237371259315761],["▁adopte",-10.239067143154635],["▁transfronteriza",-10.239272049977302],["▁pie",-10.239334710456589],["▁celebro",-10.239818788027092],["▁precisa",-10.24003219817284],["▁informe.\n",-10.240101037037189],["▁transferencia",-10.240256664043534],["▁porcentaje",-10.241459613904961],["▁convertir",-10.241630631427451],["▁velar",-10.241644557568922],[".\nAlgunos",-10.243752913693775],["▁categoria",-10.24514655262119],["▁organizar",-10.245291677402406],["▁comparto",-10.245981707640325],["▁Corea",-10.246033768172186],["▁Marco",-10.246121013008647],["▁PIB",-10.246350381079555],["▁deficiencias",-10.24707938305923],["▁estructural",-10.247080608362293],[".\nNaturalmente",-10.247855710608516],["Hemos",-10.248418330929828],["▁exportaciones",-10.249125952301647],["tas",-10.249721127013604],[".\nEntre",-10.250061396355722],["▁campos",-10.250063533019912],["▁interna",-10.251069757435118],["▁reducido",-10.251362177841283],["▁celebracion",-10.251449680594366],["▁parlamentarios",-10.251582863283312],["▁reglamentacion",-10.251976557202326],["▁logro",-10.252439752742255],["▁significativo",-10.252746487485858],["▁utilizan",-10.253115504047408],["▁frontera",-10.254429780019766],["▁aplican",-10.255085110091306],["▁empleados",-10.255695493398473],["▁mala",-10.256495946267705],["▁acceder",-10.25807872511406],["▁Ha",-10.258091917598186],["▁enormemente",-10.258169394420351],["▁enfrentamos",-10.25929764881791],["▁competitiva",-10.259309302069918],["▁referendum",-10.259361830993189],["▁satisfactoria",-10.260267301838763],["▁1995",-10.261169337822055],["▁considerarse",-10.261177101996335],["▁autorizacion",-10.261411407271094],["▁trate",-10.263348162456012],["▁discutir",-10.263722206712954],["▁plazos",-10.26394410532757],["▁puertos",-10.264229864978773],["▁ciudad",-10.264912619862338],["▁consideraciones",-10.265125983147371],["▁Le",-10.265470305245032],["▁Van",-10.2657544873169],["tal",-10.265937562235553],["▁referirme",-10.266166102030908],["▁adaptacion",-10.266480248697235],["▁criterio",-10.266671445425544],["▁animal",-10.266749878638036],["▁exigencia",-10.267165528500644],["▁francesa",-10.267186003322056],["▁barreras",-10.268282891678913],["▁tome",-10.269577184971766],["▁mutuo",-10.27000866299051],["▁compensacion",-10.270033657114237],["▁abandonar",-10.270077472323354],["▁incluyen",-10.270158138341863],["▁cumplan",-10.2706362071118],["▁senoras",-10.271583080533677],["▁Exterior",-10.271680038331045],["▁moral",-10.273483235029797],["▁60",-10.273860157713846],["▁Estructurales",-10.2739075417106],["▁confirmar",-10.274138959637398],[".\n¿Como",-10.274292365350217],["▁profundamente",-10.274305248250275],["▁antiguos",-10.27446516725102],["▁aleman",-10.274854431586665],["▁ocho",-10.274948648839286],["▁incluya",-10.276006285468844],["▁version",-10.276387967533957],["apenas",-10.276472967756515],["▁llegue",-10.276671183772635],["▁hubiese",-10.277822401115053],["▁simplificar",-10.278301634543812],["▁amigos",-10.278713569599537],["▁cientifica",-10.280375392119076],["▁observar",-10.280875494011735],["▁retirada",-10.281268124009214],["▁activo",-10.283496777722668],["▁Mi",-10.284759310340576],["▁electricidad",-10.285698392901665],["ten",-10.287810876791848],["Ahora",-10.288370718924309],["▁insta",-10.288595195022083],["▁constructiva",-10.289877257031034],["▁grande",-10.290583167712555],["▁normal",-10.291024000864715],["▁demuestran",-10.29365728080538],["▁500",-10.29368938807923],["▁vulnerables",-10.294019236278316],[".\nSabemos",-10.29477363703555],["▁organizada",-10.295565449843473],["▁fabricantes",-10.29583450800213],["▁estimados",-10.296118558620805],["▁socio",-10.296540673360603],["▁equipo",-10.296867090991187],["▁consideran",-10.296902161581624],["▁sufren",-10.297656414048543],["▁planificacion",-10.297676631483288],["▁experiencias",-10.298026627754918],["▁debidamente",-10.298379987664292],["▁mil",-10.298613157200021],["▁Monetarios",-10.298883493175795],["▁industrias",-10.299115076633736],["▁codigo",-10.29985749955609],[".\nSeria",-10.30010284688682],["man",-10.300670875382796],[".\nMientras",-10.301015775765464],["▁transmitir",-10.30111934310223],["▁aprender",-10.30153402530184],["▁territorial",-10.301585492517145],["▁territorios",-10.30258778902892],["pa",-10.303127737638054],["▁horas.\n",-10.303705602818072],["▁repetir",-10.304256292116165],["▁comprometido",-10.304658045230646],["?\nSenor",-10.30507445925317],["▁aplicable",-10.30540125473698],["us",-10.305575423152554],["▁presupuestarios",-10.305904744612434],["▁relieve",-10.306168403272908],["correspondientes",-10.306484664289872],["▁capitales",-10.307529377762773],["▁Niza",-10.308208308782607],["▁supresion",-10.30820865972479],["▁utilizado",-10.308266126171613],["▁debatido",-10.309223907518284],["▁liderazgo",-10.310718461634343],["▁Finlandia",-10.310719016595332],["▁aquel",-10.310869112963799],["▁oferta",-10.311573468903418],["▁solida",-10.311893648049146],["▁insuficiente",-10.311922219606256],["▁Resolucion",-10.312539879662374],["▁gases",-10.31368646805072],["▁seriamente",-10.314144814217997],["▁excepciones",-10.314698962476072],["▁exposicion",-10.314788547183],["▁ambiental",-10.31520703417329],["▁padres",-10.31624447955961],["▁primas",-10.317002086139052],["▁carbono",-10.317657809149289],["▁estrictas",-10.317690529890147],["▁quedar",-10.317760732834582],["▁minutos",-10.317918618531005],["▁crimen",-10.318042829618804],["▁activamente",-10.318078450812397],["Quisiera",-10.31809785033471],["v",-10.318239916587087],["▁empresarial",-10.318281343330815],["▁intentado",-10.318762692157037],["▁convencer",-10.318801852324068],["▁suel",-10.32081969917976],["▁irlandes",-10.321707917630997],["▁Belgica",-10.321928862745406],["telecomunicacion",-10.322957900299503],["tan",-10.323814145030266],["comercializacion",-10.324088696076535],["▁Hungria",-10.324494189875443],["▁Europol",-10.325012474437653],["▁tribunales",-10.325169984718444],["▁reconocido",-10.325274782226678],["▁deseos",-10.325509185505428],["▁aumentado",-10.325679043636585],["▁mundiales",-10.325706872067279],["▁cierre",-10.325769060975826],["▁autor",-10.326700411890522],["▁Baltico",-10.327595547542682],["▁argumento",-10.328401875146533],["▁disponemos",-10.32853519958833],["▁futuros",-10.328863370152185],["▁tratando",-10.32915886837875],["▁intenta",-10.330113804581718],["▁intentando",-10.330185409591756],["▁ambicioso",-10.330563366788471],["▁permiso",-10.33077038287454],["▁adecuados",-10.330865819247819],["eron",-10.331492088430158],[".\nResulta",-10.331677690683657],["▁detencion",-10.332909411189144],["▁desafio",-10.334790076247788],["▁interno",-10.334973019048675],["▁determinado",-10.335690357802335],["ntes",-10.335811384968004],["▁altos",-10.335919550721258],["▁pensamos",-10.33638071794813],["▁votos",-10.336403129285856],["▁acogida",-10.336741292545796],["▁sabido",-10.337420949407017],["▁epoca",-10.338066115974806],["▁absoluta",-10.338565208851904],["▁utilizando",-10.339019663854483],["▁positivas",-10.339293788049881],["▁Presidentes",-10.339306922080967],["▁individual",-10.339955088017646],["▁Transportes",-10.34075155405906],["▁contribuye",-10.340758384803662],["▁institucionales",-10.341053913153495],["▁esperan",-10.34122908706831],["▁estrechamente",-10.341258744289572],["▁entendido",-10.34176145755713],["▁desarrollado",-10.341818549548265],["▁Barcelona",-10.342115790284687],["▁salarios",-10.342472681068482],["▁dictamen",-10.342884940514722],["▁implicados",-10.343622382791848],["ras",-10.344129059250523],[")\n",-10.344740763500942],["▁tasas",-10.344810209222821],["▁funcionar",-10.346104226960048],["▁conveniente",-10.347139543415672],["▁haberse",-10.34732401663276],["▁pudiera",-10.347404006896456],["▁vinculante",-10.347414839359185],["▁acelerar",-10.347905975136364],["▁Autoridad",-10.34900180619937],[".\n(PL)",-10.34986584016293],["O)",-10.349999891029366],["▁adecuadamente",-10.350417824536045],["▁cumplido",-10.350517001507956],["▁negativa",-10.351245918408694],["▁Bretana",-10.35157220510354],["▁empresarios",-10.351578963555154],["qui",-10.351713623564864],["▁gubernamentales",-10.351844314711897],["▁maritimo",-10.353567121899054],["▁limitado",-10.35397582800293],["▁cumplen",-10.35415018562271],["▁(H",-10.354273865066752],["▁seguimos",-10.354298732749601],["▁destacado",-10.354319428625402],["▁proporciona",-10.354716566422084],["▁alternativos",-10.355273624003338],["▁capitulo",-10.356537394447466],["▁comportamiento",-10.356567342695005],["▁quince",-10.35686669096777],["▁recuerdo",-10.357412632757327],["Respect",-10.357648666829963],["▁cometido",-10.357949351375847],["iendo",-10.358235330386323],["▁informado",-10.358275187389014],["istas",-10.358315664740148],[".\nEsperamos",-10.358378137314205],["▁favorecer",-10.358752382703567],["▁fortalecimiento",-10.359521904458433],["▁resistencia",-10.359528414373013],["▁sufrido",-10.359656840225647],["ri",-10.359964913744347],["▁resulte",-10.360586031355536],["▁busqueda",-10.360791473459887],["▁minoria",-10.360837721870475],["▁dirigentes",-10.361318506885215],["▁estadounidenses",-10.361511521400644],["▁destinado",-10.361631235494393],["▁agencia",-10.362053940179543],["▁realista",-10.364621960891295],["▁aviacion",-10.3648561989679],["▁venta",-10.366237514634806],["▁amenazas",-10.366353909159967],["▁materiales",-10.366795890334426],["(EL)",-10.367009252011432],["▁Verdes",-10.367127204786101],[".\nPienso",-10.367362476363159],["▁llamada",-10.367397589888363],["▁firmado",-10.367781318244198],["▁Bosnia",-10.36905462800528],["▁acervo",-10.36914449288086],["▁Proteccion",-10.36938736518102],["pe",-10.369841686479742],["▁aire",-10.369978528192409],["▁patente",-10.370043358188349],["▁profunda",-10.370101848529254],["▁Pakistan",-10.370698556495514],["▁viaje",-10.37071489647732],["▁llevan",-10.371570945997203],["▁Blanco",-10.371616961084559],["▁Japon",-10.372375901957106],["▁judiciales",-10.37337866745673],["▁recurrir",-10.373613691867423],["▁ahorro",-10.374419665226846],["▁cooperar",-10.374956394804027],["▁constituir",-10.375358469306601],["▁Re",-10.37536192299963],["▁menciona",-10.37674788483246],["▁temo",-10.377187718017606],["▁constitucion",-10.377400952096925],["▁adopto",-10.378318869670508],["▁intelectual",-10.378905761880624],["▁competentes",-10.37904220902847],["▁80",-10.379230404752676],["▁equilibrada",-10.379340996229633],["▁culpa",-10.379348775198677],["▁CE",-10.379360342982569],["▁Libertades",-10.380083238819736],["▁universal",-10.380233086378759],["▁forman",-10.38157417806663],["tro",-10.381646364046384],["▁dirigida",-10.382010346673304],["▁formulado",-10.38214687096017],["como",-10.382177684724176],["▁merecen",-10.382241384426475],["▁Plan",-10.382660406999491],["▁solicitudes",-10.382803369900543],["ver",-10.383606554762519],["▁EEB",-10.384300600113253],["▁oriental",-10.38433177562191],["▁administrativa",-10.384831312760053],["▁encontrado",-10.385398342336085],["▁distancia",-10.385888316427703],["▁discusion",-10.386185065727659],["▁volumen",-10.386779851747495],["▁marca",-10.386917695626023],["▁juridicas",-10.387253653848218],["▁crimenes",-10.38790811760817],["▁finalidad",-10.388185508530313],["▁alemana",-10.388189151423404],[".\nDado",-10.388745704988462],["▁importe",-10.389269841048892],["si",-10.389329449825746],["▁competente",-10.389617968685686],["▁D",-10.38964019479143],["▁Empleo",-10.389777408944276],["Tenemos",-10.390075004174154],[".\nUsted",-10.390696098753303],["▁establecidos",-10.390940417746924],["▁31",-10.39137834105778],["▁26",-10.392096060846992],[".\nTampoco",-10.392196143667018],["▁relativamente",-10.392582868464405],[".\nUno",-10.392725032777827],["▁contribuira",-10.394281513745048],["▁Monetaria",-10.39581997017919],[".\nEllo",-10.398098489947348],["▁-en",-10.398594787098464],["▁¿como",-10.398701356359178],["▁enfrentan",-10.398898081413193],["▁creen",-10.399845613671957],["▁capacidades",-10.400499924373362],["▁detalle",-10.40150675934498],["▁pre",-10.40221585361777],["▁Hay",-10.402969239636903],["▁aportacion",-10.403364696001313],["▁aeropuertos",-10.403839531801918],["▁cientos",-10.404831115337458],["▁dedicado",-10.405264946406698],["▁comentar",-10.40549799191846],["▁flexible",-10.405655245893236],["▁imprescindible",-10.405675822602792],["▁credito",-10.406441739530518],["▁pacto",-10.406853719150686],["▁vuelto",-10.406923607535461],["▁acepta",-10.408530932081339],["▁estrategico",-10.40984383611463],["▁legitimidad",-10.409884786906378],["▁bajos",-10.410172414225045],["▁honor",-10.41136945560528],["▁obvio",-10.411388812805217],[".\nDebe",-10.411633616611972],["▁ofrecen",-10.411797051194801],["▁consecucion",-10.41319680865189],[".\nMas",-10.413595795509053],["▁interesados",-10.413765602957739],["▁britanicos",-10.413818454428657],["▁geneticamente",-10.413844349700407],["permitame",-10.414148755386144],["▁pacifica",-10.414199431671928],["▁2011",-10.414208064228271],["▁puerta",-10.414450334803186],["▁sigan",-10.415694278077417],["▁organo",-10.415933972996418],[".\n¡",-10.41653203265415],[".\nActualmente",-10.416577307589368],["▁historico",-10.416717662662432],["▁declarado",-10.417163730197693],["▁aplique",-10.41735054418631],["▁derivados",-10.418294951976744],["▁recuperar",-10.418381571272576],["▁fuertes",-10.418949984155315],["▁sanitarios",-10.418998779913894],["▁ganado",-10.419039011103708],["▁dependencia",-10.419185638367072],["▁previa",-10.419755509095197],["cia",-10.421745104893287],["▁operacion",-10.422467392254958],["▁refuerzo",-10.422659710878854],["V",-10.422959242302039],["▁redaccion",-10.423227640423084],[".\nTras",-10.423491130537457],["▁especies",-10.424260684561105],["▁invernadero",-10.42436135616721],["▁hubo",-10.42438967724218],["▁compartir",-10.424522562143348],["▁espanola",-10.424898055620014],["▁toneladas",-10.425668294149439],["▁leer",-10.425805900508674],["▁britanica",-10.426348725829222],["▁reflexionar",-10.426518960805108],["za",-10.426963583423355],["▁Presupuestario",-10.428343158817782],["▁fu",-10.429303457374797],["▁negativo",-10.430052919929961],["▁vigente",-10.43102232368128],["▁estados",-10.431322832671928],["▁iniciado",-10.431801261963464],["▁sustituir",-10.432004411316406],["▁incluyendo",-10.432460115230224],["(PL)",-10.432496123150138],["▁celebrara",-10.43304778617866],["▁decisivo",-10.433209477574806],["▁Yo",-10.433428578677667],["▁conservar",-10.433554724656803],["▁prohibir",-10.433606628430876],["▁oir",-10.4338792510598],["▁racismo",-10.434059094058345],["▁Consumidor",-10.434147588232841],["▁abarca",-10.434653812750422],[".\nExiste",-10.435046121658841],["▁posterior",-10.43507850560654],["▁decirles",-10.435681948496045],["▁dificultad",-10.43568229822738],["▁accidente",-10.435883230591038],["▁diga",-10.436188673013387],["▁ataque",-10.436297920056301],["▁reciben",-10.436633234882725],["▁considerado",-10.437181792898791],["▁gestionar",-10.438027992842104],["▁anuales",-10.439225446973962],["▁division",-10.43955851536553],["▁apropiado",-10.43987819884251],["▁estimular",-10.440306837412072],["▁patrimonio",-10.440961622431054],["▁consolidacion",-10.440961622466915],["▁acabo",-10.441540119031883],["▁cancer",-10.441540506108465],["▁fe",-10.44154110434613],["▁disponible",-10.442160939661708],["▁organismo",-10.442718227908522],["▁ritmo",-10.442754795596567],["▁interesadas",-10.443020006154484],["▁contactos",-10.443752145620453],["▁cambiado",-10.444178944732409],["▁aprendizaje",-10.444481956754345],["▁probable",-10.444517741644527],["tuve",-10.445280189070136],["▁usar",-10.445306700253187],["▁alrededor",-10.44532294013033],["▁entiendo",-10.445629978228034],["Debemos",-10.446093194971429],["▁sirve",-10.446186211363308],["▁diria",-10.446276648079067],["▁peligrosas",-10.446696327224455],[".\nMuchos",-10.44721505829732],["▁delante",-10.447499157209489],["gu",-10.447608243357422],["▁equipos",-10.449963566073572],["▁urgentemente",-10.450085524118535],["P",-10.450164621372544],["▁aparte",-10.45037012064531],["ve",-10.451849295750003],["▁estudiantes",-10.452526097244238],["▁administrativos",-10.452592811529962],["▁perdidas",-10.452702653107693],["ida",-10.452770900465655],["▁inflacion",-10.453170453437249],["tu",-10.453214208161953],["▁obviamente",-10.453309689873452],["▁finanzas",-10.453741420117899],["▁efectivo",-10.453814733212454],["▁organizado",-10.453912280753167],["▁sentencia",-10.455015735966846],["▁candidato",-10.455156727174426],["▁1,",-10.45518469094692],["▁relacionado",-10.455224584575236],["ge",-10.45557107377666],["▁antiguo",-10.456358300195653],["▁indicadores",-10.456409637794376],["▁miedo",-10.45650779350228],["▁Cuba",-10.457708838847683],["▁vino",-10.458164701633583],["▁pertinentes",-10.458727101263333],["▁28",-10.458803875010194],["▁constantemente",-10.459043595681065],["rio",-10.459979411707975],["▁2,",-10.460027622743127],["▁dirigidas",-10.460372035425682],["▁escuelas",-10.460826146684173],["▁Regional",-10.461398839557488],["▁periodos",-10.461399844819049],["▁directo",-10.461634177507861],["▁ensenanza",-10.461880180344869],["▁tragedia",-10.462047228869036],["tos",-10.462290940917839],["▁conviene",-10.462702207030315],["▁esperanzas",-10.462709530959247],["▁concede",-10.463058279528628],["▁Secretario",-10.463139362283894],["be",-10.463425784383995],["▁humanidad",-10.463730543612424],["▁privada",-10.463998303905901],["▁preocupante",-10.464161515089566],["▁tradicionales",-10.464507973567446],["▁flota",-10.464862615865552],[".\nTiene",-10.465636721417416],["▁Maastricht",-10.466094446625153],["▁constructivo",-10.466266519928462],["▁aplicado",-10.466366421057081],["▁modernizacion",-10.46787195069788],["▁Accion",-10.46826477508386],["▁someter",-10.468608317064255],["▁consultas",-10.469915698844455],["siderablemente",-10.470198122062676],["▁infantil",-10.470243553738683],["▁imposicion",-10.470246573190966],["▁cumple",-10.470313618836846],["▁creer",-10.470544813396288],["▁complejo",-10.470706245591492],["▁espanol",-10.470891654309206],["▁apruebe",-10.470913757019018],["endo",-10.471883017800911],["bi",-10.472055588066997],["▁abusos",-10.472540702369976],["▁resaltar",-10.472557092564664],["▁belga",-10.472605320417024],["▁estable",-10.472825733189458],["iamos",-10.473489279702969],["▁encaminadas",-10.473643340236546],["▁ferroviario",-10.474011877661237],["▁utiliza",-10.474384342815524],["miento",-10.474459496613889],["Espero",-10.474486464036161],["▁identificar",-10.474735133869604],["▁desastre",-10.474865468727813],["▁Macedonia",-10.475187068985399],["▁ejercito",-10.476317871899369],["▁Dinamarca",-10.478492587747429],["ja",-10.478630850416081],["tuvieron",-10.47905418362635],["▁200",-10.479088225132642],["▁explicacion",-10.480235582199857],["▁indicado",-10.480449846326458],[".\nCreemos",-10.48135727063239],["izar",-10.482162460334404],["▁electronico",-10.483299822318994],["▁aborda",-10.483876563133096],["▁anti",-10.484196413911203],["▁alegro",-10.484614503922039],["▁Berlin",-10.484838151897051],["▁ocupacion",-10.484897873886467],["?\nNo",-10.485873088075714],["▁leche",-10.487046484472767],["▁carreteras",-10.487206407265475],["▁migracion",-10.48811392587698],["▁admitir",-10.488206042184189],["▁aprobadas",-10.489106866101746],["▁comunicaciones",-10.490087675932507],["▁esfera",-10.490446675929864],["▁etapa",-10.490648434738805],["▁prestamos",-10.490798889140342],["▁cadena",-10.491940431213365],["▁desarrollados",-10.492410940912723],["▁adopten",-10.492413960298496],["▁ponen",-10.493951010026102],["▁necesariamente",-10.494836041387806],["▁planeta",-10.49488267134693],["▁satisfacer",-10.495153182375258],["▁destinada",-10.495513142923432],["▁desempena",-10.495673566703386],["cer",-10.495786140853152],["▁finalizar",-10.496848511470391],["▁delito",-10.497539135132506],["Alto",-10.498428541574501],["▁consolidar",-10.498578536132536],["▁suprimir",-10.498694638566047],["▁participado",-10.498793407234796],["▁verano",-10.498879494164758],["▁pesquero",-10.498935689580556],["▁produzca",-10.499950862716322],["▁colaborar",-10.499976476476863],[";\n",-10.500012951253296],["▁Cultura",-10.500414491549618],["▁12.00",-10.50114887450432],["can",-10.501173900842172],[".\nIncluso",-10.501732976363595],["▁irlandesa",-10.502192012749695],["ndose",-10.502464803309579],["▁lleve",-10.502541373876628],["▁participantes",-10.50330317785615],["▁requieren",-10.504775145946745],["▁per",-10.505465346195816],["▁29",-10.50562280096297],["▁Cooperacion",-10.505754290774927],["bamos",-10.506031834809129],["▁decia",-10.506218726615277],[".\nOtro",-10.506246177202673],["▁acoger",-10.506260898540377],[".\nApoyo",-10.50641620071689],["▁riqueza",-10.506422765688026],["▁integrado",-10.506660408108687],["▁(Democrata",-10.507176537171341],["▁hago",-10.507895800904105],["▁Acta\n",-10.508124826717577],["▁ojos",-10.509170876972558],["▁dirigido",-10.509831592436086],["▁importacion",-10.510775857908436],["pi",-10.51425228657003],["ico",-10.5147356895652],["▁prestacion",-10.515115448161195],["▁BCE",-10.515230811871525],["▁minuto",-10.515748321473854],["▁apliquen",-10.515902344674139],["▁transacciones",-10.516356364820359],["▁recortes",-10.516371355857613],["▁Yugoslavia",-10.516469172676267],["▁ferrocarril",-10.516706677671039],["▁conducir",-10.516911298460675],["▁Eslovaquia",-10.517714890642063],["▁venido",-10.518028653454424],["▁comparte",-10.51854522133096],["▁PPE",-10.518979850842294],["▁proporcion",-10.519076932119223],["▁basicas",-10.52033916930083],["▁ambicion",-10.521185257685898],["▁coordinar",-10.521355601013957],["▁promesas",-10.521497811807114],["▁salida",-10.52184239280344],["▁dada",-10.522920083045461],["▁ventaja",-10.523070092662294],[".\n(Aplausos)\n",-10.523210974238957],["▁decidio",-10.523704499089256],["▁incorporar",-10.524394905044115],["▁Sociales",-10.524432224575179],["▁debatimos",-10.525230463547185],["▁tomen",-10.526083447884488],["▁integrar",-10.526715015583193],["▁politicamente",-10.526792588992915],["▁barcos",-10.52683366724149],["▁sueca",-10.526927751358219],["▁aumenta",-10.5274444593357],["▁dotar",-10.52759201812922],["▁querido",-10.527624255825208],["▁avanzado",-10.528450414201489],["▁generar",-10.528763569778073],["▁formula",-10.529460199829003],["▁extrema",-10.529619721817657],["▁debajo",-10.530349988752253],["▁conoce",-10.530844355955619],["▁generaciones",-10.53097955464738],["ch",-10.531057363289337],["con",-10.532174591332193],["▁Estatuto",-10.533280202504452],["▁alcohol",-10.53399197670631],["▁armonizar",-10.53414629691711],["▁obtenido",-10.534624557490039],["▁contratacion",-10.534764444461612],["x",-10.535119665446462],["▁constatar",-10.535542901376285],["▁retrasos",-10.536223931791792],["▁elevados",-10.536588936336955],["▁liberacion",-10.536644539192896],["▁contribuciones",-10.536777969786002],["▁ampliamente",-10.538262005414323],["?\nEl",-10.539516894863048],["fundamentalmente",-10.540062527149333],["▁bosques",-10.541098600339309],["▁azucar",-10.541491506931862],["habida",-10.541791319634253],["▁resultan",-10.541837779358564],["▁italiano",-10.54206408631267],["▁obligado",-10.542222402985248],["▁edificios",-10.542356669623421],["▁herramienta",-10.542983167549576],["▁expresa",-10.543064209008776],["▁importa",-10.543102271545845],["▁hambre",-10.543784145768457],["▁protocolo",-10.543987709604504],["▁familiares",-10.54415877744426],["▁solicitantes",-10.545169083506096],["s.\nEn",-10.5457254409143],["▁permanecer",-10.545921032270876],["▁convenios",-10.546620521426641],["vo",-10.546754744789958],["▁patentes",-10.547024051811784],["▁cultivo",-10.547434232719482],["¿Que",-10.547785330258119],["▁toca",-10.547911797215306],["▁historica",-10.547915739874968],["▁aceptacion",-10.548932412217788],["▁minimas",-10.548969520608],["▁hagamos",-10.549374385834057],[".\nAntes",-10.549578553167043],["▁plantean",-10.550057404085695],["▁masiva",-10.550301743644638],["▁discapacidad",-10.550807340314531],["▁maritima",-10.551370009678342],["▁prevista",-10.551634776420604],["▁Marruecos",-10.551799261443762],["▁presentara",-10.552360731479444],["▁verse",-10.552619347148909],["▁dio",-10.552753659006699],["▁mejorado",-10.553197950309483],["?\n¿Que",-10.55348195782608],["▁vuelva",-10.55417169163904],["▁visado",-10.554249302597619],["▁estaria",-10.555251534237275],["▁proveedores",-10.555432040181794],["▁residencia",-10.555708513140303],["▁explotaciones",-10.555784529720402],["▁Gaza",-10.555839626989059],["▁citar",-10.555950217709213],["▁retirar",-10.556677890729853],["▁palestino",-10.557302470138282],["▁rechazado",-10.55755395814177],["▁corregir",-10.558473681192677],["ponerse",-10.558897219772867],["▁comprension",-10.559071044378644],["▁motor",-10.559505019911029],["▁corazon",-10.560091530146074],["▁logico",-10.56035589110552],["▁-el",-10.560532779621424],["▁informaciones",-10.561177251167216],["▁com",-10.56117744249137],["▁Roma",-10.561553212281655],["Desde",-10.561646064858078],["▁incentivos",-10.562134579762969],["▁ministro",-10.562234047098986],["▁limita",-10.562960688100592],["▁pese",-10.564069387379643],["▁convierte",-10.564335891795],["▁dolares",-10.564616084985232],["▁cubrir",-10.564756837701408],["▁Checa",-10.564942249945863],["dores",-10.565110843409345],["▁realizando",-10.566314221510133],["▁V",-10.566400550066653],[":\n",-10.566732020259924],["▁concentracion",-10.567304348108888],["▁impone",-10.5678414043943],["desgraciadamente",-10.567850738922985],["▁preparados",-10.568325306397774],["▁religion",-10.56836407855856],["▁lider",-10.568429996433318],["▁privados",-10.568994230369052],["...\n",-10.571113483039294],["▁asignacion",-10.571386697291386],["▁Decision",-10.571503501058885],["▁respeten",-10.571773086056238],["C",-10.572105383725908],["▁Rural",-10.57214576939696],["insto",-10.572230125398505],["▁tanta",-10.572676009731328],["bles",-10.57287998420217],["▁detener",-10.573107655917688],["▁mantenga",-10.573845314092752],["▁hablo",-10.574274285173047],["▁intercambios",-10.574443438374047],["▁Declaracion",-10.57455517402792],["▁refieren",-10.574768197710416],["▁estadounidense",-10.575351296106884],["▁reviste",-10.57577719446358],["▁Albania",-10.576102283965394],["per",-10.57702176935912],["▁procedente",-10.57716645179811],["▁considerables",-10.578762635787829],["▁muestran",-10.578874419368129],["00",-10.578925309704719],["▁autentico",-10.57921371300484],["▁2013",-10.579448650033612],["▁logros",-10.579632329439896],["▁G",-10.58032310580601],[".\nAqui",-10.580585294460544],["▁resumen",-10.581029250306592],["▁Mujer",-10.581232903422109],["▁Industria",-10.58136651998123],["seres",-10.581455806696393],["▁Ginebra",-10.582731346815004],["▁automoviles",-10.582883775054002],["▁modos",-10.582976638694554],["▁transito",-10.583248621355065],["▁funcione",-10.583309619105496],[".\nDeseo",-10.583576901944102],["w",-10.58372353145787],["▁llevando",-10.584193257730002],["▁resultar",-10.58424224245789],["▁estatal",-10.584392381255785],["▁europea.\n",-10.584796176298031],["▁EE.UU.",-10.585796104443526],["▁exigen",-10.586053437886573],["▁seguramente",-10.58618014574107],["▁Comision.\n",-10.586590446417384],["▁sucedido",-10.587398022051927],["fer",-10.587699404433259],["▁Crecimiento",-10.589297870319836],["▁Liberales",-10.589318993933963],["▁basica",-10.589399867186067],["▁poniendo",-10.589807559821574],["▁suelo",-10.590158451828824],["▁ciencia",-10.590207026189937],["▁Mesa",-10.590557070944996],[".\nPuedo",-10.590597556856586],["▁resolucion,",-10.590658222214593],["▁Latina",-10.59087331215686],["▁ronda",-10.590974621372863],["▁fijado",-10.5914775710045],["▁firmeza",-10.591508505601585],["▁Nacional",-10.592758215667256],["▁abuso",-10.593164033095224],[".\n(FR)",-10.593230370416343],["▁presentan",-10.593366177865708],["▁contamos",-10.59352505619875],["▁decadas",-10.59471132727075],["▁turco",-10.594722973231125],["▁internos",-10.597240470980386],["▁Lituania",-10.597432541481096],["▁veinte",-10.597485867653045],["▁obliga",-10.59792183796695],["▁subraya",-10.5986401177706],["▁ricos",-10.599266825363369],[".\nEntonces",-10.599482272270446],["▁cargas",-10.600012233679346],["▁periodistas",-10.600080343644986],["▁ganar",-10.600384713709882],["▁cuentan",-10.600814452676426],["▁oficiales",-10.601032146433134],["▁relacionada",-10.60163498001156],["▁expuesto",-10.603068906663783],["▁unanime",-10.603218460079901],["gi",-10.603802386652944],["▁exponer",-10.603937386684972],["▁Turismo",-10.604931403613422],["▁ambientales",-10.60503452639963],["R",-10.605156768151412],["▁preservar",-10.605435318487284],["▁debia",-10.605620471946192],["▁aplicando",-10.60622700058546],["▁cualificada",-10.606348894384535],["▁modifica",-10.607376983075651],["▁Canada",-10.607659043191687],["▁utilidad",-10.608021290057163],["▁legislatura",-10.608332653107315],["▁balance",-10.610380938783994],[".\nPodemos",-10.610777163905272],["▁contempla",-10.611178735863792],["▁presidencia",-10.611547351471806],["▁policial",-10.612164726082183],[".\nAun",-10.612372512740805],["rnos",-10.612607873480137],[".\nExisten",-10.612761507708939],["▁basico",-10.613661355576424],["▁estandares",-10.61412215834936],["▁romani",-10.614170468235521],["F",-10.614272860845336],["▁limitaciones",-10.614557745279749],["▁respete",-10.614879728174985],["▁viable",-10.615076954930831],["▁condenar",-10.615184629357325],["▁parrafo",-10.615285979048576],["▁provocado",-10.615318741643632],["▁categorias",-10.616060372754559],["▁altura",-10.616115719372502],["▁entidades",-10.616237237637932],["▁intensificar",-10.616355150483521],["▁opina",-10.616628540921596],["▁renta",-10.61667737530825],["▁debiles",-10.616758124203248],["▁fuese",-10.616762791423016],["▁actores",-10.617137272358251],["▁socialistas",-10.618046739263217],["▁tamano",-10.618618828642303],["▁dinamica",-10.618795465782437],["▁campanas",-10.619833358578475],["▁justificar",-10.620034970635697],["▁integridad",-10.620689138044288],["▁Gracias",-10.620722035500263],["▁satisface",-10.62156934601284],["▁desarrollando",-10.621662577257311],["▁asociados",-10.622426029350574],["▁medicos",-10.622717547232654],["Nueva",-10.623467399032965],["▁terrible",-10.623608428263779],["▁pedirle",-10.624137764054968],["▁primavera",-10.624843207161149],["▁reiterar",-10.62542288902952],["▁influir",-10.625536853806686],["mar",-10.625747806859422],["▁pesqueros",-10.626520218711608],["▁represion",-10.627652820097314],["▁ecologica",-10.627892520538012],["▁israelies",-10.629244894355741],["▁sub",-10.629647548320854],["▁ninguno",-10.629803978908694],["▁observadores",-10.630064141607775],["▁salvar",-10.63019058482221],["tuvimos",-10.630467754882208],["▁establezca",-10.63073151010774],["▁autonomia",-10.631819349454226],["▁compartimos",-10.631914808881632],["▁cierra",-10.632291115777234],["▁excesiva",-10.632294013958816],[".\nEvidentemente",-10.632332760763163],["▁modificados",-10.632537900590014],["▁P",-10.6327918132388],["▁-la",-10.63296353816824],["iba",-10.633192176012555],["▁70",-10.633373184019081],["▁deseable",-10.633412025506132],["▁especificamente",-10.633597180845822],["▁inundaciones",-10.63401550283709],["▁extranjero",-10.634296843036068],["▁cumpla",-10.634398595247228],["▁confusion",-10.634602502200037],["▁suspension",-10.634701666780224],["pro",-10.635081218560469],["▁peces",-10.6353118503289],["▁administrativas",-10.635321942757678],["▁apoye",-10.635699180971576],["▁90",-10.636231542171526],["▁esperando",-10.636623748080666],["▁cerrado",-10.637020805365115],["▁uniforme",-10.637248987962217],["▁Constitucional",-10.63850145416042],["Muchas",-10.638811879995764],["▁Vicepresidente",-10.639344669143792],["▁tantas",-10.639803298702995],["▁alimentacion",-10.64024976635447],[".\nPuede",-10.64042853256547],["▁reparto",-10.641060148141303],["▁formal",-10.641155841930278],["▁estando",-10.642709842716364],["▁minima",-10.642962405955519],["▁millon",-10.642991576641624],["▁ratificado",-10.645175356932956],["▁creando",-10.64526582998052],["▁dependen",-10.645465713328829],["▁Oficina",-10.645874099365026],["\".\n",-10.64645266758168],["B",-10.64649849903071],["▁realiza",-10.646629287750109],["▁completar",-10.648124281771189],["(SV)",-10.648228647994262],["▁legislativos",-10.648527717335318],["cha",-10.648682177265385],["▁transposicion",-10.648716024631476],["▁anuncio",-10.649207597018432],["s.\nPor",-10.649364438588684],["▁distinta",-10.649597271022767],["▁particulares",-10.649868097442543],[".\nAcojo",-10.650859107235519],["▁dano",-10.650974140655347],["▁peligrosos",-10.65129592959886],["▁peligroso",-10.651495955645656],["▁darse",-10.652162050792212],["Una",-10.652814838939037],["▁conocido",-10.652887816428915],["▁manteniendo",-10.652984378558287],["▁democratizacion",-10.652991699485892],["▁franceses",-10.653434190908115],["▁sensacion",-10.653697800904656],["▁expediente",-10.653772945680014],[".\n¿",-10.653807946285173],["▁tomo",-10.653914286021983],["▁realizadas",-10.654078055095724],["▁adaptar",-10.655122389197608],["U)",-10.6554729252172],["▁pura",-10.655524887792865],["▁obstaculo",-10.656853028115478],["▁permitiria",-10.657157756811195],["▁interesa",-10.65789894428968],["▁pretexto",-10.657991138888601],["▁distinto",-10.659231111700876],["puso",-10.65930599699293],["▁vecindad",-10.659426374092149],["▁recogida",-10.659461046079592],["Aunque",-10.659567728434013],["▁conocemos",-10.659622823113464],["▁pidiendo",-10.659884446660044],["▁demandas",-10.660029701456928],["▁proponemos",-10.66039518324639],[".\nDebo",-10.660848907261574],["▁italiana",-10.661809781242619],["▁obligatorio",-10.661834331775157],["▁llegan",-10.662193185457134],["\nEl",-10.662243710346669],["▁expresamente",-10.66280814992043],["▁introducido",-10.663158449927028],["▁di",-10.66323802346109],["▁paro",-10.664119986735301],["▁aplicables",-10.664280082853569],["▁implicadas",-10.665616423993697],["▁halla",-10.665665072647162],["▁libremente",-10.665774272457565],["▁combustible",-10.666250849196498],["▁destaca",-10.666422334213411],["▁satisfecho",-10.666736789267471],["▁vayan",-10.667823178026872],["▁foro",-10.668165043138684],["▁modelos",-10.668661283785177],["▁incendios",-10.66902431617546],["▁siguiendo",-10.669041529892475],["▁multinacionales",-10.669058931534035],["▁negativas",-10.669370430919821],["▁cientifico",-10.669392159455008],["im",-10.670444314446545],["Asimismo",-10.670506690469791],["▁Peticiones",-10.67051688350909],["▁velocidad",-10.67172247874611],["▁aumentando",-10.672259556465207],["▁detrimento",-10.67243748741911],["▁agrado",-10.67244524247847],["▁minimos",-10.672981508988757],["▁evaluaciones",-10.673286426069856],["▁multilateral",-10.67334932671249],["▁valoracion",-10.673435537779087],["▁procurar",-10.674702037916644],["▁formulacion",-10.675345024217977],["▁Egipto",-10.675521997644136],[".\nDeberiamos",-10.67559863483557],["▁tradicion",-10.675839337434184],["▁noticias",-10.675936376110613],["▁concierne",-10.675962965513072],["▁responde",-10.676208805169503],["▁pendientes",-10.676930230158682],["▁pretenden",-10.677158496917034],["▁negocios",-10.677225100272047],["sion",-10.677604722587049],["▁detras",-10.677931984630082],["▁damos",-10.678516878535135],["▁peligros",-10.678527725940846],["▁transformacion",-10.67859350091533],["▁Chechenia",-10.679006404122717],["▁vive",-10.679260202733957],["▁esencia",-10.6801335552187],["▁ambiciosos",-10.68136885773212],["▁jefe",-10.681380030245457],["▁companeros",-10.682069299168068],["▁presiones",-10.68305415065576],["▁manifestaciones",-10.683207051340482],["▁intentos",-10.6842210310323],["▁activos",-10.684496353551094],["▁participan",-10.684960424196621],["▁anunciado",-10.685131437871718],["U",-10.685229996258624],["▁desigualdades",-10.686166189506386],["▁habitual",-10.686279719393537],["▁minas",-10.686634689303688],["▁Alianza",-10.686670544204292],["▁corre",-10.686808122249033],["tes",-10.686915856611792],["▁doce",-10.689261184733745],["▁cabeza",-10.689624085647356],["▁T",-10.689904302611172],["▁semejante",-10.690075668295831],["▁OLAF",-10.690792926894902],["▁definitivo",-10.690856014197823],["▁fuego",-10.691357045606779],["▁Alimentaria",-10.691534202328384],["▁viajar",-10.692323090160588],["▁llama",-10.692385909764617],["▁emitir",-10.692859715927153],["▁incorporacion",-10.69323348020713],["▁sustancial",-10.693623913331471],["▁primeras",-10.693979514727577],["▁unida",-10.69426807468107],["▁prestado",-10.694641235914697],["▁privadas",-10.6950092237267],["▁tropas",-10.695249498907867],["bu",-10.695332333785727],["▁donantes",-10.695506855169914],["▁golpe",-10.695720362330812],["▁basarse",-10.69572764908429],["▁significado",-10.695764842712132],["▁tortura",-10.696332805652627],["▁Londres",-10.696738674816132],["▁placer",-10.696847483808178],["▁globales",-10.697975841745642],["▁orador",-10.698060989847134],["▁desempenado",-10.698342822173938],["▁vale",-10.698624433580235],["▁moderna",-10.698696260213874],["articulo",-10.699089689674588],["▁proseguir",-10.699501526253968],["▁posiblemente",-10.700619468183259],["▁integrada",-10.703040295145613],["▁profundo",-10.703156505693496],["▁sentir",-10.703409015685416],["▁centrar",-10.703683634083873],["▁firmar",-10.704161728182054],["▁africanos",-10.704999946021397],["▁combustibles",-10.705370131218688],["▁colectiva",-10.705513209833972],["▁preparativos",-10.706482404751883],["▁inversores",-10.706667346813553],["▁inteligente",-10.70737830928573],["pongan",-10.708465008586764],["▁facilmente",-10.708757874552367],["▁Malta",-10.708757902476956],["▁anos.\n",-10.709000888782949],["▁auto",-10.70928247774485],["▁negativos",-10.709501116810998],["▁sencilla",-10.709614716221004],["».\n",-10.709630107205438],["▁alentar",-10.71003497633778],["▁encuentro",-10.710240435602561],["▁Penal",-10.710307700047318],["▁emplear",-10.710490358636243],["▁darles",-10.710716979069572],["▁derecha",-10.710725188433928],["▁ampliada",-10.710736421670266],["▁introduce",-10.711003182172105],["▁depender",-10.71100898972275],["▁beneficiarios",-10.711851359275446],["s.\nLa",-10.712847547080392],["▁K",-10.713221474684655],["▁establecidas",-10.713608005273429],["▁energeticos",-10.713615505678199],["po",-10.713704676804891],["▁combinacion",-10.713886257817515],[".\nAnte",-10.714067608376665],["▁obligatoria",-10.714419134427029],["▁eficazmente",-10.714544398102248],["▁caida",-10.714909284876537],["▁internas",-10.715663209310893],["▁exceso",-10.716038765455462],["▁silencio",-10.716180469844835],["▁pensando",-10.716310331404596],["▁provisional",-10.717472342069783],["▁abastecimiento",-10.717831735001486],["ica",-10.717982076085393],["▁apoyando",-10.7182859027372],["▁XXI",-10.71885667860666],["gen",-10.719356118730634],["▁justamente",-10.719422921478785],["▁presos",-10.719745107695108],["▁israeli",-10.719865296806937],["▁figuran",-10.72074671776072],["▁abstenido",-10.720882086066421],["▁35",-10.721135862163429],["▁movimientos",-10.721343653017662],["▁sincero",-10.721614647082284],["▁utilizarse",-10.721967076800528],["▁beneficiarse",-10.72210048543318],["▁UEM",-10.725973128140414],["▁liberal",-10.727947207416719],["▁continuidad",-10.728547488683958],["▁sindicatos",-10.728593085519424],["▁programacion",-10.728709220651606],["▁precedentes",-10.72913857181505],["▁convencida",-10.730859588869336],["▁mutua",-10.730866620979345],["▁herramientas",-10.731603315824273],["▁favorablemente",-10.731834558544264],["▁biodiversidad",-10.732402543320417],["▁querria",-10.73291013727193],["▁realizan",-10.732969383897878],["▁umbral",-10.73304946191716],["▁sencillo",-10.733055659596724],["▁propongo",-10.7331901478782],["▁1994",-10.733360553595702],["▁serian",-10.73388498705023],["▁concedido",-10.734108072863378],["▁nacion",-10.735103430044976],["▁asuma",-10.736484598027657],["▁instar",-10.736545087393601],["▁nueve",-10.737063825322057],["▁utilizados",-10.737208398343226],["▁previo",-10.737463895526215],["▁Dublin",-10.7378247121905],["▁conciudadanos",-10.737824713822953],["▁tolerancia",-10.738389899650588],["▁izquierda",-10.739711565124853],["▁decisiva",-10.739981382424515],["▁Servicio",-10.74035355350577],["▁afectado",-10.740779312702692],["▁rigor",-10.740936864962709],["▁dedicar",-10.74106512764075],["▁centra",-10.741447599377818],["▁conductores",-10.742794749673275],["▁exencion",-10.743171721687855],["▁extranjeros",-10.743617187053083],[".\nPuesto",-10.743859206198598],["▁llego",-10.744839587283039],["▁tribunal",-10.744839895044338],["▁afirmacion",-10.745052050731235],["▁representar",-10.745321298806378],["▁portuguesa",-10.746526443383075],["▁obras",-10.746932691038781],["H",-10.74723836644355],["▁establecen",-10.747249311192085],["ultraperifericas",-10.747444664684094],["▁positivamente",-10.747624730326955],["▁critico",-10.747632217867856],["▁fiscalidad",-10.747713256271009],["▁estricta",-10.747762596673349],["▁2012",-10.74802553602603],["▁tradiciones",-10.748127605763788],["▁atentados",-10.748704460333467],["▁Europea.\nLa",-10.750371760023054],["▁textil",-10.750868253495739],["▁delicado",-10.751612743114885],["▁notable",-10.75178523540015],["▁sufrimiento",-10.751832780390114],["▁Europeo.\n",-10.751960908357534],["▁rechaza",-10.752916860806067],["▁cultivos",-10.753251197430401],["▁circunscripcion",-10.753480605976055],[".\nCad",-10.753600912198944],["▁obligar",-10.753761716285876],["▁elegidos",-10.754079039309946],["▁quiera",-10.754298020720597],["▁recoge",-10.754968005137961],["▁cuerpo",-10.755219619205436],["▁salvaguardar",-10.755219792104981],["▁lanzar",-10.755242270882022],["▁dura",-10.756770570029577],["▁tenian",-10.756858201019858],["▁utiles",-10.756874944033564],["▁criminales",-10.75719603692195],["▁implicacion",-10.757936779256651],["▁entusiasmo",-10.759540530594556],["▁Ya",-10.759971646373156],["▁ignorar",-10.760248064698228],["▁preparado",-10.760446552470448],["▁Parlamento.\n",-10.761367758725962],["▁tierras",-10.761396350978305],["▁dije",-10.761424332768549],["▁centrarse",-10.76143410915231],["▁culturas",-10.76145968576973],["▁solido",-10.76153200436515],["▁Tunez",-10.762197749140007],["▁sugerencias",-10.76297128584429],["▁Defensa",-10.762993162385172],["▁reaccionar",-10.76352558777856],["▁cuota",-10.763767689836296],["▁sitio",-10.764094674240901],["▁seleccion",-10.764332735853579],["▁posteriormente",-10.764611306407486],["▁reside",-10.76476636039616],["▁mantenerse",-10.764871347471708],["▁provocar",-10.764953102194946],["▁estaremos",-10.765284477094848],["▁asesinato",-10.765503964456197],["▁considere",-10.766269242560007],[".\nTodas",-10.766642881244298],["▁estima",-10.766704808996222],["▁demora",-10.766962303715603],["▁realice",-10.767157844930725],["▁universidades",-10.767250581518336],["▁sangre",-10.767785913125664],["▁noticia",-10.767943492809344],["▁busca",-10.768220867423679],["▁renovacion",-10.769385517195268],["▁penales",-10.769744438925798],["▁previstas",-10.770579391105684],["▁solicita",-10.770604954882845],["▁investigar",-10.771006301289354],["▁Brasil",-10.771169671560248],["▁apoyen",-10.771220555875988],["▁confiar",-10.772020283858835],["▁satisfactorio",-10.772071623408642],["▁digital",-10.772984537242706],["▁vinculantes",-10.773343355804696],["▁mirar",-10.773973892116132],["▁prever",-10.774200597213223],["▁irregularidades",-10.774303945986375],["▁dis",-10.775491938189829],["▁satisfechos",-10.776511335076552],["▁celebrada",-10.776532755438067],["▁inseguridad",-10.776646331036238],["▁clausulas",-10.777292212111533],["▁flujos",-10.777549673436052],["▁comprar",-10.77881493857802],["▁navegacion",-10.779072975200824],["▁reformar",-10.779395901602596],["▁duradera",-10.77944904692296],["▁transeuropeas",-10.779940635294595],["▁Ashton",-10.780672908175568],["Hast",-10.780988153702896],["▁contenidos",-10.781192428524577],["▁apropiada",-10.781474596768756],["arse",-10.781477668583555],["▁rendir",-10.781485546488424],["▁avanzando",-10.781720429347954],["▁dire",-10.78266493272398],["▁tantos",-10.782887830644128],["▁plantas",-10.783111849953947],["▁preocupan",-10.783842577110512],["▁fueran",-10.78490987393129],[".\nRe",-10.785290520304553],["▁parlamentarias",-10.785306060174024],["▁basicamente",-10.785395798994951],["▁pertinente",-10.785949267491599],["▁nino",-10.786106701600453],["▁bilateral",-10.786228299365106],["▁Doha",-10.78637412690519],["▁Occidental",-10.786780175151195],["▁solicito",-10.787178974544226],["▁transparentes",-10.7875897027034],["▁presta",-10.787701212730951],["▁delegaciones",-10.78861053417727],["▁impide",-10.788960895996555],["▁brinda",-10.789129067159394],["▁goza",-10.789218603532355],["▁complicado",-10.789916033037073],["tica",-10.790574196599913],["ha",-10.790807614153804],["▁misiones",-10.791164518545107],["▁futuro.\n",-10.791646986916183],["▁inferior",-10.792763221214148],["▁reconciliacion",-10.793730905583965],["men",-10.793964829253127],["▁declarar",-10.794022584120922],[".\nSoy",-10.794404361666317],["▁identificacion",-10.795568945952763],["▁preguntarle",-10.795953666512135],["▁aniversario",-10.796194590686824],["▁profundidad",-10.796194605192607],["▁Libano",-10.796194855741286],["▁beneficia",-10.79630553173583],["▁Ano",-10.796434455096877],["▁participen",-10.7971273081968],["M",-10.797156947077982],["▁previsiones",-10.797467381117713],["s.\nEl",-10.797720620873374],["▁oficina",-10.79854375962432],["▁competir",-10.798724589691894],["▁ocurrir",-10.798819466894205],["▁excepcional",-10.799524931005482],["▁mantienen",-10.799712439324288],["▁duro",-10.799722843191844],["▁sensible",-10.799963615841602],["▁restablecer",-10.800130307845244],["▁viernes",-10.800320058368918],["▁Sudan",-10.801175556849506],["▁religiosa",-10.80173224630071],["▁autores",-10.801851211613222],["▁extension",-10.801974955026358],["▁hungara",-10.801974956187596],[".\nPregunta",-10.80252080328003],["Desgraciadamente",-10.802803453698045],["▁Inversiones",-10.802803484307766],["▁concluido",-10.802816985870951],["?\nPor",-10.803668698364888],["▁acertadamente",-10.804014379424506],["▁infraccion",-10.80439366982936],["▁separado",-10.804751584503903],["▁terrorista",-10.805067848780993],["▁confirma",-10.805089280625676],["Declaraciones",-10.80675976803485],["▁desempenan",-10.807192897472929],["N",-10.80759629372195],["▁piensos",-10.807726575145239],["▁garanticen",-10.80879846955901],["▁composicion",-10.80946942853734],["▁protesta",-10.809647779986125],["rios",-10.80985076047087],["mas",-10.810161042882882],["tri",-10.81079162663936],["▁defensores",-10.8108091556903],["hi",-10.81158965326358],["▁lunes",-10.811962592797114],["▁amigo",-10.812952970163245],["...",-10.813336097452636],["▁limitacion",-10.81379708686756],["▁Europea.\nEn",-10.813998386107482],["-Cristianos)",-10.814606049342645],["▁isla",-10.814974436637636],["▁rendimiento",-10.815078010981768],["▁contradiccion",-10.815227101052193],["mu",-10.815616482829352],["▁asistir",-10.815870863199482],[".\nDicha",-10.81607250927463],[".\nLamento",-10.81618544012563],["▁carbon",-10.816452922413305],["▁¿no",-10.81647877629251],["▁Patten",-10.817000159781358],["gar",-10.817231329228903],["ntro",-10.817434841750657],["▁interrumpe",-10.817835051272215],["▁tecnologico",-10.818312682285157],["▁disciplina",-10.81869869931211],["▁legislaciones",-10.818943721397694],["▁recuerda",-10.819740585019233],["▁Comunidades",-10.820442141126811],["▁respeta",-10.82046497264082],["▁consultar",-10.820637962099758],["gan",-10.820793048292522],["▁miercoles",-10.8212063141595],["▁haremos",-10.821567883291925],["▁juzgar",-10.821718517364708],["▁almacenamiento",-10.822058674183442],["▁confio",-10.822092695908896],["▁cuantos",-10.822456589397675],["▁negar",-10.822583492265695],["▁nombramiento",-10.823120942500324],["▁plenaria",-10.823268065060265],["▁vuelos",-10.823414001714092],["▁conlleva",-10.82346932444073],["▁contribuyen",-10.823557152332233],["▁gradual",-10.82411591909856],["▁batalla",-10.824208756645515],["▁ecologico",-10.82433762359064],["▁aviones",-10.824491054813826],["E",-10.824598041058254],["▁proponen",-10.824756258547465],["▁practico",-10.824963983056183],["▁realizada",-10.826150407040483],["amiento",-10.826308683358134],["▁ciento",-10.826503225135475],["administraciones",-10.826926265242516],["▁L",-10.82696670934379],["A",-10.826974896462087],["▁muerto",-10.827040319878435],["▁modificado",-10.827155958836714],["▁habiendo",-10.827391077287722],["▁occidentales",-10.82739154051436],["▁automovil",-10.82775273829933],["▁hicieron",-10.82798312937463],["▁continue",-10.828271016638768],["▁genera",-10.828711602088095],["▁mencion",-10.828728412215025],["▁limitada",-10.8291900645678],["▁tomando",-10.829277553365724],["▁prioritario",-10.829716257969668],["▁ruso",-10.8298086206001],["▁sanidad",-10.83054999623748],["▁vigentes",-10.830797024938033],["▁pescado",-10.830863799317868],["▁estrictamente",-10.831010990082637],[".\nO",-10.831380926399028],["▁movilizacion",-10.83141354428981],["▁censura",-10.83185016300288],["▁estrictos",-10.83249084043629],["▁ayudara",-10.832696317099206],["▁sorprendente",-10.832842455895102],["▁disminucion",-10.833096050033781],["▁potencia",-10.83355631472173],["▁compania",-10.833987293343823],["▁3,",-10.834045427287077],["▁300",-10.83447736061831],["▁tendencias",-10.835459644767973],["▁vinculos",-10.837038647887923],["▁conviccion",-10.837157614901349],["▁ambiciosa",-10.837317622020795],["▁pud",-10.837697539567625],["▁jubilacion",-10.838010520348693],["▁Guerra",-10.838237851639217],["▁W",-10.838559457484784],["▁monedas",-10.839908057203946],["▁tradicional",-10.840089399871916],["▁ocupar",-10.84075199741401],["▁Libia",-10.840815290113385],["▁exhaustiva",-10.840820452779475],["▁pasando",-10.84111316912135],["cos",-10.841484003970464],["▁islas",-10.841661641955328],["▁agosto",-10.841676173469397],["▁continuamente",-10.84226224147704],["▁For",-10.84234467003326],["▁proliferacion",-10.842542811311985],[".\nQue",-10.843323164251144],["▁miras",-10.843718093345897],["▁popular",-10.843950209267938],[".30",-10.844243954767975],["▁joven",-10.844989838786567],["▁enviado",-10.845405505604115],["▁demasiada",-10.846116580097942],["▁revela",-10.846264654047763],["▁produzcan",-10.846656294978988],["▁unilateral",-10.847034255435407],["it",-10.848004713161416],["ur",-10.848028092639062],["▁adquirir",-10.848455233713494],["▁ajuste",-10.848498091974204],["▁excluir",-10.84866980125489],["▁suponen",-10.849184975155175],["▁persecucion",-10.849420923978705],["▁disponibilidad",-10.849461616737791],["aras",-10.849558756805358],["▁victima",-10.84986742365452],["▁puertas",-10.849935159940381],["ton",-10.850088963320623],["▁gravedad",-10.850407411117537],["▁compleja",-10.851167447795632],["▁Solana",-10.85120013603689],[".\nC",-10.8514872687467],[".\nParece",-10.851702340901227],["▁ocuparse",-10.852087158944947],["03",-10.852342420380223],["▁compra",-10.852427181150924],["?\n¿",-10.852605397667237],["▁abordado",-10.852990393291188],[".\nPresidente",-10.853043284010242],["▁escasa",-10.853335158086463],["▁socialista",-10.853692667838303],["▁cristianos",-10.854005291001554],["▁dimensiones",-10.854989080870054],["▁pilares",-10.85505801142107],["▁coordinada",-10.856371522321632],["▁debil",-10.856660149711697],["▁estabilizacion",-10.857325307284587],["▁deriva",-10.857720572436218],["zo",-10.857873966958579],["▁detenidamente",-10.858191630820244],["▁seguiran",-10.85838391996381],["▁Moldova",-10.858446779807748],["▁dumping",-10.858997053316696],["▁vuelta",-10.859101610230146],["▁electores",-10.859174686220147],["▁evidencia",-10.85974686073725],["mp",-10.859993628770898],["▁humanas",-10.860126643536027],["▁causado",-10.860738472006556],["▁Verheugen",-10.86081544972733],["▁favorables",-10.860989538000798],["▁afirmado",-10.861099938477295],["▁pertenecen",-10.861253393148637],["▁inspeccion",-10.86137188015981],["▁sorprende",-10.861460387866604],["▁produciendo",-10.861861843706532],["▁regla",-10.862552097098588],["▁transfronterizo",-10.86257478228049],["▁definitivamente",-10.862906597788609],["▁supervisar",-10.863774141145875],["▁informal",-10.863821342862632],["▁Birmania",-10.864387237240855],["▁efectuar",-10.864580075082976],["▁fija",-10.864619576176171],["▁trabajo.\n",-10.865013461688607],["▁separacion",-10.865536468169255],["\nSenor",-10.865555168907449],["encia",-10.866092954453691],["▁poca",-10.866453681895944],["▁letra",-10.866494320184081],["▁denominada",-10.866568492170149],["▁productividad",-10.867868049137098],["▁debida",-10.868457693608008],["▁Sudafrica",-10.868811015293709],["▁ingles",-10.8692014599599],["▁interiores",-10.869587661880233],["▁Milenio",-10.869637738402059],[".\nPido",-10.869871084841161],["▁apoyan",-10.870277793047244],["▁distincion",-10.870502316630791],["▁disponen",-10.87076995572648],["▁liberales",-10.870925203132288],["▁intervenido",-10.871417422861732],["▁presionar",-10.872091264453505],["▁surgido",-10.872337981020605],["▁europeos.\n",-10.872684052035485],["▁discusiones",-10.872786386408507],["▁publicacion",-10.872996712444646],["▁incumplimiento",-10.873158467515815],["▁juventud",-10.873188563026325],["▁sucesos",-10.873493634094796],["▁ocupan",-10.873947162288372],["▁Ba",-10.87394992514291],["▁recordarles",-10.874768201611275],["▁Libre",-10.874976954647234],["G",-10.875060263419552],["▁realizarse",-10.87515423926603],["altamente",-10.875373385285219],["▁excesivo",-10.87557259615108],["▁entra",-10.876600301851223],["▁aporta",-10.876872525140612],["▁justificacion",-10.876963569594317],["▁mundializacion",-10.877140638818679],["▁-no",-10.877320874387735],["▁empezando",-10.877644902153683],["01",-10.878384770710849],["▁Siria",-10.879147260387043],["▁Todos",-10.879244136681535],["▁vacuno",-10.879434952687804],["▁comites",-10.879630367789218],["▁absurdo",-10.880328280344127],["▁sometido",-10.880787276057921],["▁adaptarse",-10.88125893458399],["cas",-10.881553430704688],["▁consonancia",-10.882121183311138],["▁Suiza",-10.882172821324701],["▁verde",-10.882285951824807],["▁economicamente",-10.882339021538582],["▁religiosas",-10.882384208141014],["▁comprensible",-10.883136848326252],["▁modalidades",-10.88324281685443],["▁OSCE",-10.883917361622238],["▁directas",-10.884027282571699],["▁BEI",-10.884823378652282],[".\nFue",-10.885619536119979],["▁magnitud",-10.885716717002811],["▁occidental",-10.886361021501731],["▁trataba",-10.886562640962286],["▁calificacion",-10.887574860604476],["▁Socialistas",-10.888135525741056],["▁viabilidad",-10.889376746345988],["▁(S",-10.889882952587937],["▁destinar",-10.89010300382158],["▁CIG",-10.890241431959517],["▁vinculo",-10.891001459691463],["▁fabricacion",-10.891226739843553],["▁ratificar",-10.891238205740827],["▁reunir",-10.891356986857495],["Antes",-10.891365052398136],["▁urgentes",-10.891429666617489],["▁mundo.\n",-10.891499616439255],["▁convencidos",-10.892184649762445],["▁detallada",-10.893118392683197],["▁hable",-10.894115296407747],["▁convenio",-10.894116008843218],["▁imaginar",-10.894274425162171],["▁normativas",-10.894349751541387],["socialdemocratas",-10.894349809965213],["K",-10.894754458633127],["▁frase",-10.894883125534047],["▁San",-10.89516468807161],["▁(votacion)\n",-10.89567152373849],["▁Agricola",-10.895671523804737],[".\n¿No",-10.89683668003922],["▁reforzada",-10.896852387971489],[".\nSiempre",-10.896875813279935],["ente",-10.897637852451812],[".\nHan",-10.897975457554129],["▁suponer",-10.8985455168435],["▁triste",-10.898564783504314],["▁defiende",-10.898834812747912],[".\nNi",-10.899589693067432],["▁toman",-10.899703101106546],["▁dictadura",-10.900944273680839],[".\n-",-10.901060490108161],["▁animar",-10.901126248246552],["▁lecciones",-10.901906946139444],["izado",-10.902021510987675],["▁esencialmente",-10.902022383215511],["▁1990",-10.902071501781727],["▁futbol",-10.902974158248032],["I",-10.903595573382821],["▁confirmado",-10.903748206399715],["▁escasez",-10.903890790089383],["▁otono",-10.903891396491664],["▁1992",-10.903896718739375],["▁previstos",-10.904103423700477],["▁(\n",-10.904551874629611],["▁preste",-10.904982781001063],["par",-10.905472974189502],["▁circunstancia",-10.905558281850467],["▁devolver",-10.905644964616744],["▁radical",-10.905659082709633],["▁coches",-10.905813495561796],["▁integral",-10.906048534057422],["cal",-10.906770175476671],["▁ideal",-10.907170783712832],["▁comitologia",-10.907565532753212],["▁propuso",-10.907666891529875],["▁exhaustivo",-10.907715544292508],["▁ruido",-10.907786630672948],["▁explica",-10.907960889392246],["▁parlamento",-10.90797665369756],["▁U",-10.908108870820609],["▁vote",-10.908153530981425],["▁decimos",-10.908160931612123],["Cuando",-10.908449350094223],["S",-10.909336695966836],["▁Schulz",-10.909408001685899],["▁enfasis",-10.90940800343073],["▁haria",-10.90960972561954],["▁Congo",-10.910496056142634],["▁tratarse",-10.91214291722821],["▁encargado",-10.912183703239487],["▁producirse",-10.912827561221668],["▁inmunidad",-10.91289521179245],["▁gustado",-10.913469128742975],["st",-10.913916019618496],["▁austriaca",-10.91402908167995],["▁devolucion",-10.91402953952132],["ros",-10.914218096216565],["▁cualificaciones",-10.915423519667549],["▁recibe",-10.915433682911466],["▁complementaria",-10.915458990391326],["▁sufrir",-10.915547127573495],["04",-10.915781898752172],["▁recalcar",-10.915789686491795],["▁Fischler",-10.91588350951063],["bra",-10.916457219655623],["▁griego",-10.917243764659094],["▁primordial",-10.917252429022396],["▁aquella",-10.917351707348665],["▁sensibles",-10.917682475284789],["▁beneplacito",-10.917741382646991],["iza",-10.918323207432172],["▁posee",-10.918863420045973],[".\nPorque",-10.919753612620607],["▁decepcion",-10.919861831834531],["▁ocurriendo",-10.920534682377884],["▁observado",-10.920660096027317],["▁crean",-10.921438619854419],["▁sirva",-10.921552011768242],["▁alerta",-10.922333603543123],["▁legalmente",-10.922426077078114],["▁acaban",-10.922543139508218],["▁ciclo",-10.922650325508618],["▁razonables",-10.922941440076777],["▁puerto",-10.923252822591706],["▁estricto",-10.923998595846504],["▁incertidumbre",-10.92407561393129],["▁perjudicial",-10.924301357196937],["▁continuo",-10.924580629293622],["▁Kyoto",-10.925207591568386],["▁directos",-10.926110842324402],["▁prestaciones",-10.926529986602755],["▁abre",-10.927422028780418],["ero",-10.92743266706475],["▁eco",-10.92767663724009],["▁conocen",-10.927709526805774],["▁preocupados",-10.927839887716452],["▁4,",-10.927982498564894],["▁Santer",-10.92806935898441],["▁Brok",-10.928961768098677],["▁Tibet",-10.928962343041025],["▁investigadores",-10.929198547019416],[".\nSus",-10.929627195029937],["mina",-10.929641571067132],["▁tratan",-10.930026279773642],["▁piensan",-10.930399535117964],[").\n",-10.930641209548948],["tado",-10.930807613496764],["▁explicaciones",-10.931297494061257],["▁alimenticios",-10.931493560839368],["▁contienen",-10.932162992636867],["▁ciudadanos.\n",-10.932340748377221],["▁ambiciones",-10.933146782514587],["▁medica",-10.933199075781925],["▁complejidad",-10.933674239614078],["▁difusion",-10.933674240092506],["▁cobertura",-10.933674240094078],["▁transaccion",-10.934592611712455],["▁actuaciones",-10.934595906182377],["▁Consejo.\n",-10.935041686948988],["▁irlandeses",-10.935513242500559],["▁Eslovenia",-10.93556549319539],["▁madre",-10.93649745275663],["▁recordado",-10.936613104903483],["▁desastres",-10.936745822328682],["▁adopta",-10.937340749030607],["▁olvidemos",-10.937612999314574],["▁vean",-10.937867174155382],["▁gusto",-10.938347285405303],["▁Escocia",-10.938409117983293],["▁supondria",-10.939250067598868],["▁Ma",-10.939461087065848],["s\"",-10.939705174392602],["▁salvo",-10.940206107611363],["▁expreso",-10.940309402099476],["▁alemanes",-10.940640784296296],["▁entablar",-10.940752909876476],["▁Dia",-10.940850325786023],["▁voluntaria",-10.940933422438771],["▁envio",-10.941192675394937],["▁inspecciones",-10.941256425182736],["▁contaminantes",-10.941399064174982],["▁compensar",-10.941609218290626],["▁pudieran",-10.941628810697756],["▁otorgar",-10.942223112387904],["▁expansion",-10.943166479715988],["▁Estocolmo",-10.943166514254472],["▁jamas",-10.943168272191897],["▁subrayado",-10.943823167457243],["▁homenaje",-10.944120677624118],["Sistema",-10.94412163007892],["▁negocio",-10.944539680607052],["dor",-10.944591059786354],["▁N",-10.944871319390648],["▁abolicion",-10.945090548922673],["▁plurianual",-10.945877833971448],["▁extender",-10.946258516133303],["▁senales",-10.946664127613637],["▁europeo.\n",-10.947113397802998],["▁ventas",-10.948122990729809],["▁denominado",-10.948325084742953],["Estamos",-10.948330594731136],["▁cria",-10.948360390037049],["▁ahorrar",-10.948443871716387],["▁llev",-10.948650835798109],["▁viajes",-10.949063503464764],["▁Instituto",-10.949865518027753],["▁transmision",-10.949870580701518],["▁corta",-10.950329138896388],["▁aspiraciones",-10.951142983212184],["▁humanos.\n",-10.951165154437781],["▁Educacion",-10.951233339598598],["▁testigos",-10.951381708115402],["▁atane",-10.95140878514071],["▁Economico",-10.951560758099648],["▁preparando",-10.952477568740024],["▁conduce",-10.952921841472898],["▁contrato",-10.953058966086385],["▁leccion",-10.953355107456876],["▁Euro",-10.953853271206361],["gue",-10.955021807591017],["▁piloto",-10.955656076159311],["▁movilizar",-10.955663542161176],["▁carrera",-10.955965737770594],["▁estipula",-10.956347106025113],["▁promesa",-10.956552633401932],[".\nSomos",-10.956621398905465],["K)",-10.956913491174086],["▁(R",-10.957016948056943],["?\nEs",-10.957395381692553],["▁propuestos",-10.95752815952348],["▁soldados",-10.958480258291164],["▁ocurrio",-10.958544003508912],["▁increible",-10.958544004809204],["che",-10.95870107493646],["▁existan",-10.959060117549773],["▁piden",-10.959379076479024],["▁comenzado",-10.959601271310877],[".\nQuizas",-10.960186720605671],["▁otorga",-10.960569261282794],["▁utilicen",-10.96059109033683],["▁enfrentarse",-10.96097231542761],["▁secreto",-10.961296056485772],["▁justifica",-10.961396721569587],["▁Generales",-10.96144394083007],["▁referencias",-10.962023852183666],["▁gravemente",-10.962222136141364],["▁resuelto",-10.962353603783274],["▁conmigo",-10.962426440996854],["▁estilo",-10.96258991379522],["▁fundamentos",-10.963145080926447],["▁dotacion",-10.963630098185654],["▁escenario",-10.963974029364975],[".\nInforme",-10.96421299106407],["▁pidio",-10.964383100226616],["▁permitiendo",-10.964393249343662],["?\nSi",-10.964595472334832],["▁salario",-10.96473281539842],["▁sentimiento",-10.964806819239081],["▁lamentar",-10.96530347688396],["▁cero",-10.965701003730755],["ven",-10.965908412535228],["▁cofinanciacion",-10.966332527472325],["▁normalmente",-10.966339164711984],["▁corriente",-10.966621492632886],["▁llevarse",-10.967209417459006],["▁Ciudadanos",-10.967706503966228],["▁externos",-10.967722900076367],["▁pase",-10.96776520946749],["▁debate.\n",-10.967788090882191],["▁centrado",-10.967834738355482],[".\nPues",-10.967978892897529],["▁determinada",-10.96815770989324],["▁implicar",-10.96825387142345],["▁destruir",-10.968276972333939],["▁serias",-10.968382467307237],["▁votaremos",-10.968482470242545],["▁acertado",-10.969255216889149],["▁radica",-10.969605001976856],["tico",-10.969735955866083],["▁cometidos",-10.970234582022577],[".\nPrimero",-10.970242840773455],["▁pais.\n",-10.97028334913134],[".\nTanto",-10.970443686623053],["▁bloqueo",-10.970698095577436],["cenas",-10.97087169188008],["CE)",-10.97135116228715],["▁acusaciones",-10.972610622304044],["▁sueco",-10.972658647495788],["▁vuelve",-10.972892152150454],["▁mocion",-10.973304807052155],["▁precedente",-10.973422670370526],["▁desacuerdo",-10.974605898191754],["claro",-10.974700575923],["▁captura",-10.976051114069712],["▁disfrutar",-10.9766151256742],["▁practicos",-10.976680744877523],["▁excesivamente",-10.976721501334154],[".\nTeniendo",-10.977063167688748],["▁gastar",-10.97725270290677],["▁Di",-10.977749761117861],["▁responda",-10.97788722431842],["▁informados",-10.977896269399853],["(FI)",-10.97810502556762],["▁oponemos",-10.978955310554255],["▁concesiones",-10.9792426003495],[".\nVoy",-10.979456379207466],["da,",-10.979606031390787],["20",-10.97964623456155],["▁tensiones",-10.97972740753891],["▁precision",-10.98011740909568],["▁inquietud",-10.98122593580294],["ex",-10.981398273044478],["▁reducciones",-10.981712061991168],["\nAsunto",-10.982317091144449],["eran",-10.984996567394157],["transfronterizos",-10.98504088442996],["▁M",-10.98517971501171],["▁temor",-10.985185561386121],["▁asegurarse",-10.985284243863251],["▁listas",-10.985323973639693],["▁multiples",-10.985440277867585],["▁cualquiera",-10.985563804211038],["▁Centro",-10.986036941860284],["▁continuan",-10.98642543525644],["▁Europea.\nEl",-10.987176373146138],["▁interesantes",-10.987259678727836],["▁equivale",-10.987283634617109],["▁Instituciones",-10.988270323794307],["▁individuos",-10.988377063490873],["▁partidarios",-10.989070423195399],["▁tomamos",-10.989570771295153],["▁sistematica",-10.990300246222786],["▁aparece",-10.990482033264467],["▁subvencion",-10.990857497782454],["▁situar",-10.991171643286085],["▁ferrocarriles",-10.99164616613553],["▁voluntario",-10.991694847593271],["▁quimicos",-10.99209360574423],["▁R",-10.992207533953422],["▁situa",-10.992349590927102],["ese",-10.992548573541438],["▁Consejo.",-10.992847672614051],["▁indican",-10.992989811922556],["▁Atlantico",-10.993034022173104],["▁asignar",-10.993552829256124],["▁Occidentales",-10.994528491558224],["▁examinado",-10.995237900577614],["▁manifiesta",-10.99527588323525],["▁problematica",-10.995276577832065],["▁deje",-10.995889344548939],["▁asegurarle",-10.996692457931935],["▁dejando",-10.996823712489835],["ck",-10.997181024987068],["▁relevantes",-10.997340034721802],["▁finlandesa",-10.997417205736875],["▁vienen",-10.997442300282236],["▁prometido",-10.99756734743844],["▁venir",-10.998226121752582],["▁valorar",-10.998384180483491],["▁mu",-10.998482707484047],["▁medico",-10.99852203999502],["▁excelentes",-10.998908087140672],["▁H",-10.999072233888496],["▁entendimiento",-10.999075542589766],["▁1993",-10.999085683673782],["▁juguetes",-10.999825404483499],["▁conceptos",-11.000242391151033],["▁afectar",-11.000425727624723],["▁Nos",-11.000598450582693],["▁civilizacion",-11.001746895604036],["▁etica",-11.00184416538604],["▁Helsinki",-11.002093682124546],["▁victoria",-11.002094835637912],["▁acepto",-11.002095739388338],["▁extraer",-11.002107088106321],["▁objeciones",-11.002677691999814],["▁empieza",-11.002793913121083],["▁clientes",-11.002823555206742],["▁hablan",-11.003023063964811],[".\nTodavia",-11.00326201214994],["▁defendido",-11.003902335339529],["▁sentencias",-11.003946080583141],["▁diputada",-11.003960980017826],["▁so",-11.004021130138423],["▁parecido",-11.004119022296635],["▁37",-11.004217123051209],["▁respectivos",-11.004393662015957],["▁Solidaridad",-11.004684240842245],["▁rusos",-11.005039806639498],["▁consentimiento",-11.005133244668315],["▁conexion",-11.005381852983751],[".\nPrecisamente",-11.005716906576385],["ut",-11.006099113155692],["tivo",-11.006188053478315],["▁opone",-11.006189143421743],["▁mencionados",-11.006242754016956],["▁apartados",-11.006318116107071],["▁treinta",-11.007164695285248],["▁transcurso",-11.007166289524136],["▁amplias",-11.007590819120363],["tiva",-11.007663584293818],["▁banco",-11.007856431972854],["▁celebre",-11.007910017371369],["cre",-11.00801342962858],["▁exclusiva",-11.00816007832595],["▁energeticas",-11.008224305254124],["▁electronicos",-11.008365362184747],["▁contraria",-11.008587556611927],["▁trabaja",-11.00867552267509],["▁reciban",-11.008737973525092],["▁intermedia",-11.009151671285617],["▁renovable",-11.00935980080908],["seguiremos",-11.009813932266082],["▁relevante",-11.009924126632072],["▁Solo",-11.010389345058332],["O",-11.010497103800159],["▁disponga",-11.010516104534041],["▁proteccionismo",-11.010641345525613],["▁Tampere",-11.011240086567927],["▁griega",-11.011305135379015],["▁tomarse",-11.011435625340102],["▁vivienda",-11.011517670286587],["▁componente",-11.01265813039174],["▁renunciar",-11.012738153333158],["▁deterioro",-11.0132840327244],["▁respondido",-11.013374696526284],[".\nOtra",-11.01392806903144],["▁aprobamos",-11.014307626838391],["▁pesqueras",-11.014564372468154],["▁muertes",-11.014728286783786],["▁conservadores",-11.014760647742673],["▁contribuya",-11.016103378333947],["▁respetando",-11.016564224180033],["▁aportaciones",-11.01695417336015],["▁capturas",-11.01720292360681],["▁respecto.\n",-11.017320537999066],["▁existiendo",-11.017387925089736],["▁droga",-11.017820168643588],["▁celebramos",-11.018122111267687],["-20",-11.018251266405478],["▁marcado",-11.019141767227994],["▁entrega",-11.019312756403785],["▁fronterizos",-11.019827522844732],["▁inestabilidad",-11.020470921617292],["▁retorno",-11.020993385494698],["▁firmes",-11.021537800075645],["▁experimentado",-11.0216825541952],["▁administrativo",-11.02249842673854],["▁mera",-11.022931088267331],["▁sala",-11.023279173737283],["▁repito",-11.023654300873602],["▁valido",-11.024173357391033],["▁sostenibles",-11.024303845646916],["▁moratoria",-11.024601381506287],["▁aplazamiento",-11.024621300711363],["▁mensajes",-11.025401029604383],["L",-11.025681127151195],["▁compatible",-11.026273002797613],["▁diseno",-11.02654106249296],["▁Kioto",-11.026672521356133],["▁muertos",-11.02678632077377],["▁competitivo",-11.027198649242745],["▁-un",-11.027441348740135],["▁entran",-11.027455589705227],["▁asumido",-11.027659317868574],["▁referendo",-11.028108786112899],["▁vender",-11.028246119338235],["▁exitos",-11.028698644355924],["▁forestales",-11.028764166905415],["▁intentan",-11.028808124294686],["tor",-11.0291867677827],[".\nAgradezco",-11.029902811555992],["▁Bush",-11.030835882573005],["▁postales",-11.031248878215715],["su",-11.031324454679849],["▁limitarse",-11.03134542000339],["▁haran",-11.031642747508341],["▁adoptando",-11.031700128902528],["▁produjo",-11.031890598152486],["▁Direccion",-11.032176886521807],["▁estrategicos",-11.032661530879974],["▁sensibilidad",-11.033099061316321],["▁perseguir",-11.033133215821879],["▁provoca",-11.033544282244662],["▁traduccion",-11.033916093324116],["▁cuarta",-11.033956733887898],["▁etiqueta",-11.034093703904663],["▁colectivos",-11.034120965245974],["▁creible",-11.034416791677353],["sumo",-11.035098752096072],["▁desarrolla",-11.035124536964823],["▁sienten",-11.035985997165323],["▁contestar",-11.036014953404209],["▁pertenece",-11.036076499521972],["▁platanos",-11.037030652461855],["icos",-11.037776689059033],["▁fisica",-11.038166420319076],["▁encaminada",-11.03845145175966],["/CE",-11.038859955090594],["▁Letonia",-11.039192225352515],["▁revolucion",-11.03996750928521],["▁leido",-11.040649996291487],["▁Sres.",-11.040661714382171],["mb",-11.04138148459136],[".\n(R",-11.041393651871338],["▁cita",-11.041948077434114],["▁recomienda",-11.042336074918571],["▁genocidio",-11.042346791259437],["▁Timor",-11.042346800481706],["▁fiable",-11.042454319657756],["▁contemplar",-11.043332392424041],["▁vacio",-11.043678636255084],["▁Igualdad",-11.043962961814525],["▁radio",-11.044194029435431],["▁cautela",-11.0445819194134],["▁lenguaje",-11.044623014881012],["▁75",-11.044889353616345],["▁Europea.\nPor",-11.046427733999174],["▁respetan",-11.046917265091881],["▁coherentes",-11.047090399109681],["▁comparten",-11.047313552855464],["▁deseado",-11.04827785979214],["▁romanies",-11.048323665596747],["aba",-11.048323881919094],["▁realistas",-11.048609581545682],["▁OMG",-11.048686248467035],["▁consejo",-11.048767421034881],["▁implicaciones",-11.04885726478227],["▁social.\n",-11.049059583754634],["▁caer",-11.04908478752913],["▁desarrollarse",-11.049284150701924],["▁gusta",-11.049517884988092],["▁ocupado",-11.049544379196254],["▁nucleo",-11.049746401228386],["▁reduce",-11.050717381835383],["Hoy",-11.05103645442529],["▁residentes",-11.051688170304004],["▁2007-2013",-11.051870672135125],["▁peligrosa",-11.051902047170469],["dia",-11.052649802864648],["(ES)",-11.05287255537312],["▁perjudiciales",-11.053965194504464],["▁xenofobia",-11.053999464044026],["▁sugiere",-11.05442950898712],["▁actuado",-11.054435175424327],["▁quejas",-11.054556360504943],["▁infracciones",-11.055157188098256],["▁garantizando",-11.05517508019317],["▁opino",-11.056168612796107],["▁recesion",-11.05618457110941],["▁escandalo",-11.056239655153714],["▁abiertamente",-11.056438813913829],["▁Ho",-11.056451320920786],["▁Izquierda",-11.056463606449945],["▁guerras",-11.056483697498514],["ncia",-11.056615540558122],["▁sustitucion",-11.05665993699699],["▁hogares",-11.056951973615814],[".\nNadie",-11.057538503322533],["▁aerea",-11.057818950196628],["▁Reglamento)\n",-11.057908541646814],["▁quinto",-11.058276025351493],["▁legitimo",-11.05857771705188],["▁sometidos",-11.058936750664547],[".\n¿Es",-11.059628279254376],["▁Galileo",-11.059795901864927],["▁juridicamente",-11.060019840794972],["▁disminuir",-11.060413167941773],["▁ofrezca",-11.0607715461313],["▁licencias",-11.060858144983545],["▁echar",-11.061048395306898],["▁componentes",-11.061135624871135],["▁traducir",-11.061486624834819],["▁Hamas",-11.061531715299154],["▁invit",-11.061692138970354],["▁centrarnos",-11.061897250083895],["▁dioxido",-11.062568102857684],["▁iguales",-11.062937872974128],["▁expresadas",-11.062944436834865],["▁Federacion",-11.063635512539605],["desmantelamiento",-11.06370229156794],["▁estimulo",-11.063756711761657],["▁celulas",-11.064310410237926],["▁Alta",-11.064510378234672],["▁vigilar",-11.065349793623117],["▁perjuicio",-11.06564927750279],["ccion",-11.066515232799004],["▁flexibles",-11.067149948639265],["tre",-11.067448918433808],["▁excusa",-11.067698256755921],["▁viajeros",-11.067986567656979],["▁decidida",-11.068023081846693],["▁participe",-11.068184444003116],["▁atun",-11.06831375651861],["▁diario",-11.069376981483565],["El",-11.069571019815776],["▁fases",-11.069786258706099],["▁supervivencia",-11.070111519010396],["▁votantes",-11.070134174329255],["▁geografica",-11.070185242243248],["▁querer",-11.07035253221908],["▁inadmisible",-11.070913652671287],["▁conveniencia",-11.071194964743334],["▁abiertos",-11.0715882809664],["▁suspender",-11.071638356666472],["▁definido",-11.072016883862151],["▁inevitable",-11.07208191850443],["▁atender",-11.072279648447047],["▁rumbo",-11.072280613360835],["▁publicado",-11.072537236361114],["▁actua",-11.07283241692039],["▁Estonia",-11.0731664444695],["▁sujetos",-11.073524114003076],["son",-11.073558035322161],["▁indicacion",-11.074026231858173],["▁queden",-11.074336572805311],["▁empezado",-11.074452279140955],["▁PESC",-11.074454067551084],["▁funcionan",-11.074508870145266],["▁Viena",-11.075547476994002],["▁Informacion",-11.075554614756927],["▁comprendo",-11.075612028235422],["▁aboga",-11.075983817961905],["▁decirse",-11.076198173807397],["▁prision",-11.076665717192377],["▁reforzado",-11.076695108660495],["▁cuesta",-11.077597263443366],["▁Caucaso",-11.077720250493805],["▁implantacion",-11.07772827642593],[".\nPersonalmente",-11.077777466955443],["▁paises.\n",-11.077950590744985],["▁tarjeta",-11.078738865217337],[".\nQuiza",-11.07898857195239],["mostro",-11.079337714311162],[".\nConsideramos",-11.079487199559814],["▁citado",-11.07982416557081],["▁asignado",-11.07999828379342],[".\nDel",-11.08031729237967],["▁cruciales",-11.080628493530018],["▁abandono",-11.081001566941634],["▁ecologicos",-11.081323864201742],["▁extrano",-11.081383996622032],["▁nuevamente",-11.081969415062627],["▁coincido",-11.082094232656083],["▁digna",-11.08276736887153],["basandose",-11.082782653231892],["▁conduccion",-11.082808003683484],["▁debate.\nLa",-11.082880645608292],["▁acepte",-11.083370661989832],["▁comunicar",-11.083529600617801],["▁acabe",-11.083683309294075],["▁Mexico",-11.083704708471721],["▁extraordinario",-11.083806838587133],["▁verdaderos",-11.084266214805286],["▁reclamaciones",-11.084743645407386],["▁niega",-11.085103644185992],["▁tardar",-11.085209036646706],["▁Globalizacion",-11.085387319295211],[".\nConfio",-11.085403617644985],["▁dejan",-11.085852430091897],["▁registrado",-11.085968289394076],["▁0,",-11.086031992557515],["tendrian",-11.086090373107776],["▁encuentre",-11.086383427359944],["▁ruta",-11.086906008981149],["▁trans",-11.086953249905868],["▁justificada",-11.087174416833797],["▁racional",-11.087399008441839],["T",-11.087469576987317],["▁consigue",-11.087485906999238],["▁avanzada",-11.087490133246634],["D",-11.087525414840574],[".\nAlgunas",-11.087725358690818],["▁reconozca",-11.087781925152655],["▁Argelia",-11.088691287930551],["tendriamos",-11.088864319285213],["▁pensamiento",-11.088965525094705],["sistematicamente",-11.089037084434473],["rme",-11.089081895907809],["▁equivalente",-11.089143505169364],["▁paga",-11.08920929699945],["(LT)",-11.089810657295411],["▁desear",-11.09053876338897],["▁acordar",-11.090669837905416],["▁veran",-11.09093320540838],["▁votamos",-11.09132023761303],["▁desprende",-11.091439900721358],["▁tecnologica",-11.091811654944655],["▁desleal",-11.091997932577897],["▁web",-11.092007344922527],["▁entiende",-11.0930222617141],["▁pronunciado",-11.093176972650351],["▁desplazamiento",-11.093318920529626],["▁formuladas",-11.093482388315252],["▁ayude",-11.09362419300157],["▁envejecimiento",-11.094222273475495],["▁utilice",-11.094505944433187],["▁complementarias",-11.095076901553954],["▁criticar",-11.095138359702446],["▁Congreso",-11.09533215217381],["▁madera",-11.09533228002475],["▁Administracion",-11.095343098657642],["▁Cohesion",-11.096443262716745],["▁Madrid",-11.096443264590686],["▁Codigo",-11.097702763090785],["▁forestal",-11.098652602670377],["▁sugerencia",-11.098699840187933],["?\n¿Como",-11.098722978050608],["Objetivos",-11.09893404895968],["▁45",-11.099164026296563],["▁consta",-11.09943933083922],["▁tuviera",-11.100022300651688],["▁potenciales",-11.10004661671248],["▁acompanada",-11.100149175294776],["▁llegada",-11.100721322178721],["▁reflejan",-11.10073354627415],["▁cincuenta",-11.100900093917415],["▁desempleados",-11.10115460677292],["▁afectada",-11.101328963348578],["▁insuficientes",-11.101610521703236],["▁denunciar",-11.102002219255542],["▁conseguimos",-11.102017415960262],["▁humanitario",-11.102235408513657],["▁celebra",-11.102521334807182],["▁progresiva",-11.102655782989187],["▁compartida",-11.102793777165711],["▁Kinnock",-11.103135980586252],["▁ma",-11.103372933459323],["▁discursos",-11.10386577581447],["▁dara",-11.104988603209387],["▁planteadas",-11.106231689576237],["menta",-11.106409773724447],["▁memoria",-11.106499645423238],["▁brindar",-11.10661166360276],["▁acordo",-11.107157033657494],["▁preferencia",-11.107450562945665],["▁policiales",-11.107527976427528],["▁oficinas",-11.10779177755969],["▁deba",-11.107791909889547],["▁sufre",-11.108872066883816],["▁especulacion",-11.108924804126456],["▁Costa",-11.110000296356056],["▁oponen",-11.11039362249426],["▁referendos",-11.110567772748075],["▁remedio",-11.111602657557274],["▁profundizar",-11.111625644276153],["▁cuestion.\n",-11.111693166965281],["▁ocurra",-11.112078080647365],["▁sucediendo",-11.112129857192151],["▁lleven",-11.112297175520432],["▁deliberaciones",-11.112659746910357],["ser",-11.112689652999805],["▁Civiles",-11.11278144958187],["▁asesoramiento",-11.113268642426444],["Despues",-11.113409716430922],["▁modificada",-11.113414040420789],["▁nombres",-11.113503396224367],["▁repercusion",-11.113629416133687],["▁electorales",-11.114110182486918],["▁400",-11.114704489501396],["▁sanitario",-11.114924896863876],["▁actue",-11.114986441440333],["▁Colombia",-11.115013031033044],["▁comprendido",-11.115233614515308],["▁condenado",-11.115477499712728],["▁Parlamentaria",-11.115525156050001],["▁corren",-11.115660897205347],["▁examinando",-11.115930749477322],["▁operativo",-11.116240499765757],[".\nMiembro",-11.116313824508232],["▁mediterranea",-11.116657311916732],["▁redactar",-11.116906641803837],["▁merito",-11.117856867135119],["▁explotar",-11.117861055008701],["▁pi",-11.117864149005465],["'",-11.118206567115946],["▁PE",-11.11837062421657],["▁rusa",-11.11877099560329],["▁magnifico",-11.118928786482037],["▁Negro",-11.11893001332022],["▁So",-11.119335674353989],["▁levanta",-11.120038520586695],["▁fiabilidad",-11.120066452898364],["▁incapacidad",-11.120094546961312],["mon",-11.120300940051912],["▁polacos",-11.12059554891767],["▁oportuna",-11.12080062416059],["▁refuerza",-11.121186223293044],["▁falsificacion",-11.121264112800048],["▁auditoria",-11.121342457882808],["▁distorsion",-11.121438416885615],["th",-11.121541620271627],["▁explicitamente",-11.121612598713135],["▁maneras",-11.122299214981712],["▁avion",-11.122479841377594],["s:",-11.123039436096061],[".\nponente.",-11.124459727995127],["▁sancion",-11.124793540278251],["fin",-11.124805121471883],["▁Ar",-11.124805733551533],["▁prorroga",-11.124828960828035],["▁pagina",-11.124904044385472],["▁pretendemos",-11.125083437061914],["▁Adaptacion",-11.12539066455149],["▁Monti",-11.125736166601387],["▁anexo",-11.125765496267631],["▁ocultar",-11.125838774793209],[".\n\n",-11.126090867906843],["▁quieran",-11.126879256797366],["▁progresar",-11.12692310851357],["▁fruto",-11.126965196046545],["▁idiomas",-11.12743714142277],["▁permitiran",-11.127532790672532],["fu",-11.12839155834848],["▁Li",-11.128897165777541],["▁aranceles",-11.129367352046753],["▁costas",-11.129430205896144],["▁Zimbabue",-11.129634982622502],["▁felicitaciones",-11.129661762643345],["▁eficientes",-11.130440338556596],["democraticamente",-11.130512178829749],["▁delicada",-11.130528803570455],["ita",-11.130724808222318],["▁aquello",-11.130774011179414],["▁jornada",-11.13121769841392],["▁32",-11.131230784479337],["▁negociado",-11.131275216261448],["j",-11.131347964579234],["▁privatizacion",-11.131387695823046],["▁viendo",-11.131427457310089],["▁edificio",-11.13145189320057],["▁fiables",-11.132551970993752],["▁quimicas",-11.133005844851137],["▁elevada",-11.133439103740425],["ka",-11.133648950539037],["▁desaparicion",-11.13368961164717],["▁Federal",-11.133820204448924],["▁cereales",-11.133921081932382],["▁desigualdad",-11.134143524686394],["▁potencias",-11.134159064372819],["tin",-11.134235520115777],["chi",-11.134324326335197],["▁comprende",-11.134502107562483],["rian",-11.13518559978939],["ice",-11.135241200268862],["▁detenidos",-11.135519943731996],["▁sustancia",-11.136140544995932],["▁sujeta",-11.136186803034356],["▁iraqui",-11.136268261292603],["tura",-11.137156672720902],["▁digno",-11.137309651406692],["▁humanitarias",-11.13762209650664],["▁pudo",-11.137669042977945],["▁5,",-11.138308444399888],["▁aprendido",-11.13859111285448],["▁vivimos",-11.138694228248562],["▁federal",-11.139089573906407],["▁monopolio",-11.139473731957485],["▁Montenegro",-11.139607255292631],["▁teniamos",-11.140232195905622],["▁preferencias",-11.140385545123504],["▁escuela",-11.140680802114801],["▁colectivo",-11.140696359939572],["▁chinos",-11.141781822525811],["▁clasificacion",-11.141931489358338],["▁reduciendo",-11.141984287495374],[".\n(ES)",-11.142031484209642],["▁incondicional",-11.142080825966751],["▁seriedad",-11.142222349181392],["▁benefician",-11.142316586904407],["▁conceda",-11.142497509757764],["▁Objetivo",-11.142818820025358],["▁declara",-11.142897532326245],["▁vial",-11.143001194978321],["acabamos",-11.14393953046735],["▁plaguicidas",-11.144272814936077],["▁miembros.\nLa",-11.144375663858325],["▁subida",-11.145370452550539],["97",-11.145421606744984],["▁suceder",-11.14574144803278],["(",-11.145906804934684],["▁tomadas",-11.146084757042406],["▁preguntado",-11.146282291041878],["▁luchando",-11.146403849994261],["▁temores",-11.146644763963433],["▁danesa",-11.147432241382312],["▁odio",-11.14781580334785],["▁recoger",-11.148042089448246],["▁energicamente",-11.14806614010693],["▁actuando",-11.148335114773316],["▁insiste",-11.14837068404308],["▁camiones",-11.149119296088056],["▁reflejar",-11.149364119790878],["▁delincuentes",-11.149625280336869],["▁ofrecido",-11.14971221673815],["05",-11.149852921911279],["▁tomara",-11.150785367193837],["▁legitima",-11.150831401090716],["▁erradicar",-11.151285270610497],["▁decide",-11.151368667781123],["▁llevara",-11.15160984768145],["▁aplazar",-11.15224934256876],["▁demasiadas",-11.152292286201444],["▁relevancia",-11.152457897961039],["▁efectividad",-11.152457898450358],["▁Blair",-11.152457950730248],["▁prisioneros",-11.153068947591496],["▁cotidiana",-11.153586929623291],["▁monopolios",-11.153769796242367],["▁recomendar",-11.154019720188222],["▁cerrado.\n",-11.154921468166783],["▁PPE-DE",-11.154984110978285],["izada",-11.155640985765501],["▁nacionalidad",-11.155806884237371],["▁operan",-11.156391156993593],["▁internacional.\n",-11.156672796033845],["▁frenar",-11.156977583643721],["▁infancia",-11.157172266306462],["¿Por",-11.157251921264425],["▁terminado",-11.15744075151118],["▁armamento",-11.157478047636129],["▁llamadas",-11.157733812486505],[".\nCiertamente",-11.15835479867515],["▁proteja",-11.158355044773124],["▁prioritarios",-11.159495843547457],["ine",-11.159708656666062],["▁extra",-11.161819635298269],["▁maternidad",-11.161908647370879],["▁sexo",-11.162231153380638],["Asunto",-11.16224674037301],["▁detallado",-11.162693113933113],["▁liberar",-11.162974244921646],["▁explicado",-11.163284292645379],["▁aparatos",-11.163288990318529],["▁filosofia",-11.164285355547136],["▁establezcan",-11.164646133723105],["fe",-11.164805585837698],["▁resolverse",-11.164878223709412],["▁pobre",-11.164929082814218],["▁reanuda",-11.165022916165302],["▁levantar",-11.165310780692323],["▁bandas",-11.165411979351967],["daran",-11.165454085669165],["▁opongo",-11.165524265960094],["▁encuentren",-11.165588939044097],["▁siente",-11.165738189431753],["▁comunista",-11.16574162253363],["▁verguenza",-11.165754227433531],["▁animo",-11.165790467851831],["▁textiles",-11.165851704434854],["▁pensado",-11.16662551180757],["▁sirven",-11.16663736152842],["▁obligada",-11.16670871130844],["▁agraria",-11.166956955884832],["perteneciente",-11.166971698088904],["▁billetes",-11.167107405341483],["▁conseguirlo",-11.167330963117024],["▁sepa",-11.167620016172476],["▁comienza",-11.167861051005127],["▁mantenemos",-11.167861600074943],["▁terribles",-11.16804814100296],["▁lagunas",-11.16881404032252],["▁cientificas",-11.168899072230833],["▁Nigeria",-11.169081319802572],["▁agradecido",-11.169286261678778],["▁electronica",-11.169443235390315],["▁aceptables",-11.1695531170884],["▁Pa",-11.16976585627813],["▁veremos",-11.16977486332625],["beremos",-11.170154913899584],["▁Milosevic",-11.170251959660572],["▁teoria",-11.17025225579362],["▁Vicepresidenta",-11.170526293995259],["▁inocentes",-11.170868410648268],["▁unirse",-11.170912702969504],["▁vi",-11.170931611813717],["▁satelite",-11.171163059887153],["▁Martin",-11.17118791256367],["▁flujo",-11.171413835718003],["▁descrito",-11.171449661592646],["▁idioma",-11.172107225003884],["▁Haya",-11.172321970231476],["▁incidentes",-11.17254190971563],[".\nComparto",-11.172747301515857],["▁periodicos",-11.172895618879858],["▁abiertas",-11.172957392038917],["▁parcialmente",-11.17313408120614],["pos",-11.173195552769318],["▁guarda",-11.173416786809133],["▁Trabajo",-11.173849664918041],["▁transferir",-11.173912157423995],["▁rubrica",-11.174041462355685],["▁norteamericanos",-11.174481234833125],["▁Paris",-11.174997089514292],["cen",-11.175060952722774],["▁ello.\n",-11.17520876455756],["optado",-11.175471849839656],["▁invitacion",-11.175479427435905],["▁hipocresia",-11.176254377913356],["▁soportar",-11.177051664904681],["▁salvaguardia",-11.17735388651148],["▁fiebre",-11.177459199647384],["▁blanco",-11.177702109461855],["▁redactado",-11.178046548326845],["▁audiencia",-11.178060410021661],["▁Islandia",-11.178666358889863],["brian",-11.178862173775903],["▁deseen",-11.179007173448916],["▁lleno",-11.17932102477657],["▁criticos",-11.179357988938204],["▁Kong",-11.179883712903438],["▁(A4-",-11.180057597640914],["▁manifestacion",-11.180219324520747],["▁concepcion",-11.180410911862952],["▁darnos",-11.180773689891579],["von",-11.18122863078759],["um",-11.181362058984792],["?\n¿Por",-11.181597743924286],["▁tarifas",-11.181749982779696],["▁causar",-11.182074061034463],["▁meta",-11.182246378443525],["Permitanme",-11.18287042140078],["▁escena",-11.183152609756807],["▁elevar",-11.183658153589533],["▁voluntarios",-11.183908982068322],["▁implementacion",-11.184718756402845],["▁vuelvan",-11.18541051919412],["▁ALDE.",-11.185547284005338],["▁plataforma",-11.18566407421204],[")\nSenor",-11.186983515392429],["▁Frontex",-11.187152042739001],["▁inaceptables",-11.187283807339758],["▁36",-11.18743506085681],["▁vecino",-11.187852390736406],["sti",-11.187920705406956],["▁OCDE",-11.188368396128597],["▁mutuamente",-11.189130857464036],["▁preparada",-11.189393828124919],["▁permitirse",-11.189600009974484],["▁valioso",-11.189957983542687],["▁comunicado",-11.190263475811234],["▁prestando",-11.19142599043748],["▁objetiva",-11.192606065603908],["▁'",-11.193083397606165],["▁bloque",-11.193776486374682],["▁estimadas",-11.194626896487922],["▁defensor",-11.194946570575343],["bor",-11.195559927349844],["▁Observatorio",-11.195707876527909],["▁trasladar",-11.195969667004324],["▁superiores",-11.196102094967895],["basados",-11.19612061295108],[".\nP",-11.196136785992856],["antes",-11.196249257660659],["as,",-11.196656244240586],["▁flotas",-11.197039135109915],["99",-11.197431380964328],["▁hiciera",-11.197510980754863],["▁cargos",-11.198078590175637],["▁Interiores",-11.198237748340226],["▁preguntarnos",-11.198239520573605],["▁promueva",-11.199397918187216],["▁Eurostat",-11.199397926807325],["▁Hong",-11.19941283679589],["ko",-11.200123887012118],["▁48",-11.200152037403363],["▁tolerar",-11.201642952565969],["▁orientada",-11.20177308054266],["▁acercar",-11.20249170484372],["▁Frattini",-11.203101624617453],["▁Taiwan",-11.203101624621382],["▁espectro",-11.203101626370326],["▁injusto",-11.203102126983229],["▁cien",-11.203203198208652],["▁miembros.\nEn",-11.203932424390493],["▁cambia",-11.20424193692861],["▁sufriendo",-11.204351573794906],["▁significativos",-11.204482512172156],["▁chino",-11.204518111875815],["▁anunciar",-11.20497057677645],["dad",-11.205053562817202],["▁apunta",-11.205731297034916],["▁neerlandesa",-11.205892905409996],["▁sentar",-11.206067172785563],["▁basan",-11.206285564535865],["▁esferas",-11.206328995475676],["safortunadamente",-11.206332710763078],["▁descanso",-11.206819112775417],["▁viviendo",-11.206829401216805],["▁ganaderos",-11.207041009283916],["▁indemnizacion",-11.207164967661253],["▁externa",-11.207306143781167],["▁emprendido",-11.2076222208253],["▁Ro",-11.207782768924064],["▁Indonesia",-11.208061341387943],["▁apropiadas",-11.208073389851483],["▁Ja",-11.208140335707679],["▁biocarburantes",-11.208244450242983],["▁fracasado",-11.20889528704151],["▁adoptarse",-11.209191634166366],["para",-11.20926549998852],["▁Herzegovina",-11.209305117661009],["Necesitamos",-11.209644018291206],["▁Monetario",-11.209921452318284],["▁multilaterales",-11.209959116187132],["s;",-11.210116965913489],["▁equivocado",-11.210206278320442],["▁cuantas",-11.210738229961692],["▁intente",-11.210810673142173],["▁aclaracion",-11.211017958500463],["▁repetidas",-11.211073555157167],["▁entrado",-11.2113765767761],[".\nSera",-11.21220357505246],["▁c",-11.212715462678112],["▁surgir",-11.212759444427888],["▁renuncia",-11.212889802172096],["▁normalizacion",-11.213160299924084],["▁simbolo",-11.214034432807145],["▁ap",-11.214106214088986],["▁sida",-11.214196392829162],["▁coalicion",-11.214295859012644],["▁retrasar",-11.214442222665337],["▁adquisicion",-11.21584271769331],["▁explicita",-11.216352566237875],["▁expresada",-11.217935463694015],["▁aborde",-11.217950095386765],["▁neerlandes",-11.217977616512048],["▁Conciliacion",-11.21805517387656],["▁semestre",-11.218104229356648],["▁An",-11.218166632717615],["▁democracias",-11.218432272226138],["▁convirtiendo",-11.21844750034587],["▁33",-11.219025593879124],["ber",-11.219163641978357],["▁participa",-11.219725125953229],["▁educativos",-11.219967814779793],["▁acertada",-11.220057858954789],["▁aislamiento",-11.220572740169011],["▁inutil",-11.2207686323447],[".\nAyer",-11.22085532628246],["▁valiosa",-11.221023374686666],["▁-es",-11.221398992194747],["ifica",-11.221640125494968],["aria",-11.22173221123828],["▁gratitud",-11.221828761239863],["▁obtencion",-11.22182876311535],["▁premio",-11.221829641557004],["▁estrategicas",-11.222652545556542],["▁quedara",-11.223010472812907],["▁Occidente",-11.22318312195828],["▁estuviera",-11.223306810121237],["▁arabe",-11.223348255200655],["bilidad",-11.223609543947024],["▁invitar",-11.22421253201691],["Relaciones",-11.224354205355585],["▁empeno",-11.224354710328544],["▁perdiendo",-11.224357404561879],["▁reducida",-11.224538485420267],["tivos",-11.225423920545705],["Nuestro",-11.225497981688436],["▁incorporado",-11.225515842289292],["he",-11.225800816692736],["▁innovadoras",-11.226030365763025],[".\nSegundo",-11.226670006092473],["vis",-11.226748418488482],["▁terror",-11.226792915968204],["▁operativa",-11.226827083521883],["▁intensidad",-11.226882467139113],["▁York",-11.226887372084668],["▁efectivas",-11.227083482324748],["ces",-11.227878326516247],["▁erradicacion",-11.228153988801791],["▁Apoyo",-11.228671335270818],["▁dejen",-11.229338620416046],["▁guia",-11.229448761070657],["▁posible.\n",-11.229568196572272],["▁ocupe",-11.229968808732538],["Alianza",-11.2301489781803],["▁situ",-11.230637049182892],["▁aves",-11.230708585806315],["▁mantengan",-11.2309423248518],["▁continuara",-11.231007828681772],["▁profesores",-11.23138045537753],["▁proporcionado",-11.231621331081179],["▁sensato",-11.231962055180347],["▁pluralismo",-11.231974611765663],["mero",-11.23213900944507],["▁justas",-11.23259970469928],["▁lleguen",-11.232863087001691],["aunque",-11.232870883310486],["▁unido",-11.232879491388296],["▁superficie",-11.233168912168633],["van",-11.233326237865944],["▁descenso",-11.233337301459349],["▁calentamiento",-11.234511237723556],["▁crediticia",-11.234511238006977],["▁entrana",-11.234765253472828],["▁horas)\n",-11.235031036663173],["▁variedad",-11.235038701137404],["▁visitar",-11.235361409662016],["▁espanoles",-11.235560127325414],["ect",-11.235574159923614],["▁alimentarios",-11.23560125520265],["▁permanentes",-11.235655777494031],["▁maniobra",-11.23566517438592],["▁resultara",-11.235937218635321],["▁situado",-11.23638037571919],["▁comienzos",-11.236506670585637],["▁despidos",-11.236765446414513],["▁satisfecha",-11.237067170426602],["▁adultos",-11.237814696366005],["▁ciudadanas",-11.238294244283644],["▁mercurio",-11.238347559150835],["▁huelga",-11.238378339992725],["▁felicitando",-11.238994121401952],["▁legislar",-11.239081991485335],["via",-11.239110752499617],["Segunda",-11.239641105950366],["ito",-11.239864046668556],["▁impuestas",-11.240792540975505],["▁lograrlo",-11.240917868982525],["▁jurisdiccion",-11.241116016110045],["▁salga",-11.241380559938204],["▁[",-11.241451001666185],["▁biotecnologia",-11.242199277575446],["▁servira",-11.242630313575981],["▁publicamente",-11.243711972162524],["▁temprana",-11.244774746109332],["▁elabore",-11.245084199856613],["▁aproximacion",-11.245231061237801],["▁jugar",-11.245412675463701],["▁senalo",-11.245496331915831],["▁combinar",-11.245637872523446],["▁ayudado",-11.245690420666543],["ario",-11.246041639407904],["▁hicimos",-11.246064642366765],["▁partidario",-11.246150849125932],["▁italianos",-11.246585778092477],["▁respaldado",-11.247089960543846],["▁Michel",-11.247358066812907],["▁bruto",-11.247360244425781],["Posicion",-11.247416241110983],["▁leal",-11.247758389976646],[".\nCualquier",-11.248011634108884],["▁indole",-11.248658626378798],["▁desarme",-11.248671433087852],[".\nObviamente",-11.24878830157634],["▁desequilibrios",-11.249023268251552],["▁\"no\"",-11.24902496656187],["▁clonacion",-11.249958390782728],["▁checa",-11.249970534687417],["▁adquirido",-11.250862735437043],["▁desaparecer",-11.251100658414131],["▁6,",-11.251106277117746],["▁combate",-11.251243468205232],["▁vehiculo",-11.251524657716455],["▁presidenciales",-11.251839779568492],["capaz",-11.251920371323717],["▁acontecimiento",-11.252174155456949],["▁suya",-11.252577985389916],["▁gama",-11.25269775810553],["▁orgullosos",-11.252766676017963],["tion",-11.253164323424912],["tru",-11.253706604567231],["▁justificado",-11.254175396545262],["▁turca",-11.254291061907855],["▁bancario",-11.254386985389061],["▁aliados",-11.254394884985844],["▁caracteriza",-11.254453455327958],["▁competitivos",-11.254482998112135],["▁ingreso",-11.254704506572228],["ju",-11.254956476837751],["▁compromete",-11.255001341946256],["▁alianza",-11.255137919129432],["▁regulador",-11.255427283813283],["▁diplomacia",-11.255483178914197],["▁pendiente",-11.256236220425349],["▁Ley",-11.256678464605772],["▁respalda",-11.256787807014849],["10",-11.256891344943469],["▁legalidad",-11.25693892943948],["▁favorece",-11.257337383427455],["▁certeza",-11.25775308250172],["▁fomenta",-11.257894962095154],["▁indice",-11.257905021476676],["▁empresariales",-11.257924668467885],["▁inmensa",-11.25812767842892],["▁dirij",-11.25847214017876],["ina",-11.258715027237127],["▁propietarios",-11.25902462198595],["▁2015",-11.25914327892356],["▁Corte",-11.259161789268848],["▁fenomenos",-11.259330119546576],["▁aumente",-11.259379986911215],["▁34",-11.259522315008264],["98",-11.259758290155748],["▁ejerce",-11.260178930904658],["▁culpables",-11.26037542648076],["▁profesion",-11.260663323061438],["▁publicar",-11.260729777231855],["▁unidades",-11.26099049911388],["▁etnicas",-11.261921429067483],["▁indudablemente",-11.262007177023182],["sar",-11.262326030841345],["▁incomprensible",-11.26299212318792],["▁ordenacion",-11.262996769845351],["▁FMI",-11.26301678489746],["▁horizontal",-11.263270766775868],["▁Dios",-11.263303490964745],["▁comun.\n",-11.263488707711359],["▁voten",-11.263657728085432],["▁metas",-11.263729628116614],["▁suceda",-11.263807517013099],["▁presenten",-11.26408656224233],["▁pension",-11.264090684252153],["▁profundas",-11.264839541044822],["▁Yugoslava",-11.26562197310838],["▁-de",-11.26573004224377],["ng",-11.265929023092859],["▁rutas",-11.266472600792962],["▁extremistas",-11.266525199375002],[".\nVamos",-11.266836443431105],["▁calculo",-11.266935441936566],["▁Ministra",-11.266939496521726],["▁modernizar",-11.266939915952301],["▁anade",-11.266940449580929],["estaran",-11.267226508785342],["▁record",-11.267581529311116],["▁asesinatos",-11.268090570001602],["▁equitativo",-11.268258757384533],["▁planteo",-11.268262468900911],["▁dominio",-11.268305366791099],["Nosotros",-11.26858019640267],["▁queridos",-11.268639495252504],["▁visible",-11.268912937626897],["▁intentamos",-11.26899465148588],["▁incluyan",-11.26919767249021],["▁salido",-11.270209911376941],["▁traer",-11.270438437080646],["▁obligatorios",-11.270465640550347],["▁protege",-11.27093688555517],["?\n¿No",-11.27114048630553],["▁define",-11.271345816853437],["▁aceptamos",-11.271484393817744],["Hace",-11.271797748733523],["▁automaticamente",-11.27245432921282],["Turno",-11.272548216722866],["▁tension",-11.272705280100205],["▁inequivoca",-11.273110315432131],["sobre",-11.273293933295578],["▁permisos",-11.273316680346014],["▁clases",-11.273808768866957],["▁historicos",-11.274238256989724],["▁aportado",-11.274269856576808],["▁previamente",-11.274701101615321],["▁corresponden",-11.274803370367508],[".00",-11.275403877572284],["▁distorsiones",-11.275826637076555],["▁verificar",-11.276070694465794],["▁inteligencia",-11.276211084408637],["▁bacalao",-11.276211085808383],["▁atentamente",-11.276626215984946],["▁indicaciones",-11.27729994188104],["▁aceite",-11.277426208339113],["▁presentamos",-11.277518056883423],["▁complicada",-11.27758451664516],["▁transferencias",-11.277645182324607],["▁describir",-11.277777654444975],["vi",-11.278153958400502],["▁polaco",-11.27825621583428],["):",-11.278500876643623],["▁reacciones",-11.278786745996914],["▁establecio",-11.278904399778419],["▁SIS",-11.278911238530842],["▁prudente",-11.27895837882504],["▁olvidado",-11.279073805570068],["▁posteriores",-11.279814271046277],["▁formalmente",-11.279821385744068],["▁somete",-11.280023070354503],["▁Sovietica",-11.280211089323402],["▁supondra",-11.28035688996321],["▁aereos",-11.280728528736795],["▁excepcionales",-11.281043770851527],["▁linguistica",-11.28151146527916],["▁mejorando",-11.28163150342585],["▁PPE-DE.",-11.281729916012885],["▁evidentes",-11.28182102554468],["▁temporales",-11.28236942668651],["▁preocupado",-11.282491508097756],["▁pertenencia",-11.282886677112446],["▁pagan",-11.282940867074693],["cio",-11.283746328480042],["▁autorizar",-11.283907857908046],["-por",-11.284130696282155],["▁Democratica",-11.285570250447112],[".\nQueda",-11.285691564999187],["▁presidentes",-11.286177933687492],["▁expuestos",-11.28657087628141],["▁sentado",-11.286863182243202],["▁equivocada",-11.286962958912596],["▁reconocemos",-11.287005050784742],["▁poseen",-11.28755598594093],["▁ejecutar",-11.28766755678021],["▁aborto",-11.288247870144474],["▁piedra",-11.288456033175594],["▁C4-",-11.288976054079399],["▁facilita",-11.289592846492685],["▁Washington",-11.289607130016751],["▁Guantanamo",-11.289607130016751],["operabilidad",-11.28960986710442],["s»",-11.289797035096868],["▁adherirse",-11.289891740579773],["pondra",-11.28996413853559],["▁Africana",-11.290009724296727],["▁restringir",-11.290164203837247],["▁aeropuerto",-11.290312258706118],["▁recae",-11.29037155947468],["▁movil",-11.290549936336255],["▁imperativo",-11.291156493980129],["▁arma",-11.291552975458705],["▁innovadores",-11.291626027819182],["▁normales",-11.291892429604708],["▁etcetera",-11.292308010585353],["▁describe",-11.292308013264895],["▁aparicion",-11.292308427718996],["▁vacaciones",-11.292321747520308],["▁insistencia",-11.292337045437943],["▁(debate)",-11.292506590809673],["▁certificacion",-11.292726683546178],["▁consigo",-11.292745451117522],["▁senorias",-11.29346210116956],["▁sol",-11.293612787853696],["▁Swoboda",-11.293661189006361],["▁Ronda",-11.293661835314836],["▁entendemos",-11.293703760048697],["▁insistido",-11.293884261575462],["▁avanza",-11.294214971065573],["▁Moscu",-11.295016435774194],["▁reune",-11.295044838248753],["▁debilitar",-11.29564526073198],["illa",-11.295873968582228],["▁desarrollo.\n",-11.295892279369246],["▁instancias",-11.296326451553139],["▁consistente",-11.296635583735243],["▁ofreciendo",-11.296658279405108],["▁ampliado",-11.296659833436461],["▁realidades",-11.297331219249653],["▁desarrolle",-11.29733575935261],["▁celebrando",-11.2974367359881],[".\nPodria",-11.297452389318103],["▁tercero",-11.297492125029128],["▁realicen",-11.297648166245871],["▁inicialmente",-11.298040982586366],["▁bajas",-11.298093348455273],["▁Ra",-11.298154248942833],["idas",-11.298374430178832],["5%",-11.298470588455256],["▁transitorio",-11.298486474518569],["▁jueces",-11.29909238614315],["▁implican",-11.299351096284402],["▁Juventud",-11.299432450742614],["una",-11.299629652083048],["▁veto",-11.300308363513075],["▁sexuales",-11.300574096220561],["▁peores",-11.300892437101027],["▁seguras",-11.300944430729535],["leg",-11.30100243431638],["▁desfavorecidas",-11.301002558864887],["▁derivadas",-11.301200044178945],["▁conjuntas",-11.301495977116925],["▁150",-11.301786928159618],["▁hemiciclo",-11.301818948861262],["▁Director",-11.301819026998242],["es.\n",-11.30211569360587],["▁rigurosa",-11.302218645230614],["▁caza",-11.302508122691552],["▁capitulos",-11.30266109490724],["▁consejos",-11.303098603974485],["bremos",-11.303242910585123],["▁musulmanes",-11.303528684279485],["▁perjudicar",-11.303906640207101],["▁Danubio",-11.304553061207102],[".\nCabe",-11.30455430781603],["▁acompanado",-11.304642480726605],["▁beneficiar",-11.305240311744642],["▁entero",-11.305398493339403],["▁Europa.\nEn",-11.305782848891216],["▁Sadam",-11.305924637672732],["▁Liberal",-11.30609843510457],["▁Regiones",-11.306189012694908],["▁Vi",-11.30638992564171],["▁preventiva",-11.306836923528746],["▁ca",-11.30684454339837],["▁facilidad",-11.306890757751404],["▁desventaja",-11.30690745713212],["Eso",-11.307004883750187],["▁hacernos",-11.307093132770587],["▁jurisprudencia",-11.307294663230703],["▁encarecidamente",-11.307294663231154],["Premio",-11.307296556202642],["▁discutiendo",-11.307305074386111],["▁comenz",-11.308138740030916],["▁periodico",-11.308393983743457],["▁vinculados",-11.308681821099785],["▁protegidos",-11.30884374967114],["▁irani",-11.30910188740489],["▁educativo",-11.309332522148082],["▁pediria",-11.309372314677207],["▁garantizado",-11.309484370527397],["▁genetica",-11.310265838848913],["▁149",-11.310407309389664],["▁acudir",-11.310740334456407],["donde",-11.31091941878498],["▁serios",-11.311271083745236],["▁unir",-11.311377638458126],["▁perfecto",-11.311421273138983],["▁acta",-11.311433137395774],["▁martes",-11.311547746237668],["▁fusion",-11.31250460665032],["▁moviles",-11.31259053770291],["▁Laeken",-11.312800734575536],["▁inicie",-11.312812550324187],["▁radicales",-11.313101471372754],["amparo",-11.313382906058786],["▁iniciales",-11.3140446655709],["▁aprobados",-11.3140472520932],["▁retorica",-11.314183371050902],["▁salarial",-11.314456617969643],["▁fa",-11.3148695035774],["▁aliviar",-11.315071811575919],["▁unidos",-11.315334674228033],["▁42",-11.315351296886611],["▁protestas",-11.315353256900067],["▁llena",-11.3154621000042],["▁proceden",-11.315523635318772],["▁Haiti",-11.315565045944835],["▁existia",-11.315668529671964],["▁francamente",-11.315741109175125],["▁demografico",-11.316246462631335],[".\nCelebro",-11.316285607336617],["▁implantar",-11.316398192277509],["▁medir",-11.316437414312054],["▁intensa",-11.316497661446263],["▁preferido",-11.316949916839114],["transfronterizas",-11.317169727103611],["▁maximos",-11.31732169270391],["▁incentivo",-11.317349653845515],["▁restriccion",-11.317504511807277],["tt",-11.317681726097732],["▁turcos",-11.318448616344899],["▁cartas",-11.318746234031153],["\nLa",-11.31891843400994],["▁Anexo",-11.319310142917159],["▁establecerse",-11.319559271185481],["▁Barnier",-11.319725776310895],["▁asegure",-11.319792967564663],["▁mental",-11.320211385937885],["▁empleado",-11.320315474214024],[".\n(La",-11.320476815725415],["▁frutos",-11.321069616903616],["▁diagnostico",-11.321116581255902],["▁incidencia",-11.321120457681575],["▁autonomos",-11.321271098982194],["▁Verdes/",-11.321361877484808],["▁alarma",-11.322095947625076],["▁generado",-11.322347293836717],["constitucionales",-11.322384910258318],[".\nDoy",-11.322832395111146],["▁fallos",-11.322938763931221],["▁unificacion",-11.323234485695629],["▁abogados",-11.323450201309097],[".\n(H",-11.323664521410993],["▁largos",-11.323853313786987],["Cada",-11.323881105629999],["▁portugues",-11.324047264376379],["▁regulaciones",-11.324191255359121],["▁transformar",-11.324569144575193],["▁pe",-11.324599268632516],["▁reconozco",-11.325300686992934],["▁quiebra",-11.325300690971806],["▁inevitablemente",-11.32600858602867],["pul",-11.326295891600193],["▁advertencia",-11.326522437448808],["▁Secretaria",-11.326699289419107],["▁exportar",-11.327249354737512],["▁migratorios",-11.327391721582122],["▁prostitucion",-11.328115714567566],["▁ciudadana",-11.328161946788658],["▁comprometerse",-11.328799257588836],["dra",-11.32936431485346],["▁reciprocidad",-11.32950237315751],["▁refleje",-11.329502376669323],["▁¿Como",-11.329723265123153],["cho",-11.330236754446737],["sol",-11.330288338689323],["▁astilleros",-11.330371636268373],["▁vivos",-11.33042817030685],["gui",-11.330645325706323],["▁inquietudes",-11.330688348319809],["▁estudiando",-11.331082952140683],["▁indirecta",-11.331671229689373],["▁extranjeras",-11.331877809731186],["▁excelencia",-11.332313337685397],["▁recorte",-11.332534666153304],["▁prohibe",-11.332820389722905],[".\nDeberia",-11.33291242005907],["▁aduanera",-11.333161447140853],["▁salvaguarda",-11.333461472598342],["▁Ministerio",-11.333721788399263],["▁Darfur",-11.333721789820009],["▁sueno",-11.333723964608959],["▁planteada",-11.333835992222655],["▁propaganda",-11.335132257574237],["▁inteligentes",-11.335863900331056],["▁PSE.",-11.336098857524147],["ing",-11.336314217152115],["▁atractivo",-11.336317956368472],["▁notificacion",-11.337023506172361],["▁REACH",-11.337300729563298],["▁fabrica",-11.337459883092556],["bar",-11.337704576973985],["▁demasiados",-11.33783719134287],["▁Vecindad",-11.337959081775695],["▁Palacio",-11.337959179024695],["▁Car",-11.33801679033],["▁incidente",-11.338108292039895],["▁complejos",-11.338279451928598],["▁alarmante",-11.338427646273711],["ct",-11.338962950617589],["▁asegurado",-11.339001158174492],["▁libro",-11.339581156016841],["▁correr",-11.339936923503807],["▁estabamos",-11.339980325798054],["Nuestra",-11.340426341902218],[".\n(S",-11.340606336535805],["▁Poettering",-11.340793952088802],["▁kilometros",-11.340793952956325],["▁(A",-11.341001620820052],["▁miembros.\nPor",-11.341049330136034],["▁incluirse",-11.341376165326764],["▁buscando",-11.341702534031954],["▁etc",-11.342048992224345],["▁posturas",-11.342181025856085],["▁costeras",-11.342213015973252],["semos",-11.342421371733971],["▁biologica",-11.34301589105668],["▁sentimientos",-11.343025518339854],["▁pregunta:",-11.343077635101974],[".\n¿Se",-11.343405924940432],["▁nacionales.\n",-11.343543510615408],["▁traslado",-11.34407842085724],["▁carcel",-11.344192794250747],["▁entidad",-11.344308448508741],["▁adoptan",-11.344329720401605],["fijacion",-11.344950884507313],["▁sumas",-11.3455869415446],["▁diplomatica",-11.346039505822896],["▁sucedio",-11.346488106801388],["▁restantes",-11.34653593844185],["▁Todo",-11.34660707365181],["hu",-11.34681644423169],["▁discutido",-11.347476751493883],["▁quedarse",-11.347911475095717],["▁oficialmente",-11.347974929581898],["▁prima",-11.348230412404067],["▁urbanas",-11.348314686559378],["▁malos",-11.349116929289572],["▁\"la",-11.349196544787972],["▁valentia",-11.349347367498366],["▁cielo",-11.349425763548595],["▁designacion",-11.349448566895603],["▁competitivas",-11.349503353387263],["▁titulares",-11.349771357804379],["▁extremo",-11.350004741459848],["▁superado",-11.350196820255256],["▁criminal",-11.350470742961875],["▁Verts/ALE.",-11.350528768121007],["▁unicos",-11.350760120826365],["▁significaria",-11.351158289400823],["▁Europa.\nLa",-11.351358574735748],["briamos",-11.351483018886995],["▁antiguas",-11.351772000677439],["proporcionalidad",-11.352027320258657],["▁acero",-11.352246690426412],["ante",-11.352943303828823],["▁libros",-11.353442716636067],["▁comprometida",-11.353454136453895],["▁provecho",-11.35347204758065],["▁the",-11.353542788378231],["▁tono",-11.35363136498945],["▁Juegos",-11.353651304175948],["▁entredicho",-11.353879074853644],["▁canales",-11.35416059010686],[".\nDebido",-11.354639658346148],["▁diversificacion",-11.35509011899506],["▁aftosa",-11.355090123730982],["▁sensibilizacion",-11.355111219896397],["▁inspectores",-11.355157735236162],["s.\nNo",-11.355295471047551],["▁funcionando",-11.355719156810796],["▁sorpresa",-11.356531041416883],["▁suscita",-11.356872930227532],["▁decididamente",-11.357162601277405],["▁notablemente",-11.35736770732446],["dio",-11.357666904265383],["▁emergentes",-11.357705567685532],["▁verdaderas",-11.357870123144453],["▁recibio",-11.358167167785314],["▁remuneracion",-11.358467980863182],["▁promueve",-11.358555949033214],["▁plantee",-11.358593554725752],["▁buscan",-11.35882419488899],["▁siglos",-11.358924130056797],["▁conozco",-11.359423161122816],["▁constar",-11.359610530448071],["dieron",-11.359693446023208],["▁fechas",-11.360124133997388],["▁III",-11.360309198440842],["▁observancia",-11.360313350532554],["▁Ko",-11.360452621571199],["▁Mugabe",-11.360866308072405],["▁regreso",-11.360866319856619],["▁brecha",-11.360870373668998],["▁afirmaciones",-11.361086846650867],["▁retomar",-11.361296512212828],["▁rechazada",-11.361489332540536],["▁atentado",-11.361721523914436],["▁Europa.\nPor",-11.361931908487579],["▁marcar",-11.362145043487654],["ner",-11.362421354465733],["nder",-11.363323828112975],["Sobre",-11.363658762484992],["▁duras",-11.364112304916326],["▁acercamiento",-11.364442189907436],["▁preven",-11.364472242764144],["▁prudencia",-11.365464203369294],["▁pedia",-11.36594189145439],["▁recorrer",-11.365999201849556],["idos",-11.366271483964677],["▁rentabilidad",-11.366704348334164],["▁generalizada",-11.366795969437952],["▁asignados",-11.366858502970713],["▁hare",-11.366883808117983],["▁ocuparnos",-11.367232312976892],["▁equitativa",-11.367692967660092],["▁compartido",-11.368108427916498],["▁atmosfera",-11.368133779710906],["▁acierto",-11.368134012416133],["▁potenciar",-11.36902734998488],["▁irresponsable",-11.369098874838185],["▁43",-11.369370936763325],["▁descubierto",-11.369593633719631],["▁miseria",-11.36974556304101],["▁observa",-11.36999016831298],["▁hallar",-11.370240375243686],["▁surgen",-11.370373421398371],["▁circulo",-11.370413764400746],["▁calle",-11.370498429201946],["▁95",-11.370795675570044],["▁rechazamos",-11.371085107221896],["vin",-11.371733685307525],["▁invita",-11.372079861377022],["▁Mo",-11.372156087964193],["▁disculpas",-11.37256185657242],["Finalmente",-11.37258439526146],["▁territoriales",-11.372675765776313],["▁americanos",-11.37281063258396],["▁valiente",-11.373462938965474],["zar",-11.373631001839474],["▁paginas",-11.37363485128498],["ent",-11.374411577140332],["▁intenso",-11.374616128579136],["▁trabaje",-11.374621327022153],["cor",-11.374831858473229],["▁calcula",-11.374967109058542],["▁permit",-11.375039260687055],["02",-11.375360361060615],["▁(C",-11.3754975949292],["▁servido",-11.375512089748156],[".\n¿Cual",-11.37665274529535],["▁mares",-11.376793008327692],["▁eludir",-11.377502846345967],["▁vivo",-11.377604767265092],["▁and",-11.377830873267099],["▁diplomaticos",-11.378000400505682],["▁etnica",-11.37820314330071],["▁sabia",-11.378232175911405],["▁reconocen",-11.378289815221514],["▁quisieramos",-11.37837785775055],["▁imponen",-11.378478923714962],["▁competidores",-11.37859454977329],["▁banda",-11.378750586587376],["▁concentrar",-11.379096844865652],["▁mencionadas",-11.379433206444633],[".\nEfectivamente",-11.379672985703067],["▁Na",-11.379850300723774],["▁orientado",-11.379908185768315],["▁mediacion",-11.38004755535036],["▁proporcionan",-11.380097924361461],["▁esperado",-11.380235711107709],["▁someterse",-11.380270993496556],["▁mueren",-11.380509258959044],["▁consideren",-11.381180714520102],["▁Bolkestein",-11.381349828726021],["▁obtenidos",-11.381524354362995],["▁empleo.\n",-11.381629332476919],[".\nAparte",-11.381819586755132],["▁Tercer",-11.381876216765207],["▁dirige",-11.38197153095066],["▁atenta",-11.382424410105399],["ig",-11.38254863053658],["Considero",-11.382553725149766],["▁reanudar",-11.382797090769893],[".\nMu",-11.382943572879949],["eros",-11.383318492796372],["▁recogido",-11.383648267012962],["▁contribuyente",-11.384168469141766],["▁distinguir",-11.384293061424358],["▁Ecofin",-11.384310612631435],["▁preventivas",-11.384830170144516],["Constitucionales",-11.38487882117285],["▁apreciar",-11.384999174552622],["▁sustanciales",-11.38508181135353],["▁preferible",-11.385334066716105],["▁super",-11.38552401761902],["▁represento",-11.385794279680955],["▁alternativo",-11.385794983548708],["ang",-11.386584991631658],["nar",-11.386972729947793],["▁importar",-11.387462314813224],[".\nPermitame",-11.387751075516272],["▁sanitarias",-11.387906334505788],["▁abarcar",-11.38873859742117],["▁incapaces",-11.388768259013347],["▁Unitaria",-11.388769532255616],["▁OCM",-11.388777306177943],["Habid",-11.388865079235257],["▁permitirnos",-11.388971156590816],["▁altas",-11.389578666402754],["▁garantizan",-11.389832022842155],["▁Jo",-11.390053488379014],["▁malas",-11.390091430231069],["▁reciba",-11.390128765994952],["▁Delegacion",-11.390258587915055],["▁Nordica",-11.390266440266842],["Les",-11.390482495733384],["▁supuestamente",-11.390536120260569],["ias",-11.390543682168826],["▁Mas",-11.391032280406733],["▁regresar",-11.39155600013407],["▁asciende",-11.392034265784634],["▁sugerido",-11.392206001410653],["▁pos",-11.39240601358609],["▁indirectamente",-11.392432990667547],["▁suecos",-11.392582114212749],["▁definiciones",-11.393259537132744],["▁drama",-11.39329510853598],["▁penas",-11.393402241767731],["▁respectivas",-11.39376370422271],["▁costumbre",-11.393929406788024],["cul",-11.394081331285456],[".\nDesearia",-11.394506348797858],["Lucha",-11.395187690428607],["▁proponga",-11.395447714179031],["▁38",-11.395456211023653],["▁logramos",-11.395538525203627],["▁muestre",-11.395620334946743],["▁mediterraneos",-11.395664017224988],["▁amplios",-11.395664485855269],["▁agradecerle",-11.39584441103259],["▁Intergubernamen",-11.396515793468124],["▁aceptadas",-11.396530997332217],["▁emp",-11.396809804042444],["▁voces",-11.397745406430833],["▁estableciendo",-11.39775544141114],["▁Noruega",-11.397773546525114],[".\nApoyamos",-11.397904221361983],["▁parecia",-11.397927808960858],["▁aparentemente",-11.397990147726475],["▁actualizar",-11.398545330113823],["▁reducidos",-11.398931293979704],["▁tratamos",-11.399172261054481],["▁reciclado",-11.39924744832349],["▁extradicion",-11.399341842331141],["ert",-11.400141241466804],["▁dinamico",-11.400753423989386],["▁optar",-11.400808755446132],["▁presentarse",-11.40086585266944],["▁correo",-11.40109590450757],["▁formado",-11.40110820920058],["▁reflexiones",-11.401262604360824],["▁entregar",-11.4017037182395],["▁muchisimo",-11.401885592512738],["▁prioritaria",-11.402010348630233],["▁contribuyendo",-11.402109862759207],["▁Inglaterra",-11.402261714583487],["▁crecer",-11.402265294504115],["▁interrumpido",-11.40251821076853],["▁conducido",-11.402537423720158],["▁ano.\n",-11.402545770301943],["▁naval",-11.40281756266948],["▁viviendas",-11.403363445851774],["▁cuestionar",-11.403638013938831],["▁romper",-11.403708192542858],["▁Canciller",-11.403772288647126],["▁madres",-11.403807912031692],["▁cualificados",-11.403879392452449],["▁seremos",-11.404238676181311],["▁precaucion",-11.404273771818286],["▁coincide",-11.404465608319981],["▁gastado",-11.40489785660499],["Antigua",-11.40528514925845],["▁saludable",-11.405290646811537],["▁ideologia",-11.405482742608676],["▁compatibles",-11.406080563109345],["▁UE.\nEl",-11.406526813208652],["▁logra",-11.406845575130498],["▁actuan",-11.406848367230037],["▁tercio",-11.407362369197685],["▁8,",-11.40746727891332],["▁planta",-11.407644376559649],["▁marino",-11.407717421826938],["▁limitados",-11.408054575064089],["pri",-11.408223887432854],["▁1991",-11.408352167658062],["▁ellos.\n",-11.408646161406558],["▁geograficas",-11.408943532303578],["▁pesados",-11.409289500799382],["▁of",-11.410480276130727],["▁gradualmente",-11.410687742321093],["▁revisado",-11.41114857589508],["▁brutal",-11.411210086039114],["ion",-11.41131611412219],["▁rigen",-11.411351940842705],["▁limpieza",-11.411359576989698],["▁facilitado",-11.411372183504515],["▁55",-11.411422726613237],["▁vincular",-11.411751635018113],["▁innovaciones",-11.412003498448826],["▁Co",-11.412652280150558],["▁contenidas",-11.412701205072828],["excepto",
[...]
