{"version":"1.0","truncation":null,"padding":null,"added_tokens":[{"id":0,"special":true,"content":"<cls>","single_word":false,"lstrip":false,"rstrip":false,"normalized":false},{"id":1,"special":true,"content":"<sep>","single_word":false,"lstrip":false,"rstrip":false,"normalized":false},{"id":2,"special":true,"content":"<unk>","single_word":false,"lstrip":false,"rstrip":false,"normalized":false},{"id":3,"special":true,"content":"<pad>","single_word":false,"lstrip":false,"rstrip":false,"normalized":false},{"id":4,"special":true,"content":"<mask>","single_word":false,"lstrip":false,"rstrip":false,"normalized":false},{"id":5,"special":true,"content":"<s>","single_word":false,"lstrip":false,"rstrip":false,"normalized":false},{"id":6,"special":true,"content":"</s>","single_word":false,"lstrip":false,"rstrip":false,"normalized":false}],"normalizer":{"type":"Sequence","normalizers":[{"type":"Replace","pattern":{"String":"``"},"content":"\""},{"type":"Replace","pattern":{"String":"''"},"content":"\""},{"type":"NFKD"},{"type":"StripAccents"},{"type":"Replace","pattern":{"Regex":" {2,}"},"content":" "}]},"pre_tokenizer":{"type":"Metaspace","replacement":"▁","add_prefix_space":true},"post_processor":null,"decoder":null,"model":{"type":"Unigram","unk_id":2,"vocab":[["<cls>",0.0],["<sep>",0.0],["<unk>",0.0],["<pad>",0.0],["<mask>",0.0],["<s>",0.0],["</s>",0.0],["▁the",-2.724687280122879],[",",-3.1594146711580553],["▁of",-3.4055061437887133],["▁to",-3.486554279691605],["▁and",-3.646736951701536],["▁in",-3.9056756732509488],["▁that",-4.137145865349632],["▁a",-4.164965023090174],["▁is",-4.174879450184783],["▁for",-4.568997364953354],["▁",-4.593933396277844],["▁on",-4.70584886604294],["▁be",-4.795869198956055],["▁this",-4.809322009306721],["▁we",-4.8454968737480755],["▁I",-4.984444378190149],["▁are",-4.990179692599323],["▁have",-5.0372519053023765],["▁it",-5.055530098544931],["▁not",-5.085048958361991],["▁as",-5.1504722884097855],["▁with",-5.153080469640077],["▁which",-5.187291820210385],["▁European",-5.219529290626067],["s",-5.309496804858453],["▁will",-5.340109652010323],["▁by",-5.3549371084290325],["▁has",-5.468892263818308],[".\n",-5.604354588047887],["▁Mr",-5.750649988404424],["▁an",-5.7808444075129035],["▁at",-5.78412910214638],["▁would",-5.790112143948743],["▁also",-5.805067153718822],["▁all",-5.847903052280204],["▁should",-5.84831811742424],["▁from",-5.894252533071983],["▁-",-5.909172535922048],[".\nThe",-5.925116808425331],["▁our",-5.925602072884891],["▁must",-5.931246081249226],["▁Commission",-5.964306260657164],["▁but",-5.983690182062471],["▁been",-6.013828411490163],[".\nI",-6.046545672065628],["▁you",-6.134521429908023],["▁can",-6.1429632387317294],["▁President,",-6.155191483968451],["▁was",-6.184357405036744],["▁more",-6.199168476510673],["▁Member",-6.21300654588409],["▁or",-6.225625382272021],["▁its",-6.245166397609594],["▁their",-6.269223145512637],["▁do",-6.280250713721205],["▁like",-6.284317882998614],["▁there",-6.2853662839471],["very",-6.317724493015026],[".\nWe",-6.328970262094922],["▁Union",-6.365749320360342],["▁these",-6.386673456863294],["ing",-6.400158638526518],["▁they",-6.411921468356239],["▁report",-6.4190010035892],["▁Parliament",-6.44443768881268],["▁one",-6.447867748483354],["▁EU",-6.45268493404782],[".\nIt",-6.456402025339738],["▁Council",-6.468999684291589],["▁who",-6.4884856902764625],["▁States",-6.50656163576541],["▁about",-6.519450383214846],["▁other",-6.523706435331267],["▁what",-6.528978207407002],["▁need",-6.540476839521034],["▁so",-6.548375436957608],["▁us",-6.570766328495692],["▁important",-6.595938158220701],["▁my",-6.601940608767148],["▁only",-6.619488555947454],["▁new",-6.626159032921018],[".\nThis",-6.628853329483377],["▁people",-6.636527837492743],["▁because",-6.6635614442887405],["▁if",-6.670813443951804],["▁no",-6.679275675616035],["▁time",-6.680427831439271],["▁countries",-6.70842761629217],["'s",-6.729409258297844],[".\nIn",-6.732847487989657],["▁Europe",-6.758143377658616],["▁am",-6.760391359657271],["▁up",-6.76195635024507],["▁out",-6.783325090574083],["▁such",-6.784335418086625],["▁support",-6.787725704915083],["▁now",-6.787937144341953],["▁take",-6.8157255317102035],["▁make",-6.819119080273921],["▁into",-6.834399841009178],[":",-6.835306262229819],["▁between",-6.839784090030971],[".",-6.841689977821851],["▁those",-6.847238801032516],["▁policy",-6.883144875777516],["▁work",-6.893900701350709],["▁when",-6.919600089007874],["▁therefore",-6.921549141045201],["▁some",-6.927563985024284],["▁The",-6.939459719216456],["▁any",-6.942138371687115],["▁being",-6.946212095469063],["▁political",-6.965013362033453],["n",-6.968112856623593],["▁rights",-6.976959875560285],["▁made",-6.979518251909321],["▁were",-6.984329804829203],["▁than",-7.002218507152685],["▁economic",-7.007918391966717],["▁believe",-7.016205376827953],["▁way",-7.029234225186061],["'",-7.035875811348703],["▁say",-7.06643955238957],["▁them",-7.067320413282678],["▁many",-7.074325478108239],["▁fact",-7.075068877658705],[".\nMr",-7.0812609928080565],["▁against",-7.0815475798765295],[";",-7.101500773528214],["▁Commissioner",-7.106538479187165],["▁first",-7.111023445377157],["▁proposal",-7.115477209098165],["▁social",-7.135008576658883],["▁think",-7.152475819563998],["▁just",-7.176660812763348],["▁Committee",-7.178532753100058],["▁debate",-7.179961606139715],["ly",-7.189429662556677],["▁point",-7.194102530550985],["▁order",-7.216112534124406],["▁development",-7.217539130205957],["▁human",-7.2185347746013075],["▁market",-7.222963476727129],["▁cannot",-7.246423502781335],["▁issue",-7.248446135547249],["▁right",-7.25235233572692],["▁does",-7.25773437060662],["▁want",-7.258184512405196],["▁same",-7.26443701078459],["▁had",-7.266900856293995],["▁two",-7.267815212223416],["▁even",-7.268368240476821],["▁where",-7.2749182914323285],["▁situation",-7.278626411589746],["▁could",-7.292202138924193],["▁most",-7.292577960732066],["▁measures",-7.293462543325953],["▁question",-7.293820685766152],["▁public",-7.314777005887715],["▁country",-7.315066547597777],["▁here",-7.321196704940675],["▁years",-7.3233476991606565],["▁well",-7.327783718330325],["▁me",-7.331897849080265],["▁said",-7.336768981235867],["▁already",-7.3394081228413075],["▁possible",-7.3424233523448255],["▁good",-7.343048927602744],["▁much",-7.344773237693159],["▁national",-7.3462653234737925],["▁future",-7.348918772529332],["▁clear",-7.351039087868315],["▁financial",-7.357639767597449],["▁part",-7.363677428681841],["▁agreement",-7.368238631835066],["▁–",-7.368505674430402],["▁within",-7.369267539365813],["▁under",-7.372809343438414],["ed",-7.376929576942802],["▁see",-7.379874233389852],["▁still",-7.383938786879369],["▁how",-7.388667866753243],["▁know",-7.392911753518613],["▁particular",-7.399121819521518],["▁common",-7.40087128671791],["▁use",-7.403948568086287],["▁both",-7.40998951257194],[".\nThat",-7.411102396514787],["▁too",-7.412490709159098],["▁citizens",-7.415680861758158],["▁over",-7.425033327393688],["▁President",-7.433782245801638],["▁vote",-7.433984902577828],["▁view",-7.437624779588177],["▁course",-7.440097646516815],["▁ensure",-7.440913794266699],["▁your",-7.446280382439303],["▁cooperation",-7.4487444257048985],["▁hope",-7.4530133255529485],["▁taken",-7.4588885278451045],["▁Community",-7.460648634822668],["▁international",-7.463423107268815],["▁able",-7.488573682224482],["▁his",-7.494264826342556],["▁today",-7.504241674627242],["▁own",-7.51057895408592],["▁why",-7.518540442211144],["▁case",-7.5209859526058604],["▁year",-7.525761775662334],["▁last",-7.529250882460747],["▁put",-7.530427512250789],[".\nAs",-7.538660549204257],["▁place",-7.540660614774653],["▁number",-7.544685200139064],["▁energy",-7.545022755085876],["▁means",-7.555131440415339],["t",-7.556660618419391],["▁world",-7.558366428774528],["▁may",-7.561964527628209],["e",-7.568102894002108],["▁without",-7.579142194338253],["▁through",-7.580272566445576],["▁example",-7.580922503177039],["▁level",-7.581486652002642],["▁area",-7.584125013671031],["▁however",-7.601912738344028],["▁action",-7.605390714470566],["▁gentlemen,",-7.6068980020684],["▁process",-7.607684291549347],[".\nHowever,",-7.6146409510591315],["▁information",-7.619307463891948],["▁he",-7.619614801123491],["▁particularly",-7.629741994592747],["-",-7.638996350828032],["▁system",-7.639711970434506],["▁give",-7.641590305444851],["▁great",-7.646792883681863],["▁We",-7.647399815190713],[".\nThere",-7.650643358407596],["▁directive",-7.651547827341442],["▁necessary",-7.651631866108692],["▁end",-7.652767788903585],["▁before",-7.6537502562372275],["▁House",-7.654360768859513],["▁problems",-7.655676102296484],["▁thank",-7.65995053951457],["▁given",-7.67256654295981],["▁rapporteur",-7.6767196682897705],["▁protection",-7.677073912480079],["▁respect",-7.682547420514501],["▁regard",-7.6826011673896755],["▁problem",-7.6870585586445195],["▁legal",-7.69176279973035],["▁budget",-7.691777735109014],["▁security",-7.699542378254566],["▁position",-7.7102282651323755],["whether",-7.722523877537645],["▁far",-7.728702361926178],["▁Treaty",-7.73573996783815],["▁issues",-7.7387932966613135],["▁ladies",-7.739440156562644],["▁women",-7.746432185664407],["▁role",-7.750223361199815],["▁further",-7.7580338021089705],["d",-7.758149504036558],["▁since",-7.758744903943919],["▁United",-7.7598148016958834],["▁behalf",-7.761841302518576],["▁areas",-7.763814187975836],["▁matter",-7.766765179758071],["▁set",-7.770410062049708],["▁amendments",-7.7748808984840565],["▁again",-7.776359681467815],["▁favour",-7.779053895571895],["▁terms",-7.781446476062115],["▁next",-7.790326955532802],["▁certain",-7.7932371752475955],["▁law",-7.795348782460433],["▁It",-7.802538771146356],["▁trade",-7.8071260211440165],["▁basis",-7.809561105919048],["▁proposals",-7.813345110166447],["▁come",-7.814041581980607],["▁sector",-7.818390414007359],["▁Members",-7.8198105803134705],["▁programme",-7.82101477917359],["▁resolution",-7.827359020921822],["▁agree",-7.832266886509906],["▁better",-7.833915804078005],["▁different",-7.835773287917224],["▁adopted",-7.836759488338366],["▁help",-7.837395662847859],["▁aid",-7.843096785549106],["▁health",-7.8440948933795465],["▁present",-7.845533527041274],[".\nIf",-7.850971879013855],["▁rules",-7.85245742204269],["▁framework",-7.85660978384046],["▁services",-7.857204610318181],["▁done",-7.857393507133702],["f",-7.868178701141456],["a",-7.868645678328889],["▁needs",-7.869888751216983],["▁wish",-7.873862837240793],["▁continue",-7.875593101674417],["▁opinion",-7.8910516687040815],["▁ask",-7.896135400598565],["▁crisis",-7.897837483829839],["▁after",-7.910933645568434],["▁result",-7.925733109113281],["▁group",-7.925963566583967],["▁decision",-7.9292920877866475],["▁progress",-7.930748300956914],["▁going",-7.931334271312414],["▁change",-7.93543916573368],["▁working",-7.940805944995871],["▁welcome",-7.94231820843177],["▁institutions",-7.9452167017892386],["▁towards",-7.948749502380817],["▁long",-7.94888178220269],["▁few",-7.952976615856457],["▁'",-7.95360324310821],["▁voted",-7.958447614098631],["’s",-7.960036721257431],["▁something",-7.964044944622589],["This",-7.964351363864495],["▁three",-7.969630740053418],["▁State",-7.973641844702808],["▁whole",-7.985782549113026],["▁current",-7.98700731761549],["▁forward",-7.98954882329244],["in",-7.990330496246395],["▁principle",-7.992973973653063],["▁go",-7.998346942492205],["y",-8.001602112166506],["▁including",-8.001816515996564],["▁approach",-8.003990541065544],["▁concerned",-8.004950872852227],["▁legislation",-8.00726454489247],["▁opportunity",-8.017571634982389],["▁really",-8.022286031682974],["▁subject",-8.022334126663342],["?\n",-8.022869342669],["▁conditions",-8.023965935726597],["▁find",-8.024339874157569],["▁proposed",-8.024398317007359],["▁did",-8.026127367977091],["▁importance",-8.026923150299808],["▁shall",-8.027279443385757],["▁provide",-8.030998893530056],["▁specific",-8.035211656634422],["▁increase",-8.041108629492896],["▁used",-8.041856832851213],["▁million",-8.046896862743303],["▁especially",-8.04948873871622],["▁every",-8.053208662682605],["▁resources",-8.055214000985133],["during",-8.0557450463078],["▁transport",-8.058295545435966],["▁second",-8.063998393306456],["▁Presidency",-8.065282537583284],["▁Group",-8.06573070833696],["▁authorities",-8.070147713443586],["▁state",-8.070270663224122],["▁general",-8.071173529354121],["▁allow",-8.072216168434707],["▁environmental",-8.072780048137536],["▁clearly",-8.074328130636182],["▁together",-8.075557591982697],["▁account",-8.078909464169902],["▁employment",-8.07974317958026],["▁become",-8.080057229300849],["▁down",-8.082296916590352],["▁responsibility",-8.084961191809523],["▁greater",-8.085747178981931],["▁In",-8.085876789703791],["▁(",-8.088205555050841],["▁quite",-8.095850899649188],[".\nA",-8.096401963362345],["▁serious",-8.096793008103154],["▁another",-8.097910963229541],["▁regulation",-8.104168123941824],["▁research",-8.106113644501482],["▁least",-8.10647149447616],["▁rather",-8.107542205952388],["i",-8.110910690912796],["▁policies",-8.11179750852476],["▁strategy",-8.111949251978482],["▁large",-8.113344584495547],["▁negotiations",-8.115375543274666],["▁third",-8.115434355088532],["▁reason",-8.120744169817863],[".\nBut",-8.12354750133223],["▁safety",-8.124195231875278],["▁industry",-8.126206024329715],["o",-8.13245018171564],["▁call",-8.138204343998568],["▁always",-8.138841714511278],["▁fundamental",-8.14172470982918],[".\nFor",-8.142550377948023],["▁products",-8.143147872552202],["▁real",-8.144455031505844],["▁effective",-8.145942969799748],["▁essential",-8.145989798832872],["▁difficult",-8.147208651433894],["▁once",-8.151973416522234],["▁making",-8.152505770055848],["▁access",-8.153587508689842],["▁achieve",-8.15533148560727],["▁Commission's",-8.158519528803227],["▁deal",-8.159441682356906],["▁itself",-8.15955139603558],["▁freedom",-8.16500173045088],["▁attention",-8.165287483767422],["▁hand",-8.165784123493696],["▁implementation",-8.170858566764137],["▁small",-8.171072612148258],["▁major",-8.17321919784992],["▁taking",-8.175821100173094],["▁democratic",-8.178238368202756],["▁based",-8.180128398008799],[")",-8.182742983402045],["▁things",-8.185726471720875],["▁get",-8.18915574267806],["▁internal",-8.189953513275015],["▁efforts",-8.193559461432251],["▁Madam",-8.19432251381917],["▁interests",-8.200471745036285],["▁various",-8.20322682550373],["▁government",-8.203999726900092],["▁positive",-8.205427868194207],["▁democracy",-8.208958027343387],[".\nWhat",-8.218825049960959],["▁each",-8.220853164002053],["▁money",-8.224255046093022],["▁yet",-8.23065731005985],["▁regions",-8.232528896675243],["▁while",-8.235679998413708],["▁back",-8.236789906964692],["▁words",-8.237187984088468],["▁free",-8.2401753653917],["▁consider",-8.255970468654025],["▁look",-8.257259051122938],[".\nOn",-8.261835296930325],["▁high",-8.267989457429692],["▁single",-8.268054157245786],["▁concerns",-8.278471483588433],["▁having",-8.279410338433703],["▁full",-8.279690006631546],["▁environment",-8.281766905654258],["▁competition",-8.284111076432392],["▁less",-8.28463794488354],["▁society",-8.286360179346937],["▁main",-8.286728613147849],["▁economy",-8.290198881240965],["▁Government",-8.293259557197157],["▁Affairs",-8.294994680536858],["▁funds",-8.296991748521746],["▁committee",-8.299024397132683],["▁No",-8.30222332250399],["▁growth",-8.30287116952134],["▁control",-8.303747500433243],["▁involved",-8.306453799517522],["▁reform",-8.306694985094225],["▁food",-8.306757574265648],["▁step",-8.307454859799709],["▁global",-8.311949663126722],["▁Lisbon",-8.312147800601231],["▁quality",-8.313494941881766],["▁power",-8.313818570936307],["▁fully",-8.315545593565554],["r",-8.3187136309475],["▁majority",-8.319744330098851],["▁best",-8.320540978473197],["▁procedure",-8.331630088672085],["▁EUR",-8.333748199208522],["▁recent",-8.334509060689385],["▁often",-8.335209426511637],["▁interest",-8.33555293219465],["▁peace",-8.33785195172355],["▁certainly",-8.33886636703954],["▁her",-8.340176185442584],["▁points",-8.340853594171696],["▁simply",-8.343159847543316],["▁companies",-8.345286354177746],["▁bring",-8.34845767295488],["▁agricultural",-8.352939939276133],["▁amendment",-8.354175584553728],["▁decisions",-8.362037943397715],["▁aware",-8.362079737967404],["▁production",-8.363455604299544],["▁dialogue",-8.364304388290495],["▁solution",-8.364817581389199],["▁objectives",-8.368888311813178],["▁standards",-8.368891106163103],["se",-8.371069595573744],["extremely",-8.372936400911907],["▁programmes",-8.373707815478692],["▁following",-8.374165000803043],["▁context",-8.3742876187521],["▁accept",-8.375083277422181],["▁region",-8.376826719910705],["▁relations",-8.378032154251231],["▁children",-8.379162882030293],["on",-8.381104255605152],["▁create",-8.383339534449968],["▁concern",-8.385250119930776],["▁workers",-8.38775251957791],["▁force",-8.39491840277868],["▁actually",-8.40029949627595],["▁form",-8.400565712867966],["▁risk",-8.400751950243206],["▁might",-8.401249404616818],["▁fight",-8.402566396119191],["▁States,",-8.409004147824692],["▁initiative",-8.410520222723841],[".\nThey",-8.4115336178357],["▁text",-8.414400679292891],["▁improve",-8.416503719295076],["▁developing",-8.417168375553493],[".\nAt",-8.41814545520615],[".\nThese",-8.424284516191703],["▁groups",-8.426257406081852],["▁objective",-8.42765942466268],["▁regional",-8.431456423592328],["▁indeed",-8.431827702262666],["▁mentioned",-8.432302694879327],["▁period",-8.433031760582718],["▁Court",-8.433828451932076],["▁available",-8.434301214436694],["▁impact",-8.435601300614664],["▁states",-8.435716189091053],["▁concerning",-8.442229247112964],["▁meeting",-8.443745076861882],["▁currently",-8.444230002081696],["▁appropriate",-8.446622436420306],["▁start",-8.448966486052699],["▁climate",-8.450748543677717],["▁understand",-8.455701039043186],["▁Parliament,",-8.456600592792057],["▁agreements",-8.467344509159394],["▁open",-8.467786207213937],["▁enlargement",-8.469222784992448],["▁ago",-8.4704702722418],["▁responsible",-8.4707983384827],["▁results",-8.47472148754357],["▁education",-8.47840939741487],["▁data",-8.481756632029382],["▁let",-8.485412629392803],["▁life",-8.48852020393447],["▁jobs",-8.493500722561283],["▁Union,",-8.494734392034488],["▁cases",-8.495647815136408],["▁key",-8.496304473981738],["▁doing",-8.500235621627764],["▁report,",-8.500443982626415],["▁Article",-8.500794161108436],[".\nSo",-8.501650692838378],["▁members",-8.502086355564911],["▁thing",-8.50434705607672],["▁field",-8.507120830797755],["▁management",-8.507724311957379],["▁others",-8.514527150068625],["▁1",-8.51928138393385],["▁questions",-8.51929897220464],["▁individual",-8.52040167716096],["▁kind",-8.52311569932279],["▁principles",-8.523604853541126],["▁euro",-8.534019205941068],["▁Europe,",-8.537066160479904],["▁themselves",-8.537711491780733],["▁Turkey",-8.547316068198281],["▁regards",-8.547919491137089],["▁needed",-8.547969995161026],["▁prevent",-8.55194887829257],["▁though",-8.552664294020477],["▁tax",-8.553282561214216],["▁systems",-8.555525069105101],["▁lack",-8.556303475609866],["▁feel",-8.561100104002879],["▁costs",-8.562937958104433],["▁among",-8.565067339913771],["▁plan",-8.566605717188128],["▁joint",-8.566695006432871],["▁compromise",-8.570000259079418],["▁idea",-8.57095457697451],["▁commitment",-8.571190749037225],["▁longer",-8.571618714884123],["▁promote",-8.573003832225842],["▁local",-8.57323277290524],["▁projects",-8.573888423670018],["▁months",-8.574112631023699],["▁matters",-8.574114623167224],["▁aim",-8.576735631423729],["▁significant",-8.57807422049763],["▁consumers",-8.579075265699894],["▁Parliament's",-8.57941993015122],["▁draft",-8.581003596294366],["▁funding",-8.581330604564215],["▁reasons",-8.582890170725312],["▁although",-8.584340585031867],["▁achieved",-8.586548330524588],["▁congratulate",-8.586716763216394],["▁parties",-8.587625166737594],["▁final",-8.589448708892586],["▁true",-8.590552086855281],["▁due",-8.592166645647806],["▁enough",-8.595451914708214],["▁little",-8.596021908474857],["▁legislative",-8.599380126934978],["▁line",-8.599969307553016],["▁activities",-8.600259754753335],["▁countries,",-8.600465890904033],["▁sure",-8.600723102243633],["▁day",-8.60104610684626],["▁basic",-8.602531512097523],["▁excellent",-8.602809606140378],["▁priority",-8.602830354041755],["▁act",-8.603173638612427],["▁nothing",-8.603377113418498],["▁mean",-8.603624422183115],["▁governments",-8.603640747854628],["▁provided",-8.605633870077389],["▁strong",-8.608848264480926],["al",-8.609099677390441],["▁Russia",-8.609344153272996],["▁special",-8.610199044750898],[".\nMadam",-8.61062707900527],["▁Convention",-8.612240769187945],["▁sustainable",-8.612774797375636],["▁young",-8.617696339868154],["▁perhaps",-8.61830493272872],["▁writing.",-8.618782678026086],["▁Council,",-8.619595014299884],["▁labour",-8.620836429690927],["▁lead",-8.622051767915474],["▁include",-8.623660885613564],["▁nuclear",-8.624085995866025],["▁past",-8.624808580219641],["▁guarantee",-8.628857883301764],["▁effect",-8.62948917185748],["▁Commission,",-8.632360372990249],["▁play",-8.642616366601237],["▁aspects",-8.643215038018921],["▁agreed",-8.64377366244243],["▁regarding",-8.644893776904263],["▁foreign",-8.653039820890227],[".\nLet",-8.654508776098947],["▁remain",-8.654517765611086],["▁reports",-8.655752793493344],["-in-Office",-8.659847514859122],[".\nFinally",-8.662696772628387],["▁consumer",-8.663343487878517],["▁seen",-8.664643651892495],["▁solidarity",-8.665778909308465],["▁above",-8.666172523167106],["▁Directive",-8.667212071897517],["▁several",-8.668488352049572],["m",-8.66882337192937],["▁relation",-8.671787459941791],["▁integration",-8.673234259628208],["▁pay",-8.675474598419902],["▁civil",-8.676071082093276],["▁contribution",-8.677211058276258],["▁response",-8.67774545746159],["▁benefit",-8.67810974336111],["▁comes",-8.680055628610225],["▁addition",-8.68058545505446],["▁transparency",-8.681682803415436],["▁Rights",-8.682226736204615],["▁makes",-8.68416006619522],["▁apply",-8.687086204331164],["able",-8.689322610391784],["▁upon",-8.69390434027793],[".\nTo",-8.697407653192384],["▁speak",-8.69934038444865],["▁share",-8.700272354116393],["▁move",-8.700498866621293],["▁moment",-8.701396059622278],["▁discussion",-8.702211553047835],["▁markets",-8.702593656395209],["▁communication",-8.703273980002695],["▁technical",-8.704506899767198],["▁actions",-8.714587382497829],["▁seems",-8.715341494663502],["▁existing",-8.720512239646117],["▁investment",-8.721014637054251],["▁project",-8.721178664536403],["▁provisions",-8.725386121726215],["▁Minister",-8.725666390591723],["▁accession",-8.725730637446524],["▁business",-8.72656575199051],["▁000",-8.726592835375314],["▁pleased",-8.729736052180666],["▁Amendment",-8.729894507093574],[".\nWith",-8.731407180085174],["▁values",-8.732966758461314],["▁mind",-8.7339415599438],["▁voting",-8.735596806455684],["▁population",-8.735602253354058],["▁changes",-8.73895650408068],[".\nYou",-8.740983030007628],["▁criteria",-8.74126008956329],["▁stability",-8.743286423545594],["▁him",-8.747308965356883],["▁draw",-8.74806650200011],["▁Union's",-8.751267679902094],["▁reduce",-8.752045735121634],["▁ourselves",-8.756435863621153],["▁answer",-8.756936405699348],["▁soon",-8.757749712005667],["▁service",-8.757896615874122],["▁procedures",-8.760598413129012],["▁express",-8.762065326050465],["er",-8.762275164712657],["▁creation",-8.765622986720235],["▁agenda",-8.766635852518295],["▁crucial",-8.76674941774697],["until",-8.767984703167329],["▁adopt",-8.771289043843385],["▁tomorrow",-8.772359033083147],["▁elections",-8.773559411997221],["▁everyone",-8.774316117599415],["▁assistance",-8.776649461710504],["▁carried",-8.777718430451557],["▁protect",-8.779385138070818],["▁violence",-8.781005704685706],["▁war",-8.782055547411263],["▁consequences",-8.782127730503776],["▁focus",-8.787709031815112],["▁un",-8.78771756662727],["▁never",-8.788843927523436],[".\nAnd",-8.78963488827526],["▁asked",-8.790122441738186],["▁cohesion",-8.790208806380576],["▁statement",-8.790489556081116],["▁sense",-8.793744737533686],["▁cultural",-8.794728765849248],["▁military",-8.79582796018831],["▁show",-8.796090423263655],["▁application",-8.796648502504842],["▁held",-8.797673027052548],["▁regulations",-8.797782523777345],["▁develop",-8.797853378409695],["▁item",-8.799211383869016],["▁increased",-8.799999183077095],["▁relating",-8.800092117833412],["▁fishing",-8.80086818184018],["▁increasing",-8.8009950805132],["▁training",-8.803104455584126],["▁close",-8.803243167480021],["▁practice",-8.805670606668675],["▁tabled",-8.806229334787945],["▁enable",-8.808266443192215],["▁namely",-8.808692573648],["▁equal",-8.809330334060759],["▁balance",-8.809515402331542],["▁farmers",-8.810422535015995],["▁keep",-8.81162764706141],["That",-8.811887911202918],["▁saying",-8.812268806677773],["▁meet",-8.814909764550022],["▁rule",-8.81551033762221],["▁request",-8.816030951031573],["▁China",-8.81637836070852],["▁poverty",-8.817972384098853],["▁everything",-8.820038405719506],["▁presented",-8.825670809311404],["▁instruments",-8.827165487627594],["▁thus",-8.83059585833336],["▁opportunities",-8.832151056286227],["▁job",-8.833133600810903],["▁requirements",-8.834531320757197],["▁success",-8.837224776100548],["▁throughout",-8.839604630842604],["▁vital",-8.83964918859851],["’",-8.841383820702681],["▁face",-8.844868040435527],["▁UN",-8.845921473068646],["▁required",-8.846605539743768],["▁value",-8.846707367043944],["▁nature",-8.84903646871783],["▁colleagues",-8.85379353641202],["▁budgetary",-8.857990233368398],["▁mention",-8.858855941875046],[".\nMy",-8.859186144412119],["▁called",-8.860652464820655],["▁2",-8.86113559064198],["▁demand",-8.86278184376594],["▁initiatives",-8.862838265274695],["▁around",-8.866157542387246],["▁times",-8.871744243162885],["▁week",-8.872566596886848],["▁tell",-8.874130725479274],["▁A",-8.875457567716651],["▁term",-8.876566141192827],["▁movement",-8.877655122069804],["▁external",-8.880165553908117],["▁priorities",-8.880662789514963],["▁either",-8.881453516772426],["▁road",-8.881790621104196],["▁Party",-8.88301712892011],["▁policy,",-8.885438601009605],["▁address",-8.885772738398002],["▁pressure",-8.889662418026894],[".\nOur",-8.889874115582355],["▁she",-8.891823842164449],["▁potential",-8.891944338831086],["▁decided",-8.892430435215104],["▁community",-8.893286802648067],["▁previous",-8.893481488025733],["▁instrument",-8.894559507891527],["▁avoid",-8.897363588656049],["▁reached",-8.900097712875892],["▁conflict",-8.901682792796079],["▁task",-8.902397897346358],["▁monitoring",-8.904299765945128],["▁prepared",-8.904361618594523],["▁expressed",-8.905678511541725],["▁Fund",-8.906767713755404],["▁across",-8.907305828244441],["▁illegal",-8.907441355432397],["▁implement",-8.908323545105647],["▁challenges",-8.908915086079563],["▁waste",-8.909237074749136],["▁raised",-8.909845881198923],["▁stage",-8.912877919820591],["▁conclusion",-8.912887158164892],["▁powers",-8.914153483453488],["▁effort",-8.915393372459125],["▁using",-8.915862719471116],["▁establish",-8.915876042172176],["▁water",-8.917831553376974],["▁talking",-8.918334125547725],["▁fisheries",-8.918731849610824],["▁add",-8.918859711794772],["▁four",-8.919185566355624],["▁amount",-8.92203752798946],["▁try",-8.923279383614975],["▁experience",-8.927359083744067],["▁review",-8.928349259047064],["▁fair",-8.929143428517717],["▁doubt",-8.930662993708237],["▁package",-8.93415317328971],["▁billion",-8.935577715424115],["▁included",-8.936244834805768],["▁hard",-8.938919365022569],["▁cost",-8.939444826403257],["▁absolutely",-8.939705492178835],["▁established",-8.939963025518095],["▁victims",-8.945136585300439],["▁recently",-8.947900116820152],["▁implemented",-8.9482676788017],["▁coming",-8.94961015228112],["▁five",-8.949789186854913],["▁private",-8.95714783303013],["▁As",-8.958680217953544],["▁levels",-8.958699806391978],["▁presidency",-8.958753494789695],["▁short",-8.958897213306255],["▁strengthen",-8.959292630409129],["▁reduction",-8.959592397944034],["▁fellow",-8.961799512319404],["▁outside",-8.963077742462847],["▁effects",-8.964987431161818],["▁partners",-8.965746243193793],["▁talk",-8.966026503926019],["▁direct",-8.967077840590449],["▁10",-8.968098310642766],["▁quickly",-8.969111690225617],[".\nOne",-8.96918058330895],["▁supported",-8.969562843274758],["▁light",-8.97225790616722],["▁Conference",-8.973117565655217],["▁organisations",-8.973627716688569],["▁completely",-8.97627561895562],["▁justice",-8.97881696410766],["▁French",-8.979390520597514],["/",-8.980626339204669],["▁Ireland",-8.980906928589203],["▁found",-8.981205990043348],["p",-8.983295106950555],["▁live",-8.984069898032045],["▁thanks",-8.984170530177765],["is",-8.984222951864867],["▁brought",-8.985598935598404],["▁giving",-8.986587047501223],["▁agriculture",-8.987336073304093],["▁motion",-8.990009257780757],["▁reforms",-8.991168720484016],["▁price",-8.99132174305031],["▁reach",-8.991388429516203],["▁note",-8.992314511437359],["▁Development",-8.997043571495162],["l",-8.99832309615223],["▁extent",-8.998851921922213],["▁encourage",-8.999386627659327],["▁received",-8.999513539655727],["▁December",-9.000692981441714],["▁structural",-9.003264597810135],["▁reading",-9.004747360341806],["▁borders",-9.00478030257596],["▁cause",-9.006864794173122],["▁additional",-9.008412931813986],["▁Republic",-9.00933348840542],["▁coordination",-9.010295685481646],["▁took",-9.011823605939735],["▁applied",-9.012217895440015],["▁along",-9.01222724489666],["▁sectors",-9.013082822154496],["almost",-9.013222910436786],["▁stress",-9.013243624662952],["▁heard",-9.014526433342533],["▁representatives",-9.015287152421788],["▁France",-9.016085649447259],["▁crime",-9.01664516485779],["▁document",-9.018901092450728],["▁ensuring",-9.01961322792744],["▁possibility",-9.020239093440402],["▁natural",-9.020596141348836],["▁US",-9.022135338686276],["▁relevant",-9.022434656133424],["▁air",-9.022441765116701],["▁prices",-9.02246438803772],["▁treatment",-9.02443976922111],["▁businesses",-9.025150107086889],["▁discussed",-9.026181374873222],["▁emissions",-9.026942363239506],["▁away",-9.028886897162746],["▁ever",-9.029212281166739],["▁reality",-9.030063675673219],["▁‘",-9.031651128613712],["▁living",-9.032057746092217],["c",-9.033570079629275],["▁behind",-9.033962202674708],["▁creating",-9.034178724007111],["▁list",-9.03433835624124],["▁adoption",-9.035632522535405],["▁practical",-9.036688065386615],["▁5",-9.039292997757098],["▁competitiveness",-9.040059824155723],["▁approved",-9.040598761015099],["▁care",-9.041161042607753],["▁assessment",-9.041196225366203],["▁model",-9.041295242859821],["▁20",-9.041483118597464],["▁offer",-9.042309519657378],["▁terrorism",-9.043544810944635],["▁2000",-9.044663671349806],["▁confidence",-9.045374963632552],["▁events",-9.04653271693795],["▁Nations",-9.047811891122159],["▁%",-9.051740772455824],["▁lot",-9.053353785947198],[".\nSecondly",-9.053860628372727],["▁begin",-9.055610872863452],["(DE)",-9.056123721981917],["▁discussions",-9.057282957175621],["re",-9.05765980001342],["▁proper",-9.058473870072659],["▁expect",-9.059289699919658],["▁parliamentary",-9.060470351815875],["▁East",-9.061168157073272],["▁3",-9.061415697611952],["▁discuss",-9.063443603265275],["▁remains",-9.06369946678201],["▁turn",-9.064202372365196],["▁left",-9.066732610784717],["▁nor",-9.067104410065769],["▁men",-9.068841111226194],["▁Bank",-9.070730098696018],["▁British",-9.072474657054817],["▁huge",-9.073484230885612],["▁guidelines",-9.074091567988559],["▁Africa",-9.074369010453037],["▁15",-9.075939216925919],["▁capacity",-9.0779411787203],["▁summit",-9.081936601063568],["▁considered",-9.085211591140483],["▁scope",-9.085451553583383],["▁side",-9.085782247477418],["▁immigration",-9.086041146320209],[".\nAll",-9.087401951436306],["▁family",-9.087433782211638],["▁aimed",-9.087665343410377],[".\nTherefore,",-9.089323986987964],["▁rate",-9.08933352185754],["▁12",-9.089878520462781],[".\nWhen",-9.089898478259116],["▁takes",-9.091025576067683],["▁4",-9.094400532489061],["▁affected",-9.095329586545326],["▁discrimination",-9.096621567517806],["▁goods",-9.096788050237969],["despite",-9.097440682983255],["▁direction",-9.097877189885079],["▁contribute",-9.098780960067808],["b",-9.098963685040594],["h",-9.101330341306241],["▁trying",-9.102599471113363],["▁humanitarian",-9.104342790347916],["▁solutions",-9.10628211762197],["▁defence",-9.107691652316294],["▁developed",-9.107767384356993],["▁days",-9.107787201637787],["▁difficulties",-9.107855344341809],["▁June",-9.109139250271467],["▁precisely",-9.11015677687945],["▁Europe's",-9.112344769601428],["▁shown",-9.113347187304827],["▁remind",-9.114649168680083],["▁efficiency",-9.114805443830102],["▁supply",-9.115856869104666],["▁instead",-9.116887051701651],["▁carry",-9.117468894770498],["▁connection",-9.120856810848448],["▁Agreement",-9.121107048732119],["▁stop",-9.121207193635659],["▁old",-9.122609395542872],["▁effectively",-9.122918745672635],["▁honourable",-9.124036952876425],["▁unacceptable",-9.12449547483515],["▁reference",-9.125039636383537],["▁sitting",-9.125698928160219],["▁partnership",-9.128475346812014],["▁message",-9.130285700944523],["▁Justice",-9.130599480740505],["▁de",-9.130606823070481],["▁combat",-9.130925114549752],["▁beginning",-9.131372778330693],["▁culture",-9.131897782548496],["accordance",-9.133736234908646],["▁Central",-9.133815674310942],["▁administrative",-9.133982888777075],["▁active",-9.134159627623017],["▁World",-9.136894210007403],["▁challenge",-9.13960979852029],["▁conclusions",-9.141047536136758],["▁personal",-9.142719046328315],["▁improving",-9.14327488891653],["▁committed",-9.143634712736946],["▁according",-9.143685047895582],["▁providing",-9.145047217023485],["▁asylum",-9.145084423627981],["▁speech",-9.145897425917582],["▁innovation",-9.145956432517997],["an",-9.147744999198627],["▁status",-9.148246953311302],["▁S",-9.148477315315555],["▁created",-9.14880854762839],["However,",-9.14936194191078],["▁allowed",-9.149367508089236],["▁six",-9.15101601609951],["▁total",-9.153439945592469],["▁independent",-9.154103824357318],["▁forces",-9.15431476318639],["▁minimum",-9.156112248322103],["▁considerable",-9.160303246381863],["▁propose",-9.1608807106036],["▁goes",-9.16190707345304],["▁provides",-9.162336990676666],["▁return",-9.163126344822327],["▁capital",-9.16362928472447],["▁institutional",-9.16459648008225],["▁technology",-9.164861785870384],["▁Regulation",-9.166018366379246],["▁regime",-9.16625738520469],["▁criminal",-9.169137320606614],["▁rightly",-9.170667613516589],["▁benefits",-9.171099563665829],["▁International",-9.17177883124999],["▁provision",-9.174718230410155],["▁Policy",-9.175134231817385],["▁participation",-9.1758660193034],["▁stand",-9.175916991211071],["▁successful",-9.176516553304417],["or",-9.177113811744665],["▁implementing",-9.178404812203892],["▁WTO",-9.17904720284111],["▁Germany",-9.179693522949071],["▁receive",-9.182305259972162],["▁comments",-9.182355653734557],["▁calls",-9.182708516366468],["▁content",-9.183498720757083],["▁death",-9.183587678962574],["▁consideration",-9.183660333328381],["▁accepted",-9.185138614862652],["▁unfortunately",-9.185311790268564],["▁purpose",-9.185783948226387],["▁promoting",-9.186254793165125],["▁stated",-9.186548555324725],["▁ban",-9.186631455349518],["▁colleague",-9.18719664721189],["▁date",-9.187310493635186],["▁oil",-9.188938259069825],["▁specifically",-9.189171270439315],["▁enterprises",-9.189651127000383],["▁unemployment",-9.19138782474924],["▁referred",-9.196030685733929],["▁closely",-9.196695926664548],["▁overall",-9.19851197047038],["▁forms",-9.19868060825065],["▁Economic",-9.199647883761212],["▁knowledge",-9.202084127006472],["▁per",-9.203084218822045],["▁rural",-9.203705750460589],["▁dealing",-9.20432874895107],["▁media",-9.206056037293909],["▁decide",-9.208084970422908],["▁beyond",-9.209934841844037],["▁long-term",-9.209947522160958],["▁plans",-9.210595879384622],["▁introduction",-9.211690552904052],["▁views",-9.213255538101246],["▁urgent",-9.214644439483079],["▁complete",-9.2146776862614],["▁steps",-9.214957547860672],["▁strategic",-9.216988131509083],["There",-9.2172306283102],["▁lives",-9.220811235102449],["▁Mediterranean",-9.22129050248059],["▁wanted",-9.221789665156251],["▁finally",-9.222086930220572],["▁scientific",-9.22389458711724],["▁industrial",-9.225373186999988],["▁Brussels",-9.226241205403655],["▁border",-9.226269332457363],["▁produce",-9.227942885177553],["▁central",-9.228966052151687],["▁requires",-9.229334412653511],["▁wrong",-9.229615297664973],["▁measure",-9.229726613415897],["▁exchange",-9.229913196699592],["▁directly",-9.230900340176674],["▁leave",-9.231610644189683],["▁financing",-9.232052150258175],["▁seriously",-9.2339475244003],["▁Irish",-9.234847346093165],["▁Social",-9.23724511075382],["▁Kosovo",-9.237432202228412],["▁11",-9.237896749801617],["▁January",-9.239142410731084],["▁maintain",-9.241218139804827],["▁commitments",-9.243600701831271],["▁urge",-9.24519257523854],["▁history",-9.246269349928717],["▁expenditure",-9.247562276045379],["▁entire",-9.250533418080046],["▁equality",-9.25179420581917],["▁half",-9.25308405151867],["▁demands",-9.253275469743205],[".\nThank",-9.253717503241996],["▁German",-9.254133062167698],[".\nFurthermore",-9.256286325466062],["▁paid",-9.257841302288238],["▁Group.",-9.258269758775008],["▁efficient",-9.25907241540894],["▁event",-9.259249575575902],["▁join",-9.259808756636666],["▁Summit",-9.260027819059781],["▁myself",-9.263018864839434],["▁happen",-9.26335954640396],["▁intended",-9.263753391651003],["▁sufficient",-9.264544226720052],["▁home",-9.265045004428883],["▁police",-9.269628203362625],["▁poor",-9.270969921080665],["▁animal",-9.271483623848818],["▁ways",-9.271880766023456],["▁duty",-9.272034007030516],["▁bodies",-9.27224777342089],["▁speaking",-9.272368937724357],["▁aspect",-9.272838439541541],["▁represent",-9.274073535192656],["▁follow",-9.274485253531461],["▁party",-9.275109109585582],["▁paragraph",-9.275593631879435],["▁competitive",-9.277054604428766],["▁highly",-9.278265285962643],["▁anything",-9.279395099755117],["▁supporting",-9.279475277183137],["▁similar",-9.27989606741789],["▁properly",-9.280451842046958],["▁respond",-9.282301626830924],["▁medium-sized",-9.284010205033905],["▁conclude",-9.284744988608297],["▁yesterday",-9.285026593215854],["▁higher",-9.285062990456657],["▁product",-9.285473290504926],["▁setting",-9.287046009928162],[".\nOf",-9.287050016027976],["▁shows",-9.288941207086868],["▁led",-9.288977765605072],["▁former",-9.289877763495067],["▁gas",-9.291613741636352],["▁ambitious",-9.291965847573318],["▁discussing",-9.292227407466498],["▁May",-9.292481337349185],["▁establishing",-9.292559320412082],["▁known",-9.29314510844622],["▁weeks",-9.294158413348272],["▁Greece",-9.29452460578263],["▁caused",-9.29482503906071],["▁increasingly",-9.295728095618033],["▁6",-9.296310392545037],["▁study",-9.296515018755665],["▁exist",-9.297539366565609],["▁limited",-9.297604941542902],["▁calling",-9.299138305891164],["▁refer",-9.29986673379552],["▁represents",-9.303173577298029],["▁animals",-9.304443528515721],["▁genuine",-9.30468844343635],["▁risks",-9.304917429087125],["▁fund",-9.305047501794029],["▁whom",-9.306020125437389],["▁improved",-9.306692114276249],["▁authority",-9.307330555092667],["▁activity",-9.309630504542811],["▁mere",-9.310939621901309],["▁alone",-9.313068897303983],["▁strengthening",-9.313487387540308],["▁opposition",-9.31360292910947],["▁happened",-9.315311636628286],["▁type",-9.31572689580669],["\n",-9.318653118292628],["▁produced",-9.320604539672923],["▁threat",-9.320613278902423],["▁Constitution",-9.321217767656687],["▁hear",-9.321591376766722],["reducing",-9.321683831242826],["▁Rules",-9.321733869467698],["▁Iraq",-9.322105440616806],["▁obviously",-9.322528362522274],["▁early",-9.323342752340363],["▁Israel",-9.32338575178013],["▁limit",-9.324133611561075],["▁achieving",-9.324489164437374],["▁statements",-9.324682181819686],["▁emphasise",-9.32486443209708],["▁annual",-9.325041124788918],["▁aims",-9.32539279744919],["▁broad",-9.327818441470503],["▁later",-9.328313537890923],["▁send",-9.332536080754632],["▁infrastructure",-9.33352670944986],["▁March",-9.335462109986754],["▁gives",-9.335533780412058],["▁useful",-9.335865599408743],["▁developments",-9.337844660086276],["Foreign",-9.338487560782568],["▁require",-9.33931453957305],["▁language",-9.339317489641434],["▁regret",-9.339393214325966],["▁convinced",-9.340756657749472],["▁name",-9.343044653337284],["?\nI",-9.34320937315717],["▁rise",-9.343788381577566],["▁Human",-9.344509882816343],["▁candidate",-9.344749415739942],["▁conference",-9.345442652751137],["▁remember",-9.345717321870618],["▁looking",-9.345992963615302],["▁outcome",-9.346799417401938],["▁member",-9.351060196986438],["▁Security",-9.351744563082335],["responsibilities",-9.35236580688024],["▁concrete",-9.353021114895967],["▁comment",-9.353085934799914],["▁ten",-9.353975353013826],["▁combating",-9.354440311088945],["▁press",-9.355281341819378],["▁hold",-9.35588347631598],["▁earlier",-9.356962007018048],["▁recognise",-9.357721630556904],["▁elements",-9.358128956920421],["▁balanced",-9.358798838621922],["▁analysis",-9.360840918412343],["▁sometimes",-9.361359407719123],["▁influence",-9.362768989505128],["▁spirit",-9.363361631321014],["▁damage",-9.364947396799414],["th",-9.36560588664862],["▁Spanish",-9.365641373085952],["▁producers",-9.367954567064444],["so-called",-9.367992394468537],["▁Internet",-9.368336897433691],["▁concept",-9.370216586903409],["▁comprehensive",-9.370534550223661],["▁introduce",-9.371458853364265],["▁monetary",-9.371534236626834],["▁contrary",-9.371547319001882],["▁becoming",-9.371898685839964],["▁acceptable",-9.372521930338237],["▁currency",-9.372906753794002],["▁prevention",-9.373710621650298],["▁facing",-9.373907148810114],[".\nNow",-9.374858283516073],["▁25",-9.375056191537915],["▁entirely",-9.375094434559253],["▁introduced",-9.375095932800537],["▁word",-9.376141929142168],["▁firstly",-9.376939937257735],["▁cross-border",-9.377126863871593],["▁origin",-9.377392432459319],["▁Italy",-9.377874293969342],["▁rest",-9.378455477161356],["▁building",-9.379254011106196],["▁7",-9.379477266227463],["▁reduced",-9.37971858155928],["▁recognition",-9.380040807449515],["▁met",-9.382095135943509],["▁thinking",-9.383789079067084],["▁thought",-9.384131394026975],["▁relationship",-9.386013952905007],["▁alternative",-9.386822847241428],["▁sources",-9.387346153233098],["▁pointed",-9.388327415024406],["▁consensus",-9.389287603148906],["▁cut",-9.389677435187975],["▁recommendations",-9.389888292811854],["▁delegation",-9.393178387011965],["▁differences",-9.394644152243776],["▁documents",-9.399822796265045],["▁asking",-9.40017673997221],["▁September",-9.400745590042016],["▁wants",-9.40168235725979],["▁establishment",-9.402607338416992],["▁dangerous",-9.40326893231671],["▁raise",-9.404021706028727],["▁American",-9.40464597780182],["▁negative",-9.405367368146527],["▁trust",-9.405853847479408],["▁flexibility",-9.406427033800957],["▁added",-9.40698440105307],["▁commercial",-9.407611827374497],["▁liberalisation",-9.408055478293386],["▁forget",-9.410738939473017],["▁probably",-9.412205989550804],["▁body",-9.41362846709874],["▁rapporteurs",-9.414587358964896],["▁closer",-9.414744612424702],[".\nFirstly",-9.416402418042093],["▁strongly",-9.417659927643461],["▁else",-9.418950123220748],["▁Spain",-9.419042160348818],["▁8",-9.419059786198657],["u",-9.419565607188824],["▁Environment",-9.420536416292174],["▁low",-9.420749771390607],["▁organisation",-9.42203624076633],["▁exactly",-9.423073543202522],["▁sort",-9.42476189822236],["▁methods",-9.42497670195109],["▁laws",-9.425982222689427],["ation",-9.426047270984606],["▁America",-9.426706204711333],["▁applies",-9.427860514196034],["▁attempt",-9.427893552607062],["▁bear",-9.428625965628157],["▁company",-9.430218171756456],["▁November",-9.43116279371255],["▁practices",-9.431316280597676],["▁South",-9.43154177851657],["▁chance",-9.431607823479093],["▁staff",-9.43218678836402],["▁union",-9.432322426161384],["▁30",-9.433104761382292],["▁refugees",-9.434038098444908],["▁UK",-9.434613031480117],["▁parts",-9.437138577403795],["▁failure",-9.438434400033204],["▁agencies",-9.442329457241874],["▁Romania",-9.443872092739518],["▁Green",-9.444304813766061],["▁Palestinian",-9.444660137592122],["▁sanctions",-9.44508942453696],["▁circumstances",-9.446854647937132],[".\nHe",-9.447078609125281],["▁laid",-9.447119513315563],["▁submitted",-9.447612161775384],["▁network",-9.4493292095893],["▁mechanism",-9.45061956434237],["▁networks",-9.45083440464116],["▁ideas",-9.450894744943362],["▁mandate",-9.451791409583242],["▁institution",-9.451977337211362],["▁person",-9.452324688053181],["▁integrated",-9.452668891965672],["▁fraud",-9.453202202837499],["▁2004",-9.45342864152687],["▁intervention",-9.454220297268517],["▁says",-9.454883000339578],["▁seek",-9.455065466926586],["▁build",-9.45708515863327],[".\nToday",-9.457298047887486],["▁constructive",-9.45734756302636],["▁obligations",-9.45834865099153],["▁manner",-9.458361242552698],["▁dealt",-9.45868239209527],["▁drawn",-9.459401396090385],["▁Paper",-9.45968402421811],["▁2007",-9.459966687546473],["▁governance",-9.460075154781467],["▁correct",-9.460158182268255],["putting",-9.46160147873131],["▁\"",-9.461732141328193],["▁happy",-9.462115360182542],["▁improvement",-9.462894474565326],["▁enormous",-9.464213487092042],["▁addressed",-9.464692934471161],["▁MEPs",-9.464711035900212],["▁dimension",-9.464784121527819],["▁fall",-9.465845868913568],["▁critical",-9.467924212090423],["▁growing",-9.469063650594665],["▁morning",-9.470345616577934],["▁targets",-9.470871328341628],["▁perspective",-9.47152808551461],["▁big",-9.472417875234362],["▁ground",-9.473403565865036],["▁directives",-9.474006684807334],["▁Middle",-9.476350609112139],["▁informed",-9.478827890191495],["▁Italian",-9.480046740282488],["▁opening",-9.48039286736372],["▁choice",-9.480493933880176],["▁immediately",-9.481621649639003],["!\n",-9.482554934921126],["▁managed",-9.482616748242094],["▁Kingdom",-9.48329622803452],["▁sensitive",-9.484590407862143],["▁reply",-9.486281217409038],["▁non-",-9.487709693441548],["▁transparent",-9.488358095384326],["▁ahead",-9.488952048387773],["▁method",-9.490641845272597],["▁C",-9.491902390490495],["▁fear",-9.493560156179013],["▁definition",-9.493766458754086],["▁October",-9.493870697637801],["▁contains",-9.494189281586841],["▁consultation",-9.494286880870284],["▁2009",-9.494327735344786],["▁operation",-9.494711314396055],["▁But",-9.495155952380424],["▁discharge",-9.496665246071828],["▁organised",-9.498428050122762],["▁mechanisms",-9.498456890961586],["▁run",-9.500399194974834],["▁simple",-9.50062619538203],["▁child",-9.501105985231293],["▁Agency",-9.501126731462888],[".\nUnfortunately",-9.502758592411585],["at",-9.504808463202682],["▁signed",-9.506770753341922],["▁mutual",-9.508252821836821],["▁read",-9.508386089325793],["▁resolve",-9.508585431619895],["▁administration",-9.509439005903948],["ought",-9.511142184102631],["▁persons",-9.511470232435657],["▁seem",-9.512163915600663],["▁leaders",-9.51249554731098],["▁complex",-9.512514255567606],["▁Chamber",-9.512851201402285],["What",-9.512944864847631],["▁age",-9.516744151683707],["▁leading",-9.51729943288179],["▁continuing",-9.517733951098744],["▁Programme",-9.517795870137371],["▁thousands",-9.51858552504692],["▁intention",-9.518751646306097],["▁understanding",-9.519975444080808],["▁easy",-9.520571931924817],["▁2008",-9.521447204647808],["▁Turkish",-9.522605342869005],["▁intend",-9.523059331288247],["▁exercise",-9.523150380811781],["▁Ukraine",-9.52450821784084],["ers",-9.524722220502596],["▁impossible",-9.526012358180198],["▁Russian",-9.526109134524548],["▁Strategy",-9.527563874938071],["▁repeat",-9.527888733135056],["it",-9.530161071748125],["▁Charter",-9.530699856550545],["▁elected",-9.532394043064684],["▁recommendation",-9.53239796211271],["▁came",-9.533884187856817],["▁positions",-9.534083510855167],["▁renewable",-9.535484629327069],["▁Iran",-9.535562552724416],["▁Prime",-9.536499859576796],["▁rejected",-9.53702098807256],["▁figures",-9.537029551426398],["▁disaster",-9.537112908756455],["▁lost",-9.537508962235135],["▁guarantees",-9.537806755477801],["▁told",-9.53854460563105],["▁promotion",-9.53890461753221],[".\nAlthough",-9.539231469886278],["▁evidence",-9.53944737307796],["▁2005",-9.53962849417775],["▁9",-9.540361207063043],["▁independence",-9.541538882695864],["▁burden",-9.541736425735472],["▁includes",-9.5419803286184],["▁speakers",-9.541993708270672],["▁totally",-9.542592418132347],["▁adequate",-9.542625659476599],[".\nSince",-9.545307322057866],["▁substantial",-9.546209317891382],["▁2010",-9.546303424433246],["▁attitude",-9.547591955281987],["▁worked",-9.551381028948324],["▁payments",-9.551779925761464],["▁structure",-9.552041936877705],["▁1999",-9.552358579281842],[".\nFirst",-9.553035214524556],["▁wishes",-9.553492971011575],["▁cover",-9.554577938096688],["▁Trade",-9.555559852837124],["ly,",-9.55696179035844],[".\nMoreover",-9.557150661791606],["▁desire",-9.557323763961621],["▁failed",-9.557656671526507],["▁related",-9.557862384539778],["▁economies",-9.558217887428773],["▁instance",-9.55854839239017],["▁Amsterdam",-9.558635735410146],["▁2003",-9.558879170490645],["▁trafficking",-9.558881118158718],["?\nThe",-9.56016917377675],["▁expression",-9.560667286599745],["▁traffic",-9.560893836206642],["▁degree",-9.56119265564113],["▁income",-9.561204503054547],["▁secure",-9.56344016533679],["▁fish",-9.563998859072422],["▁Ministers",-9.564297047794907],["▁2020",-9.565423149094812],["▁sound",-9.56617494546343],["▁membership",-9.566595707339339],["▁extend",-9.567250419158684],["▁Health",-9.567510498020063],["▁treaty",-9.568445689920596],["volving",-9.570358726965733],["▁involvement",-9.570397553677866],["▁bringing",-9.570836605286065],["▁grateful",-9.572810741567148],["▁obvious",-9.5732734881886],["▁Schengen",-9.573382365960184],["▁rates",-9.574931715144558],["▁technologies",-9.577260956558204],["▁debates",-9.577419289752427],["▁opposed",-9.580128996875718],["▁tru",-9.580560426384134],["▁original",-9.58099480110385],["▁table",-9.581454304175429],["Monetary",-9.58155994852217],["▁families",-9.582933946964678],[".\nNevertheless",-9.582958254494036],["▁Cyprus",-9.58370496325724],["▁tackle",-9.583885910923527],["▁Pact",-9.584891831562649],["▁affect",-9.586524052646853],["▁linked",-9.58685195287791],["▁controls",-9.589193921584213],["▁happening",-9.589642588362539],["▁land",-9.590057301679883],["▁talks",-9.591443249126748],["▁immediate",-9.591698576278802],["▁getting",-9.592331164019111],["▁highlight",-9.593995543601096],["▁SMEs",-9.594048825157858],["▁actual",-9.594366603219122],["▁forced",-9.59592447483656],["▁subsidiarity",-9.596615171223387],["▁office",-9.597813448466974],["▁official",-9.598889398785175],["▁sea",-9.599433159988468],["▁resolutions",-9.599511463157482],["▁acts",-9.601868613157022],["▁faced",-9.60216038538752],["▁goal",-9.602227515525804],["▁Council's",-9.6025446847281],["▁decision-making",-9.60323521379109],["▁travel",-9.60400706973346],["▁disease",-9.604085940201447],["as",-9.604862940696307],["▁finance",-9.606504406663417],["▁link",-9.606567885893625],["▁tourism",-9.607333068740283],["▁territory",-9.609339232696046],["▁election",-9.610140197220638],["▁lines",-9.61028279064916],["▁enter",-9.610303184558632],["▁heart",-9.610355104661728],["▁advantage",-9.611957807441483],["▁greatest",-9.612330631447286],["▁weapons",-9.612696267132947],["▁lower",-9.613821845779533],["▁appeal",-9.614601626039226],["▁drugs",-9.615592702659223],["▁affairs",-9.617737588362544],["▁situations",-9.617753750576744],["▁recognised",-9.61846640808869],["▁plenary",-9.618767034217386],["▁protecting",-9.62061576700755],["▁adopting",-9.621504021727242],["▁votes",-9.622131500417415],["▁followed",-9.624223913867711],["▁conduct",-9.624250776282228],["▁ready",-9.626580554235225],["▁July",-9.626583881309118],["▁defend",-9.62692245736694],["Structural",-9.62735446090293],["▁Portugal",-9.627727130340878],["▁parliaments",-9.629751285564433],["▁substances",-9.6302519687445],["▁bad",-9.630954786766067],["▁appear",-9.632448293506659],["▁granted",-9.632640364411646],["▁sides",-9.632846636190061],["▁interesting",-9.633700398532886],["▁safeguard",-9.634375646502027],["▁mobility",-9.634857042928012],["▁For",-9.636994805801884],["▁M",-9.637050286710712],["▁seeking",-9.637524702170381],["▁18",-9.637740524962938],["▁range",-9.640310401649272],["▁re",-9.640324605000366],["▁Nos",-9.640461542683113],["mongst",-9.64062243342468],["▁sign",-9.641458571587581],["▁suffering",-9.641492558426727],["▁diversity",-9.641541149292301],[".\nIndeed",-9.6419553045656],["▁export",-9.6443729484357],["▁element",-9.644890215194838],["▁comply",-9.64690208397494],["▁credit",-9.646957312536975],["▁carefully",-9.647406693061303],["▁danger",-9.648094679513044],["▁meetings",-9.649387013374653],["▁African",-9.649405881962874],["▁explain",-9.649541753120504],["▁closed.\nThe",-9.650089289072534],["▁Union.\n",-9.650567469201585],["▁involve",-9.650696816859828],["▁evaluation",-9.65127124746615],["▁covered",-9.6516042088571],["▁serve",-9.651897572357838],["▁reject",-9.6521095118615],["▁designed",-9.653205262680327],["▁2002",-9.654122069133296],["▁supports",-9.654664971445763],["▁Poland",-9.654752720683897],["▁detailed",-9.65713618966449],["▁ability",-9.657279732100527],["▁shared",-9.657339227633143],["▁minorities",-9.657418364270569],["▁late",-9.657595508960913],["▁proposing",-9.657709368850728],["▁pollution",-9.657864660417975],[".\nSome",-9.65869038272161],["▁Barroso",-9.659195844555347],["▁committees",-9.659242305558175],["▁subsidies",-9.660081998092997],["▁Democrats",-9.660955810623998],["▁thereby",-9.661091797135681],["▁2001",-9.66159480448769],["▁starting",-9.662088015149314],["\"",-9.66223770864322],["▁presence",-9.66335484955377],["▁changed",-9.66396997621575],["k",-9.664201598794202],["▁safe",-9.664792781057912],[".\nAfter",-9.666632075984726],["▁13",-9.667043186796668],["ary",-9.667149677051796],["▁Funds",-9.668745849975837],["▁communities",-9.669633398209887],["▁competence",-9.669718616529023],["▁target",-9.671163141585644],["▁27",-9.671217030503108],["▁voice",-9.671618297895701],["▁naturally",-9.672410127871704],["▁structures",-9.67388508936564],["▁bilateral",-9.674688853232706],["▁standard",-9.675373275875655],["▁Swedish",-9.676673265161249],["▁detail",-9.6770157112022],["▁criticism",-9.678438311848133],["▁hours",-9.678793322503537],["▁emphasis",-9.678800066923097],["▁continues",-9.678855504453052],[".\nParliament",-9.680036735595989],["▁participate",-9.681273818613233],["▁Amendments",-9.68238825378231],["▁judicial",-9.683377058486826],["▁binding",-9.68424655480811],["▁On",-9.684717339619013],["▁Sea",-9.685274270334677],["▁expected",-9.685351766706837],["▁anyone",-9.685603661064306],["▁spent",-9.686270396455338],["▁approval",-9.687044310207499],["▁harmonisation",-9.687790446283445],["▁ones",-9.688186930573432],["▁consumption",-9.688708502204749],["▁taxation",-9.688800938734321],["▁Auditors",-9.68901279992034],["▁Commission.",-9.68988925766748],["▁campaign",-9.691178428381777],["▁consistent",-9.691241543144907],["▁arms",-9.691370858319345],["▁causes",-9.693053230355082],["▁minority",-9.693629360510734],["▁peoples",-9.693748380955702],[".\nEurope",-9.69395475090525],["▁rail",-9.696212825294056],["▁obtain",-9.696557415299058],["▁R",-9.696576203769835],["▁gender",-9.696658083476086],["▁floor",-9.696660820674376],["▁series",-9.696687795235837],["▁North",-9.696708170224692],["▁Eastern",-9.696815288243982],["▁immigrants",-9.696966098561454],["▁improvements",-9.700226309983819],["▁planning",-9.70132358496968],["▁E",-9.702036161141292],["▁representative",-9.702567241431332],["▁credibility",-9.705350966246163],["▁April",-9.705972760888613],["▁otherwise",-9.707240934183089],["▁reasonable",-9.707417492250507],["▁inform",-9.708013147300322],["▁Budget",-9.70831900281461],["▁Sweden",-9.70909923418056],["▁recovery",-9.709475044482351],["▁declaration",-9.709592391533477],["▁car",-9.710749078054643],["▁worth",-9.711599254588446],["▁oral",-9.711785397951294],["▁nations",-9.711953307322858],["▁entry",-9.712213397021971],["▁round",-9.713242616602042],["▁delay",-9.713314644963084],["ity",-9.714246718893687],[".\nBy",-9.714902465486308],["▁monitor",-9.71557495200985],["▁limits",-9.716881918244944],["▁closed",-9.71904895393512],["▁Greek",-9.722458404110057],["▁rapid",-9.722977615273813],["▁board",-9.723286434277473],["▁source",-9.72541125678561],["▁arrangements",-9.725805999748443],["\nThe",-9.726274770145658],["▁initial",-9.727082457371594],["▁Belarus",-9.727264672158494],[".\nEven",-9.728937721777417],[".\nMany",-9.728951121621943],["▁factor",-9.729193716410276],["▁gave",-9.72989272020518],["▁terrorist",-9.730004208330481],["▁maximum",-9.730211666832338],["▁50",-9.730468502656434],["▁factors",-9.733060040965682],["g",-9.733106791875056],["▁started",-9.73374242608071],["▁obligation",-9.734196978281252],["▁lies",-9.734429791903992],["to",-9.734488186378389],["▁encouraging",-9.735052213319912],["▁Western",-9.735315772006178],["▁politicians",-9.736021428901637],["▁lay",-9.736502446247293],["▁compensation",-9.73676141472858],["▁signal",-9.73678265217872],["▁Bulgaria",-9.737056048565224],["▁neither",-9.737887095314393],["▁regulatory",-9.739684216224957],["▁attacks",-9.741225012601408],["▁goals",-9.741343637579144],["▁easier",-9.743360291958277],["▁domestic",-9.746852001227397],["▁religious",-9.747267119336767],["▁grounds",-9.74843942755576],["▁generally",-9.748702638674422],["▁citizen",-9.751335751481832],["▁States'",-9.75313257450194],["▁freedoms",-9.753790295092616],["▁Rule",-9.754078725638745],["▁19",-9.754819342664636],["▁14",-9.757032658911506],["▁session",-9.75756788880636],["▁fail",-9.757892234979275],["From",-9.758498883882696],["▁moving",-9.758651165303744],["▁permanent",-9.758806515944428],["whilst",-9.760618943283038],["▁contributions",-9.761664831803191],["▁Socialist",-9.76182511696991],["▁Roma",-9.761886094414379],["▁transfer",-9.762267430530875],["▁facilitate",-9.762740066816765],["▁modern",-9.762771250134794],["▁appears",-9.763692294733739],["▁vehicles",-9.765020649165026],["▁professional",-9.765402097066355],["▁debt",-9.765823292419629],["▁politics",-9.765888182508519],["▁delighted",-9.76692379933977],["▁month",-9.767022791162294],["▁migration",-9.767674136752225],["▁welfare",-9.76886437147257],["▁imposed",-9.769609135197612],["mainly",-9.770573996790032],["▁banks",-9.772420286695905],["▁report.\n",-9.772499870144848],["▁scale",-9.772514453267847],["▁employees",-9.774370771652475],["▁languages",-9.776225833305762],["▁solve",-9.776424909468421],["▁Commission’s",-9.777655634018776],["ness",-9.778284739098309],["▁endorse",-9.779168951794034],["▁construction",-9.779332950207946],["▁capable",-9.781214602342006],["▁partner",-9.781381093570293],["▁speed",-9.781460606113452],["▁manage",-9.783342621026438],["▁16",-9.783947969065318],["▁restrictions",-9.785875481661986],["▁customs",-9.785991226943345],["▁flexible",-9.786350362009744],["▁requirement",-9.78653671088998],["▁Public",-9.787348715006711],["▁17",-9.78840155132031],[".\nCommissioner",-9.788507678008585],["▁1998",-9.788524134089968],["ic",-9.78865408853494],["▁inclusion",-9.788731338583133],["Legal",-9.78945506838393],["▁compliance",-9.789612257629244],["▁referendum",-9.7899770957724],["▁constitutional",-9.791251164583304],["▁sent",-9.791654073123734],["▁proposes",-9.792063749212648],["▁sole",-9.792510391023434],["▁conflicts",-9.796077206970846],["▁Netherlands",-9.79639674643049],["▁placed",-9.796725734540075],["▁2006",-9.796840635403788],["▁Agriculture",-9.797077829389611],["▁equally",-9.798307283318897],["▁crimes",-9.798505629311258],["▁experts",-9.798809719391492],["▁interested",-9.79909264633585],["▁forthcoming",-9.799467773761496],["▁learn",-9.800367031544546],["▁labelling",-9.800952178353295],["▁firm",-9.80107997265477],["▁numerous",-9.801174097219274],["▁impose",-9.801551440285952],["▁Czech",-9.801960575033398],["▁path",-9.802027922800729],["▁reflect",-9.8024705686741],["▁helping",-9.802740402680223],["▁General",-9.803162980199852],["▁operations",-9.803211465161775],["▁separate",-9.804178355405888],["▁Europe.\n",-9.805216015949282],["▁maritime",-9.80528721366439],["▁guaranteed",-9.805298101505205],["▁spending",-9.807150385331582],["▁negotiating",-9.808038719955487],["▁investments",-9.809220059606073],["▁confirm",-9.809242658610243],["▁ECU",-9.809359786321123],["▁payment",-9.809867655683838],["▁today's",-9.811283912997837],["▁personally",-9.811893865654215],["▁likely",-9.814053153541245],["▁fighting",-9.815184145624208],["by",-9.815290055792378],["en",-9.815560172654157],["▁Copenhagen",-9.81582032070068],["▁resolved",-9.815878188032242],["▁tobacco",-9.816334768699008],["▁trading",-9.818424863273133],["▁Energy",-9.81860071100045],["(FR)",-9.819822990632453],["▁People'",-9.821409534950181],["▁existence",-9.821581444644433],[".\nHow",-9.822485847670677],["▁defined",-9.823362029738442],["▁Afghanistan",-9.823659288905889],["▁diseases",-9.823969513566286],["▁glad",-9.824281944272519],["▁continent",-9.82431752563899],["(PT)",-9.824821970529737],["▁Luxembourg",-9.824882371733214],["▁NATO",-9.824929607948828],["▁continued",-9.825957177445058],["▁passengers",-9.82647783867596],["▁Strasbourg",-9.82696469019685],["▁voluntary",-9.827163085654437],["▁appropriations",-9.828069958674282],["▁Balkans",-9.828353521553172],["▁Stability",-9.828572745972231],["▁worse",-9.829724030335282],["▁base",-9.830717630203615],["▁letter",-9.83170163560815],["▁distribution",-9.83209068775858],["▁examine",-9.83210617443753],["▁Baltic",-9.833238627876636],["▁demonstrate",-9.833703662768114],["▁operate",-9.834113603123916],["s.\n",-9.834320459101205],["▁opinions",-9.834763323933698],["▁depend",-9.835268799068487],["▁respected",-9.835433804324843],["▁assure",-9.83591764363648],["▁tasks",-9.836098123088892],["▁ACP",-9.836153075846592],["▁operators",-9.836190674739864],["▁peaceful",-9.83619936448407],["▁via",-9.836808605759789],["▁scheme",-9.83681347388925],["▁truth",-9.83730752642647],["▁officials",-9.839172984694265],["est",-9.839334793373665],["▁traditional",-9.839460314863633],["▁remarks",-9.839737264829957],["▁evening",-9.840055870020745],["▁functioning",-9.840265069751663],["5",-9.841959585425034],["▁system,",-9.842139985189757],["▁exists",-9.842267735366999],["▁effectiveness",-9.842326632733698],["▁demonstrated",-9.842804698851353],["▁disasters",-9.842910897469121],["▁associated",-9.842950110701054],["▁option",-9.844287540099465],["▁1997",-9.845825394639036],["▁material",-9.846200199419698],["▁mission",-9.846267212578626],["▁occasions",-9.847843999564402],["▁century",-9.84930003564661],["▁Ombudsman",-9.849599833419596],["▁average",-9.850718065485424],["▁Commissioners",-9.850782123992783],["w",-9.851582335511047],["▁primarily",-9.852404455649324],["▁protected",-9.855677227668048],["▁millions",-9.856006730981154],["▁written",-9.857631810016192],["▁strict",-9.858418230095046],["4",-9.859013513394089],["▁USA",-9.85946781672597],["▁attack",-9.859745408436892],["▁purposes",-9.860093854640017],["▁Portuguese",-9.861207222274972],["▁ultimately",-9.861421321992765],["▁contained",-9.861917547737463],["▁Euro",-9.862553100535276],["▁cooperate",-9.863564424352651],["▁entitled",-9.865462643626614],["▁legitimate",-9.86564460631735],["▁II",-9.866108993308476],["▁suggest",-9.866313017052295],["▁tried",-9.867341492890127],["▁corruption",-9.869472598851612],["▁concluded",-9.869504932860224],["▁Budgets",-9.872208375623327],["▁Market",-9.872862055797857],["▁States.\n",-9.873244269525218],["▁realise",-9.873594369282367],["▁awareness",-9.87406733498106],["▁overcome",-9.874243401341406],["▁justified",-9.874370186157815],["▁difference",-9.875879072285011],["▁Chinese",-9.87592549416321],["▁individuals",-9.877050098859108],["▁approve",-9.87985671910904],["▁Framework",-9.88029798774732],["▁revision",-9.880461026981894],["▁India",-9.880982436434797],["▁define",-9.881583854694131],["▁collective",-9.882903160251114],["▁sexual",-9.883040955133843],[".\nThirdly,",-9.884050678124481],["▁passed",-9.884415723088829],["▁visa",-9.884634760655322],[".\nWhile",-9.886466294600321],["▁substance",-9.887987404059835],["▁pension",-9.88807186655681],["▁amounts",-9.889057050697229],["▁involves",-9.889135141010598],["▁Dutch",-9.88923825968579],["▁brief",-9.889240654128006],["▁prepare",-9.890514158954668],["▁temporary",-9.892613494406094],["▁statistics",-9.89309639461958],["▁visit",-9.89335851581742],["▁dignity",-9.8939392038847],["▁imports",-9.894089495743886],["▁loss",-9.89429003718314],["▁nevertheless",-9.895817490594887],["▁played",-9.89650206601117],["▁firmly",-9.89817995625864],["ally",-9.898349353001361],["▁electronic",-9.898883800014609],["▁extended",-9.899324619590374],["▁Action",-9.899486841431395],["▁violations",-9.899500243522095],["▁globalisation",-9.89995543991532],["▁February",-9.900717612463023],["▁allocated",-9.901260642480596],["▁emergency",-9.90154129889924],["▁wonder",-9.901644189273796],["▁knows",-9.901691175607501],["▁planned",-9.902651611021131],["▁vulnerable",-9.902987331587006],["▁impression",-9.903367495464334],[".\nNo",-9.905541406369874],["▁got",-9.90564651476989],["▁treated",-9.906131441906282],["▁clause",-9.90765306047417],["▁ethnic",-9.908568255437299],["▁please",-9.90944050848692],["▁vision",-9.90960912104347],["▁whatever",-9.909765578333452],["▁requested",-9.911312989064879],["▁Organisation",-9.912400960093114],["▁decisive",-9.912519246933044],["▁hands",-9.91277766214465],["▁Treaties",-9.91288275025994],["▁lose",-9.913985851883965],["▁excessive",-9.915613157122936],["▁citizens'",-9.916085862891878],["▁agency",-9.917099044082503],["▁technological",-9.917574520801352],["unless",-9.918001220057281],["▁farming",-9.918686216038193],["▁proceed",-9.919549992777924],["▁obstacles",-9.919681037179387],["▁Research",-9.920279177725963],["▁taxes",-9.921545249421772],["▁Austria",-9.92164217363964],["▁top",-9.921661222101509],["▁ministers",-9.923460315390766],["▁At",-9.926780078443993],["▁property",-9.927524150866098],["▁court",-9.927888451277028],["▁gone",-9.928766846620363],["▁record",-9.929644526506896],["▁abuse",-9.930946002345053],["▁industries",-9.931022961788944],["▁extension",-9.931022962378771],["▁centre",-9.931564677800548],["▁1996",-9.932354036191898],["▁somewhat",-9.932621382242537],["▁happens",-9.933114281367088],["▁fishermen",-9.933362603859248],["▁latter",-9.934534479409988],["▁CAP",-9.936495075539648],["▁offers",-9.936596810995377],["▁Assembly",-9.936882355311726],["▁supervision",-9.937274454780672],["▁So",-9.938449466575026],["▁gain",-9.93881270400721],["▁appreciate",-9.939302034360473],["▁mass",-9.939792153080608],["▁spoke",-9.939865023509732],["▁spoken",-9.940177672351442],["▁processes",-9.941570608715637],["▁works",-9.942223171950797],["▁highest",-9.943061149694994],["▁preventing",-9.943147950745036],["▁preparing",-9.943170446230322],["▁operational",-9.943438386816702],["▁Agenda",-9.943438747427036],["▁exclusion",-9.943565829982521],["▁considering",-9.944257331630913],[".\nAn",-9.945307953770001],["▁constantly",-9.945741121458349],["▁prove",-9.94672106071102],["▁ratification",-9.94712067848468],["▁quotas",-9.947138087132025],["▁phase",-9.947667896081025],["▁undoubtedly",-9.947941567925415],["▁occasion",-9.94794229081623],["▁contact",-9.948277563902042],["▁behaviour",-9.948308797388364],["▁announced",-9.949597586443147],["▁space",-9.951234044476397],["▁urgently",-9.951560495022186],["▁High",-9.952038168235182],["▁details",-9.952042484558415],["▁secondly",-9.952474852795085],["▁fulfil",-9.953160992530858],["▁man",-9.95394088445261],["▁pursue",-9.954285219594436],[".\nSuch",-9.955156176652007],["▁Israeli",-9.95557209532209],["▁compared",-9.955642913489708],["▁penalty",-9.957065099167131],["▁drawing",-9.957828866239321],["▁Transport",-9.957865390639128],["▁Head",-9.959807318743621],["▁fuel",-9.959819696248129],["▁insurance",-9.960819222134905],[".\nOnly",-9.96106835797314],["▁fiscal",-9.961472130507147],["▁sensible",-9.961873737073008],["▁latest",-9.961878295822578],["▁stocks",-9.9621847040444],["▁examples",-9.962237678571366],["▁applying",-9.963859675719629],["▁Prodi",-9.963885274457336],["▁keeping",-9.965927752346772],["▁described",-9.966057691281645],["▁relates",-9.967065283975952],["▁determined",-9.967068165873664],["▁prosperity",-9.967113774249334],["▁normal",-9.967185081993065],["▁exploitation",-9.967555649351958],["▁stronger",-9.968188314981173],["▁tool",-9.968304873128263],["▁association",-9.968395832352114],["),",-9.970091893496367],["▁NGOs",-9.970525459975761],["▁expectations",-9.970544663771369],["▁allows",-9.971553882601437],["▁introducing",-9.97156177834741],[".\nThose",-9.971906584940374],["▁welcomed",-9.972376764865022],["▁codecision",-9.972779068860024],["▁proceedings",-9.97312988357168],["▁pillar",-9.973130185080457],["▁noted",-9.973996236615655],["▁operating",-9.974811065469142],["▁function",-9.97512539027668],["ar",-9.975235140412344],["▁duties",-9.975626548287774],["▁barriers",-9.975963445410489],["▁Alliance",-9.977663542439593],["▁coordinated",-9.977680406713883],["▁courage",-9.979273725004385],[".\nYet",-9.97985009465674],["▁studies",-9.980115020718644],["▁Asia",-9.980320356480291],["▁accounts",-9.980518472459117],["▁precise",-9.980958076406942],["▁strengthened",-9.982260880195346],["s'",-9.982981757348092],["▁intends",-9.983434778675798],["▁minutes",-9.984926512635493],["▁confirmed",-9.98578137448743],["▁submit",-9.985836663203623],["▁equipment",-9.98710090643564],["▁near",-9.988014060108771],[".\nLadies",-9.988040895249496],["▁historic",-9.988345448139349],["▁100",-9.988658168430142],["▁convergence",-9.988850630706882],["Thank",-9.98964787018203],["▁strategies",-9.990394716359038],["▁conciliation",-9.990394724895605],["▁types",-9.99325091679632],["▁clarify",-9.994535263624265],["▁represented",-9.995406127400347],["▁pass",-9.996376899439912],["▁assume",-9.99701838479375],["▁Procedure",-9.99726928952321],["▁largest",-9.998077108131245],["▁arguments",-9.998922637200724],["▁Fisheries",-9.999946284141807],["▁leadership",-9.999961610149235],["▁debating",-10.000363651577912],["▁Fundamental",-10.002115365715664],["▁Croatia",-10.003299584322008],["▁briefly",-10.003938708260264],["▁succeed",-10.0049940131518],["▁kept",-10.006225082389058],["▁Consumer",-10.006274140440656],["▁published",-10.008942743015572],["le",-10.010183959926358],["▁speaker",-10.012241084321783],["▁seven",-10.014710050730205],["ntergovernmental",-10.015288753456051],["▁politically",-10.015853561207607],["▁innovative",-10.015929813569244],["▁To",-10.017855266006105],["▁materials",-10.01795256633076],["▁insist",-10.018864615336378],["▁Financial",-10.01950219449511],["▁offered",-10.020994769553306],["▁sovereignty",-10.021030877136923],["▁21",-10.023135482177882],["▁amending",-10.023183271376485],["▁paper",-10.023519692440995],["▁restructuring",-10.023591920900033],["terinstitutional",-10.024445924925553],["▁electricity",-10.025311147412566],["▁dependent",-10.02618910566924],["▁realistic",-10.026568887702604],["▁ongoing",-10.02675572799911],["▁unfair",-10.028179164522715],["▁places",-10.028250873041737],["▁maintaining",-10.02853415601723],["▁finding",-10.029742580872519],["▁urgency",-10.030020570365975],["▁transition",-10.030252973068116],["▁condemn",-10.030553044228718],["▁40",-10.0337924254854],["▁shadow",-10.033899514450907],["▁And",-10.034880101972579],[".\nMrs",-10.03489977508871],["▁fields",-10.035719372483037],["▁suffer",-10.037089676200164],["▁identity",-10.037357660282314],["▁significantly",-10.038308338229815],["▁advance",-10.038403116665819],[".\nWhy",-10.03874611564813],["▁undertaken",-10.03926192117005],["▁invest",-10.040137151289342],["▁CO2",-10.040596770513696],["?\nWe",-10.040863549535377],["▁careful",-10.04319581342516],["▁contracts",-10.043327336707069],["▁brings",-10.044273802307725],["▁Group,",-10.044396677725343],["▁perfectly",-10.044722316504197],["▁acknowledge",-10.0457432840035],["▁parliament",-10.046130971044413],["▁Constitutional",-10.046436110676062],["▁felt",-10.046496111884778],["▁waiting",-10.046813540962003],["▁determination",-10.046933396226276],["▁test",-10.046965401852296],["▁territorial",-10.04821437732155],[".\nAnother",-10.049683997555025],["▁stable",-10.050439040287582],["▁absence",-10.05087727488284],["6",-10.052053797138534],["▁argument",-10.05283502755465],["?\nMr",-10.053842063845355],["▁proved",-10.054871808524098],["▁difficulty",-10.054877865075731],["▁nation",-10.055018575648692],["▁answers",-10.055368181565722],["▁united",-10.056080091101567],["▁medical",-10.056160664484175],["▁accidents",-10.056268127485263],["▁vessels",-10.056348912578656],["▁resolution,",-10.057930088090805],["▁changing",-10.059419503923298],["▁understood",-10.06058394485429],["▁cars",-10.061268662744641],["▁coherent",-10.06182969343766],["▁universal",-10.06282671440794],[".\nMember",-10.063073739178922],["▁highlighted",-10.063357697381779],["▁assess",-10.063624476734027],[".\nLastly",-10.06422516830429],["▁qualified",-10.064245216330924],["▁wait",-10.065531453415613],["▁significance",-10.066810337821616],["▁Serbia",-10.067367469313735],["▁24",-10.067634436415116],["▁choose",-10.067930064040159],["▁legally",-10.068034466054794],["3",-10.068071009472973],["▁valuable",-10.068149623906296],["▁condition",-10.07061299383782],["▁facts",-10.071402073672061],["▁driving",-10.073974020177749],["▁holding",-10.074788835116742],["-0",-10.075679613212163],["▁figure",-10.075693480101933],["▁assist",-10.075937600959527],["▁enjoy",-10.076059540092555],["▁referring",-10.076268735679797],["▁fine",-10.076954792707692],["▁amended",-10.079390892866767],["▁Hungarian",-10.079474828135579],["▁claim",-10.079521169367357],["▁disposal",-10.079839022695731],["▁deficit",-10.080283305641757],["I",-10.08030034708661],["▁sustainability",-10.080378249544966],["▁Protocol",-10.080458034381746],["▁Protection",-10.081788414444649],["▁Employment",-10.084011221406417],["▁listen",-10.084656672629105],["▁neighbours",-10.085354645691648],["▁satisfactory",-10.087090813217236],["▁constitution",-10.087191759017268],["▁meat",-10.087815071505208],["▁resulting",-10.087842084447633],["▁B",-10.087975885461217],["▁Vice-President",-10.088573026672808],["▁learning",-10.090444467090897],["▁genuinely",-10.091025829883964],["▁exports",-10.09232376835676],["▁negotiation",-10.093631210585993],["1",-10.093702508019454],["▁code",-10.09421753502534],["▁primary",-10.094862554196212],["▁absolute",-10.09502252914578],["▁boost",-10.096709191199768],["▁apart",-10.098888985278716],["▁regular",-10.099042867683899],["▁Minutes",-10.099175621427781],["▁honour",-10.099304113552073],["us",-10.099376411269304],["isation",-10.099562169890985],["▁remove",-10.099954004308117],["▁milk",-10.101067046436604],["▁adapt",-10.101404740352605],["▁Georgia",-10.102686571999659],["▁anti-",-10.102758230526906],["▁daily",-10.103153196823058],["▁school",-10.103219611460192],["▁actively",-10.103347213491034],["External",-10.105005478192162],["▁deliver",-10.105125675876002],["▁seeing",-10.105303406616287],["▁Commission'",-10.105446407195672],["▁moral",-10.105512428925014],["▁Northern",-10.106562346160235],["▁someone",-10.106788049460635],["▁destruction",-10.10732566441531],["▁suggested",-10.107656375157848],["▁Latin",-10.108140479159442],["▁Control",-10.108255249254725],["▁counter",-10.1085750610363],["▁VAT",-10.109654458558222],["▁preparation",-10.111799923118866],["▁grant",-10.112190460151933],["▁built",-10.113586650698078],[".\nAccording",-10.113822086461802],["▁constitute",-10.114559149017584],["▁Belgian",-10.114937442462384],["▁countries.\n",-10.115227057414453],["▁Thursday",-10.116898036943446],["▁investigation",-10.117510489765774],["▁identify",-10.118286531098752],["▁room",-10.120399047321438],["▁leads",-10.120605700721033],["▁plants",-10.120725427281716],["▁waters",-10.120885880611066],["▁formal",-10.121076632917905],["▁playing",-10.121124091305814],["▁saw",-10.122138261595051],["▁22",-10.122226891236988],["▁wider",-10.124881855367216],["▁retain",-10.125106474468609],["▁television",-10.126085661914715],["▁zone",-10.127144881611548],["▁users",-10.128258559641873],["▁plant",-10.129220457643914],["▁speeches",-10.130453565769029],["▁opposite",-10.130828508437284],["▁determine",-10.13136639173781],["▁sport",-10.13311286306177],["▁concentrate",-10.133327878436791],["▁budgets",-10.133349744921794],["▁indicated",-10.134474887386839],[".\nDespite",-10.13448043840129],["▁spread",-10.136327191867679],["▁previously",-10.13735529680325],["▁possibly",-10.13750951622029],["▁proportion",-10.138278451568999],["▁believes",-10.139053016361814],["▁sufficiently",-10.139391051495558],["▁requests",-10.139574764241143],["▁multilateral",-10.139841859628998],["▁running",-10.140869807800502],["▁obliged",-10.140989488850574],["▁1995",-10.141067201478297],["▁beings",-10.141743032368886],["▁De",-10.141839048907173],["spite",-10.14208419094227],["▁inadequate",-10.142362409126381],["These",-10.142608789896883],["▁medicines",-10.142754751315149],["▁it.\n",-10.142963655939834],["▁considers",-10.143151760847148],["▁tragic",-10.143195928149824],["Christian",-10.143260200842548],["▁timetable",-10.143271731131316],["▁contain",-10.14330969919706],[".\nGiven",-10.143508121794554],["?\nWhat",-10.145630500893395],["▁identified",-10.145843106218997],["▁aviation",-10.146166117349093],["▁White",-10.146282050163055],["ur",-10.146596697309203],["▁friends",-10.146739925382379],["▁enforcement",-10.147148466095707],["▁willing",-10.148507596744455],["▁links",-10.149013017659573],["▁release",-10.14950391417501],["▁GDP",-10.149803094050323],["▁treat",-10.149974147054664],["▁maintained",-10.150132904594576],["▁Internal",-10.151601952467216],["▁23",-10.152092155757645],["▁Britain",-10.15246397311012],["▁competent",-10.152465045177273],["▁meant",-10.152491173769775],["▁transitional",-10.152707612924525],["▁Austrian",-10.15365164535865],["▁stands",-10.153705201488112],["▁You",-10.15380627190647],["▁check",-10.153874101710912],["▁societies",-10.153923111515267],["▁suffered",-10.15413877189496],["▁satisfied",-10.154409966435857],["▁interpretation",-10.154431296641766],["▁topic",-10.155573106480812],[".\nHere",-10.155667053724255],["▁prisoners",-10.155832822351428],["▁head",-10.156837764192845],["▁completed",-10.156967239062471],["▁West",-10.157258017079513],["▁spend",-10.158117574177776],["▁partly",-10.15876139414611],["▁launched",-10.158874685268287],["▁uniform",-10.159354128713655],["▁compulsory",-10.16027719575164],["▁affects",-10.160757317863883],["▁reconstruction",-10.160762637752317],["▁greatly",-10.160879434874788],["e.",-10.160960492761514],["▁New",-10.161224870323363],["▁urban",-10.161448073948819],["▁becomes",-10.16179915783487],["▁500",-10.161856853925244],["▁G",-10.162618455538981],["▁possibilities",-10.164197174286512],["▁patients",-10.164429278352607],["▁Parliament’s",-10.164860805644256],["▁himself",-10.165181191203942],["▁extreme",-10.166144578816954],["▁afternoon",-10.166659057372971],["▁deserves",-10.166732548581365],["▁wine",-10.167630210396489],["▁front",-10.167692250828313],["▁conducted",-10.167737806432777],["▁BSE",-10.168680567303756],["▁van",-10.168841376547668],[".\nNot",-10.169395426828395],["▁Finland",-10.170610623345317],["▁intellectual",-10.170694263667226],["They",-10.171052824231577],["▁went",-10.171114151035795],["Secondly,",-10.172596561255071],["▁helped",-10.173097230250253],["▁chosen",-10.173877442553714],["▁issued",-10.174121949898439],["▁version",-10.174181584372523],["▁drug",-10.175837451673964],["▁carrying",-10.176375476945854],["▁schemes",-10.176887710903223],["▁hearing",-10.177012109476792],["▁debated",-10.177148054387219],["▁elsewhere",-10.177148984427667],["▁moreover",-10.177588503076839],[".\nPerhaps",-10.177658227963548],["▁attempts",-10.177819939678425],["▁double",-10.17827314185499],["▁complicated",-10.178605238327474],["▁PPE-DE",-10.179059970019193],["▁eight",-10.179068236605987],["▁species",-10.179191233176024],["▁ratified",-10.179571063134924],["▁wide",-10.180565833559967],["▁guaranteeing",-10.180893862809311],["▁numbers",-10.181059966984698],["▁options",-10.18156553216265],["▁gap",-10.182026429133618],["▁bit",-10.182033491783969],["▁Safety",-10.182238930197226],["▁facilities",-10.183061207773088],["▁Kyoto",-10.184205075664863],["▁sets",-10.185031581853522],["▁enhance",-10.185063587388726],["▁extra",-10.185393416321496],["▁definitely",-10.185850842612542],["ive",-10.186205171670577],["▁proof",-10.186796513243536],["▁implications",-10.187498197864153],["▁seeks",-10.18783645576801],["▁policy.\n",-10.189576719741437],["▁feed",-10.189783955136246],["▁southern",-10.191115690940023],["▁sugar",-10.19313461802783],["▁poorest",-10.193774707549474],["▁worldwide",-10.19414701297779],["▁size",-10.196377815620867],["▁sorry",-10.196836232894587],["▁replace",-10.197689977613017],["▁surely",-10.197748009878705],["▁cities",-10.198223780817065],["▁successfully",-10.198551511380092],["▁report.\nI",-10.199101363888781],["neighbouring",-10.19933897172702],["▁Europol",-10.199747849712143],["▁prospects",-10.199906397123351],["▁massive",-10.199998167560075],["▁Danish",-10.201776747044367],["▁Pakistan",-10.203485631461385],["▁Food",-10.204337337226761],["▁diplomatic",-10.206302715362755],["▁Belgium",-10.207234369424933],["With",-10.20734904576385],["▁generation",-10.20852826189139],["▁constant",-10.208688598395245],["▁openness",-10.208759880476832],["▁intentions",-10.208938947192143],["▁mistake",-10.210946786296748],["▁exception",-10.211015987103867],["?",-10.21126452672492],["▁Nice",-10.211536249307457],["▁Democrats)",-10.212023464169935],["▁addressing",-10.213135880966497],["▁stock",-10.213371519606525],["▁supposed",-10.214256464947653],["▁extensive",-10.214295633208152],["▁advertising",-10.21514200320361],["ably",-10.21547596456007],["▁centres",-10.215542234757509],["▁tragedy",-10.215658716451571],["▁Union.\nThe",-10.217334280723609],["▁legislation,",-10.217450777195419],["▁stressed",-10.21825974620211],["▁harmful",-10.21855269414751],["▁hundreds",-10.218869792319218],["▁healthy",-10.220274607440668],["▁producing",-10.220427360039118],["▁phenomenon",-10.220849488420011],["purely",-10.222132874690079],["▁news",-10.222425113346695],["2",-10.222746821252418],["▁accident",-10.22403667881498],["▁Hungary",-10.224499128010429],["▁Home",-10.225056187872287],["▁schools",-10.225155946333546],["▁unanimously",-10.225218650252028],["▁stake",-10.225710553932092],["▁sum",-10.22648914755079],["▁heavy",-10.227234712249949],["▁First",-10.228122209216115],["▁easily",-10.228162135102547],["▁ports",-10.228369286370146],["▁depends",-10.228918733014247],["▁worst",-10.229211178067121],["▁taxpayers",-10.229218060270405],["▁worrying",-10.22922593030982],["▁Barcelona",-10.230468199131332],["▁passenger",-10.230761891958936],["▁foremost",-10.230787221975394],["▁Korea",-10.23089550810593],["▁background",-10.230942838115729],["▁demanding",-10.23152463580221],["v",-10.231632007445373],["▁opened",-10.231802624743448],["▁skills",-10.23181186057105],["▁Polish",-10.232717996496186],["▁Partnership",-10.233418388900693],["▁Regional",-10.233993696489662],["0",-10.234024981698866],[".\n(PL)",-10.234457080573836],["▁proud",-10.235000686750103],[".\n(The",-10.235327132384366],["V)",-10.235332219430248],["▁dispute",-10.235922868122426],["▁tools",-10.236275740410626],["▁rapidly",-10.236999588578808],["▁achievement",-10.23700823846259],["▁considerations",-10.23705843090001],["▁players",-10.237339456625243],["▁governing",-10.237605847390594],["me",-10.237963300215796],["▁correctly",-10.240703970305761],["▁essentially",-10.240770126459136],["▁texts",-10.242196313244753],["▁extending",-10.243556882943535],["ural",-10.244529611811172],["▁acting",-10.245123486919146],["ment",-10.245256172860223],["▁considerably",-10.245346646823304],["▁Question",-10.245779424832994],["▁crises",-10.246147296280524],["The",-10.246192423448823],["▁pensions",-10.246306341493499],["enabling",-10.246681182481423],["▁prior",-10.247720712022526],["▁problem,",-10.247885857236263],["▁threats",-10.248527061938134],["▁refers",-10.248574817590676],["▁savings",-10.24872382923009],["▁beef",-10.24886580527045],["▁deals",-10.249157420993892],["▁them.\n",-10.249442833529267],["ter",-10.251231485238035],["▁charges",-10.251468761477836],[".\nS",-10.252425074622728],["▁Japan",-10.253106381250957],["▁focused",-10.253128781635525],["▁Liberal",-10.254462477926062],["▁granting",-10.25448487398417],["▁P",-10.254570011591369],["▁profits",-10.25531224577553],["▁bureaucracy",-10.25587033438384],["▁remaining",-10.2564882908082],["▁promised",-10.256679917223748],["▁geographical",-10.25696077838792],["▁inter",-10.258890147239555],["▁Bosnia",-10.25894303869827],["▁heritage",-10.259040396642781],["▁tele",-10.259564726749378],["▁advice",-10.259581119288118],["▁manufacturers",-10.259649043048093],["▁decades",-10.260265621977538],["▁reliable",-10.26066367162123],["▁clarity",-10.260663945877605],["▁strength",-10.26119788060529],["▁chairman",-10.261202477315273],["?\nIt",-10.262487106530779],["▁200",-10.262834148940001],["▁reaction",-10.263213519974293],["▁Common",-10.263322057425754],["▁green",-10.263509670207249],["▁paying",-10.263907707797385],["▁claims",-10.26393590906265],["▁oppose",-10.264524366301492],["▁core",-10.26497911426376],["▁launch",-10.26597718254617],["▁advantages",-10.26657805010359],["Finally",-10.266686434384884],["▁experienced",-10.267179162999302],["▁cuts",-10.269971374486408],["▁powerful",-10.270022310658584],["▁suitable",-10.270504242238598],["▁recall",-10.272981750116067],["▁increases",-10.27375588908263],["▁declared",-10.273832729017998],["▁encouraged",-10.274176515611012],["▁modified",-10.274316349894312],["relatively",-10.274365053453291],["▁performance",-10.275403756073743],["▁island",-10.275581859584834],["7",-10.277434538244425],["▁feeling",-10.27745310892755],["▁contributed",-10.279535610167555],["▁regrettable",-10.279800612282907],["▁eastern",-10.279803590947552],["▁biggest",-10.280905066466289],["▁unnecessary",-10.282010946069942],["▁emphasised",-10.282052819158324],["▁convention",-10.282625733154454],["▁favourable",-10.282961739581257],["▁26",-10.285507821789398],["▁reflected",-10.285793835301433],["▁certainty",-10.285893319595965],["▁legitimacy",-10.28644676932376],["▁article",-10.287029057733328],["▁removed",-10.287517711734557],["▁doubts",-10.287811069058321],["▁rich",-10.287927034791021],["▁Cooperation",-10.289970486519454],["▁heading",-10.28997939472163],["▁Left",-10.290344254468861],["▁applicable",-10.290683402739344],["▁historical",-10.29070156968401],["▁2011",-10.290760106016048],["▁succeeded",-10.291175986763108],["▁imagine",-10.291591242535008],["▁arise",-10.291657027431711],["▁thorough",-10.291683869218296],["▁undertakings",-10.293532655458028],["▁deep",-10.294842392420492],["▁Authority",-10.295377891812034],["▁willingness",-10.295456975988674],["▁wealth",-10.296609417609737],["▁violation",-10.296625503913024],["▁secret",-10.297084759196414],["▁entered",-10.297180135246542],["▁engage",-10.298219786395867],["▁regarded",-10.29829497047221],["▁intervene",-10.29831977663508],["ising",-10.298860051441316],["▁justify",-10.299985511108467],["▁healthcare",-10.301036232792352],["▁31",-10.301158644202392],["▁negotiated",-10.302047809067131],["▁airlines",-10.303473977579243],["▁Growth",-10.30438949907872],["▁competences",-10.304796101294523],["▁F",-10.305856365373945],["▁save",-10.307910016133158],["▁sake",-10.308364700444091],["▁dynamic",-10.308383070030354],["▁communications",-10.309318896101814],["▁vast",-10.310068260640861],["▁restore",-10.310802888225368],[".\nLast",-10.312306012185473],["▁ships",-10.312369493503423],["▁rapporteur's",-10.31321716609624],["▁carbon",-10.313918223491621],["▁applications",-10.314124359159727],["▁courts",-10.315097429546586],["▁firms",-10.315309292142842],["-based",-10.316972841328287],["▁leader",-10.31719729979489],["▁constitutes",-10.317242199381084],["(PL)",-10.317505019062082],["▁consequence",-10.31817981661911],["(EL)",-10.319209059732563],["▁everybody",-10.319803568214146],["▁reservations",-10.319940034570315],["▁Let",-10.320550979375824],["z",-10.320777039126165],["▁simplification",-10.324075710007111],["▁nationals",-10.324439144568126],["▁Christian",-10.325534429604351],["Joint",-10.325550194663432],["▁20%",-10.325608541137324],["▁respects",-10.325823566818437],["▁incorporated",-10.325846148879034],["▁reiterate",-10.325948415139731],["-related",-10.32608488367282],["▁negotiate",-10.326274445252363],["▁Presidents",-10.326466942446142],["▁reinforce",-10.32676986083408],["▁My",-10.326973965402317],["▁reaching",-10.327227332482458],["▁afraid",-10.32728034050609],["▁utmost",-10.327859395772064],["▁Plan",-10.328014290710652],["▁cancer",-10.328127617930797],["▁citizenship",-10.329103455956385],["▁protocol",-10.329176101653825],["▁fairly",-10.329564608396504],["▁sought",-10.329776742609141],["▁Cuba",-10.330397736069425],["▁weak",-10.3305338920216],["▁explanation",-10.330779748287098],["▁supplementary",-10.330786375964156],["▁tests",-10.33144684142388],["▁smaller",-10.33220633754182],["▁applicant",-10.332785000857132],["▁profit",-10.33283056110744],["and",-10.333016015598101],["▁eliminate",-10.333240840695218],["▁aside",-10.333245312477512],["▁patent",-10.333834377614266],["▁deeply",-10.333887586201044],["▁targeted",-10.334298258960546],[".\nInstead",-10.334434568573112],["ies",-10.335355020812468],["▁greenhouse",-10.336006854601745],["▁endeavour",-10.336193545707289],["▁piece",-10.336302829887334],["▁terrorism,",-10.336441832852804],["▁bank",-10.337642460805384],[".\nConsequently,",-10.338409108560132],[".\nMore",-10.339245604645754],["ul",-10.340130323499537],["(Parliament",-10.340153974334472],["▁Maastricht",-10.34023223813147],["▁obtained",-10.341287465299636],["▁ECB",-10.34188206097998],["▁charge",-10.342639970880473],["▁hopes",-10.343729005029347],["▁Arab",-10.343899442282165],["▁part-session",-10.343966402188158],["▁EC",-10.344130229063307],["▁fruit",-10.344494124376482],[".\nDur",-10.34468001613255],["▁summer",-10.345427112480294],["▁religion",-10.345761679183207],["▁Denmark",-10.34656790919162],["i.",-10.346772172868484],["▁Yugoslavia",-10.346902335866698],["▁T",-10.347159772448983],["▁deserve",-10.347232356993544],["▁raising",-10.347282579439598],["▁excluded",-10.347978797742494],["▁commit",-10.350638314668593],["▁electoral",-10.350707812974353],["▁Parliamentary",-10.350897113600535],["▁quote",-10.352506982120962],["▁break",-10.352806685533096],["▁differ",-10.354506371568595],["▁leaving",-10.354864650892463],["▁eye",-10.355082833190467],["▁preserve",-10.355627593176822],["▁mark",-10.355704574081813],["9",-10.356819588137991],["▁prospect",-10.35816259972301],["▁Report",-10.359508063475026],[".\nThus",-10.36013076328781],["▁ordinary",-10.36023418951032],["▁complaints",-10.360473404505889],["▁presenting",-10.361606737440571],["▁28",-10.363032383772268],["▁Berlin",-10.364144015490822],["▁employers",-10.364300300005297],["▁consist",-10.36440667208908],["▁necessarily",-10.365031799194393],["▁60",-10.365170789756082],["▁bureaucratic",-10.36553295302561],[".\nOnce",-10.365653614094764],["▁Association",-10.367439263420597],["▁admit",-10.368206459855504],["▁treaties",-10.369289159907382],["▁States.\nThe",-10.369374602675656],["▁settlement",-10.36951426262706],["▁marketing",-10.369967149612062],["▁port",-10.370125028871632],["▁jointly",-10.371367194410713],["▁declarations",-10.37140035367307],["▁credible",-10.372271649745617],["▁yes",-10.372287475970833],["▁repeatedly",-10.372441805772967],["▁b",-10.372540741782368],["▁Time",-10.373374040931338],["▁meaning",-10.374132474948123],["▁suggestions",-10.374323325938796],["▁import",-10.37571546323445],["▁tonnes",-10.376161734444404],["-up",-10.376738391023967],["▁shortcomings",-10.377082068047772],["▁terrible",-10.377736143940933],["▁wording",-10.377798127426093],["▁examined",-10.37786445362513],["▁armed",-10.377897599197215],["▁(S",-10.377952600857574],["▁showing",-10.378505924286923],["▁declare",-10.379857986485735],["▁hit",-10.380053604593032],["▁checks",-10.380420220237497],["▁fleet",-10.381025300814269],["▁racism",-10.38103761462099],["▁revised",-10.381566457982405],["▁amend",-10.381882607646345],["▁incentives",-10.382062033425392],["▁He",-10.382153989932746],["▁trend",-10.382177701143132],["▁representation",-10.383088321847923],["▁outstanding",-10.383230665169746],["▁Culture",-10.383481261242327],["▁surprised",-10.383503092571413],["▁unemployed",-10.383843037210454],["▁Representative",-10.383881722333983],["▁railway",-10.383940769859482],["communications",-10.383985540452741],["▁eyes",-10.384046091752438],["▁underline",-10.386088862399316],["▁Minutes\n",-10.386288321909635],["▁Parliament.\n",-10.386524456945331],["▁pleasure",-10.386910543490378],["▁weight",-10.387498060396593],["▁shape",-10.387713001317174],["▁buildings",-10.388147462217866],["▁combined",-10.38835984986417],["▁restrict",-10.391212495616582],["▁drafting",-10.391492701954316],["tergovernmental",-10.392468048355276],["▁buy",-10.393077760652595],["ised",-10.393539091344586],["▁environmentally",-10.39369439271696],["▁reflects",-10.394000631549808],["▁subjects",-10.39553501106868],["▁creates",-10.396372505386434],["▁29",-10.396703948725875],["▁honest",-10.39728046434822],["▁Tourism",-10.397410931239383],["▁science",-10.39795749800173],["▁Bureau",-10.398032382976051],["▁widespread",-10.398653546929594],["▁bearing",-10.399326628012119],["▁educational",-10.399855919345011],["▁fewer",-10.399873662151666],["▁arrest",-10.40050974423061],["▁disabled",-10.400532064102464],["whereas",-10.401363830790686],["▁stance",-10.401767362640381],[")\n",-10.40306289566741],["came",-10.404260900216862],["▁deadline",-10.404375113152089],["▁losses",-10.404943533436818],["▁exceptional",-10.405159911714254],["▁National",-10.405932139057054],["▁tackling",-10.40676977742729],[".\n(FR)",-10.407386514254224],["▁broader",-10.407870611258922],["▁fresh",-10.408022759591047],["▁resulted",-10.40859859197623],["▁transatlantic",-10.408651736377145],["▁ambition",-10.408835283467639],["▁foundations",-10.40902281219966],["▁transactions",-10.409877476033046],["▁PSE",-10.409909569429274],["▁suspended",-10.410275094681458],["▁expense",-10.410356018311603],["▁expressing",-10.410358534303864],["▁fourth",-10.41091702606243],["▁economically",-10.411372717545305],["▁warmly",-10.411786756141344],["▁Slovakia",-10.412109171607437],["▁red",-10.412750624349401],["▁radical",-10.413334323219306],["▁candidates",-10.413694887495527],["▁students",-10.414188730719866],["▁below",-10.415555932718684],["▁undermine",-10.415588060141797],["▁relate",-10.416501697266947],["▁Van",-10.417145363136608],["▁delays",-10.417331089379617],["▁repeated",-10.418190634860515],["▁turned",-10.418632877395062],["▁airports",-10.419418710379976],["▁none",-10.420170755521822],["▁Civil",-10.420650961979891],["▁Albania",-10.42220105389318],[".\nWithout",-10.422271903234334],["▁picture",-10.422472703504148],["▁liability",-10.423198641585646],["▁belief",-10.423391660574904],["▁satisfaction",-10.423835865143001],["▁youth",-10.424346697307627],["▁penalties",-10.424475633334673],["▁pact",-10.424658030310809],["▁preparations",-10.424722883421605],[".\nHaving",-10.424958165691287],["▁welcomes",-10.425769574893105],["▁coordinate",-10.426602117319455],["▁physical",-10.42693008162825],["▁allocation",-10.427806176639272],["Our",-10.428136025699036],["▁clean",-10.429074495282478],["▁city",-10.429154106527278],["?\nIn",-10.429280041152149],["▁unfortunate",-10.429438938890259],["▁unity",-10.429462380596942],["▁withdraw",-10.431299149732306],["▁prison",-10.432309520321752],["▁aircraft",-10.433451028991495],["▁People",-10.433543995635087],["▁falls",-10.433910077884402],["▁bound",-10.434230695642352],["▁quota",-10.434427532918626],["▁occurred",-10.434745983277402],["▁periods",-10.43509447661765],["▁One",-10.435196855753091],["▁enhanced",-10.435281968523435],["s.\nThe",-10.435356624987605],["▁night",-10.43538143899949],["▁Europe’s",-10.435471505885138],["▁kinds",-10.43551005186364],["▁condemned",-10.435670102208164],["▁inflation",-10.436147715059333],["▁afford",-10.436506229931886],["▁procurement",-10.43731710134669],["▁drafted",-10.438084014331544],["Ladies",-10.438387199188764],["▁unique",-10.438622350626437],["▁Islamic",-10.439010959855619],["▁restricted",-10.439261874223233],["▁Macedonia",-10.439531029263302],["▁expensive",-10.43990304827913],["▁invite",-10.44153061671342],["▁abolition",-10.44155299020224],["▁Gaza",-10.442669002728735],["▁Burma",-10.443132580026418],["de",-10.443778271178196],["▁demographic",-10.44379789257663],["▁regulated",-10.443800113579105],["▁widely",-10.444849415638005],[".\nEuropean",-10.4448496144918],["▁familiar",-10.44488394582657],["▁stay",-10.444922896102309],["▁lessons",-10.44509345999089],["▁lasting",-10.445793391811135],["▁category",-10.445907672030705],["▁couple",-10.44767286275831],["▁lie",-10.447973368391793],["▁presentation",-10.448340590155631],["▁English",-10.448524880386909],["▁gradually",-10.448976364568606],["▁rely",-10.449224975820144],["▁indicate",-10.4501296124975],["▁freely",-10.450516185036086],["▁civilian",-10.450653992509391],["▁Morocco",-10.450802060177365],["▁alcohol",-10.451038392925419],["▁minute",-10.451808139704742],["▁larger",-10.45219802179764],["▁explained",-10.453028172112091],["▁uncertainty",-10.453601961749243],["▁O",-10.453900616666315],["▁indicators",-10.45422237802286],["▁parents",-10.454228360591916],["▁Industry",-10.454916384574448],["▁army",-10.455667836956016],["▁insufficient",-10.456193029750393],[".\nBoth",-10.456671494224139],["▁door",-10.456987093542741],["▁drivers",-10.457789571345625],["▁recommend",-10.45853566589195],["▁regulate",-10.458775622673162],["▁causing",-10.458870273997821],["▁faith",-10.459059306671374],["▁harm",-10.459746176219094],["▁outset",-10.459840282980153],[".\nPresident",-10.460051731918654],["▁importantly",-10.460122717823658],["▁Geneva",-10.46019189873767],["▁collaboration",-10.46019204311051],["▁struggle",-10.460411280672222],["▁covers",-10.461292240111767],["▁unanimous",-10.462589926338241],["▁shares",-10.463058255841615],["▁trial",-10.46433436784881],["▁acquis",-10.464583093867208],["▁raw",-10.465210711838218],["8",-10.465249533488272],["▁receiving",-10.465494995423187],["▁turning",-10.465588374045822],["▁offering",-10.465759007864037],["▁ignore",-10.466075941425327],["▁hence",-10.46621527484],["▁permit",-10.46707453151987],["▁listened",-10.467075795295614],["man",-10.467150302257267],["▁terrorists",-10.467867292958566],["▁regardless",-10.46788546389406],["▁Palestinians",-10.467943810384053],[".\nDo",-10.468167777504945],["▁digital",-10.471014682820147],["▁processing",-10.471258677745169],["▁suggestion",-10.471259379142452],["▁severe",-10.471380613645891],["▁began",-10.47153628556034],["▁ethical",-10.472044960557607],["▁motions",-10.472649145767543],["▁register",-10.472676118491918],["▁deny",-10.472678703435603],["▁promises",-10.473812448319238],["▁financed",-10.473849838191022],["▁qualifications",-10.474039111577273],["▁forest",-10.474615304769387],["▁ecological",-10.47469913870096],["▁nonetheless",-10.474843978171432],["il",-10.474996085517333],[".\nUnder",-10.476189848038349],["▁Act",-10.476190641851096],["▁future.\n",-10.476411050876239],["▁blame",-10.476431020100382],["▁Union.\nI",-10.476453621834416],["▁sovereign",-10.478204021812497],["▁tribute",-10.478877597051495],["▁undertaking",-10.479812460824263],["▁sphere",-10.480637491479634],["▁strike",-10.48079576794785],["▁killed",-10.481783101648341],["▁chain",-10.482100813624488],["▁minister",-10.48256057566393],["▁Lithuania",-10.482741500863646],["lying",-10.482794784471123],["▁elderly",-10.482958071614215],["▁War",-10.483157891198736],["▁All",-10.483277100569971],["▁belong",-10.4836952791824],["▁extraordinary",-10.48374607314205],["▁undertake",-10.48377009785009],["▁disagree",-10.484487199083572],["▁finances",-10.48497189238935],["▁promise",-10.486253298828464],["▁Office",-10.486533409042933],["▁warning",-10.487068643393872],["▁collection",-10.487701955105791],["▁congratulations",-10.488487744353083],["▁demonstrates",-10.488503754601451],["▁necessity",-10.489033404556197],[".\nNor",-10.48950552558868],["▁battle",-10.489567285047478],["▁deaths",-10.490378580653875],["▁prefer",-10.490693561918027],["▁contacts",-10.490734459393728],["▁push",-10.490836086420346],["▁territories",-10.491077001918335],["▁reserve",-10.491793556911716],["▁informal",-10.492532270463704],["▁team",-10.49255858084797],["▁frequently",-10.494202646790095],["▁noise",-10.495184272601225],["▁viable",-10.495192623139818],["▁observed",-10.495586420210484],["▁follows",-10.49597932016847],["▁count",-10.496619873752387],["▁organise",-10.496794540194246],["▁engaged",-10.497068056450058],["▁transit",-10.497165741553573],["▁dumping",-10.497421424018565],[".\nBecause",-10.498306543361219],["▁Zimbabwe",-10.498307411220328],["nearly",-10.498755128074347],["▁populations",-10.499763695554076],["▁contract",-10.500049309858746],["▁beneficial",-10.500062120182818],["▁compatible",-10.50135810646914],["▁post",-10.50157185548376],["▁grow",-10.501572245384667],["▁supplies",-10.50204741465246],["▁promoted",-10.50222927573077],["▁medium",-10.504107889578119],["▁section",-10.504474822085855],["▁prevented",-10.505066322835606],["When",-10.506762854972282],["▁generations",-10.50773011435892],["▁EMU",-10.508271392441348],["▁Europe.\nThe",-10.509064532808152],["ce",-10.510140192248627],["▁London",-10.511050117775229],["▁usual",-10.511332946401197],["▁arising",-10.511751317907606],["▁abstained",-10.512082517618087],["▁solid",-10.512531615020082],["▁sincerely",-10.512624745782633],["▁nobody",-10.513934372912697],["▁pursued",-10.514584269188699],["▁m",-10.515164079355868],["▁biodiversity",-10.515232764838693],["▁parallel",-10.51523276533139],["▁Union'",-10.516110231006543],[".\n(Applause)\n",-10.516153201585258],["▁Soviet",-10.516630692229558],["(IT)",-10.517725271317907],["▁clearer",-10.518630867708012],["▁vehicle",-10.519176847142532],["▁IGC",-10.519433114313227],["▁revenue",-10.520287749414695],["▁sending",-10.520674586489228],["▁slow",-10.520804829183712],["▁marine",-10.52224465329875],["▁associations",-10.522818220117099],[".\nJust",-10.523245882204293],["▁looked",-10.52333845133445],["▁occur",-10.523621909850089],["▁Socialists",-10.523666734802003],["▁shortly",-10.524443545352048],["▁moved",-10.524887332297546],["▁crops",-10.525351987865267],["▁journalists",-10.52551893438181],["▁exclusively",-10.525671950018072],["▁efficiently",-10.526332044852586],["▁Centre",-10.526472792788038],["▁talked",-10.526622657361173],["▁c",-10.528077153653712],["▁approximately",-10.528455681283354],["▁emerging",-10.528594425818135],["▁Rome",-10.528700540457315],["▁accompanied",-10.529323076350074],["▁Americans",-10.53124537099745],["▁Service",-10.53270564253555],["▁wage",-10.534038950798998],["▁surveillance",-10.534987935431165],["▁rejection",-10.535056086246],["▁Free",-10.535158680957249],["▁congratulating",-10.535699251130445],[".\nM",-10.535921194521565],["▁clarification",-10.536147303811713],["▁friendly",-10.536549834821102],["▁observe",-10.53714692966901],["▁forum",-10.537199421653156],["▁banking",-10.537766497276895],["▁Finnish",-10.538654136070901],["▁distinction",-10.538810373991925],["▁divided",-10.53882214006013],["▁percentage",-10.539384693246443],["▁observation",-10.539693625803821],["▁spring",-10.539988417279712],["Single",-10.540016370974381],["▁2013",-10.540031934760208],["▁rising",-10.540706000828289],["▁Declaration",-10.540955734887866],["▁northern",-10.541424938129113],["▁harmonised",-10.543170897728869],["ffecting",-10.54332983867941],["▁accessible",-10.543700811917237],["age",-10.543706456028957],["▁choices",-10.545207655010884],["▁circumstances,",-10.545708303168661],["(NL)",-10.545778643221968],["▁troops",-10.54731399548378],["li",-10.54733465899543],["▁loans",-10.548378998798842],["co",-10.548488950479186],["▁react",-10.549806966574732],["▁refuse",-10.550421101920545],["▁friend",-10.550465021042713],["▁simplify",-10.550572548343759],["▁Canada",-10.55060778294159],["▁Egypt",-10.550609185120944],["▁Petitions",-10.551183878914477],["▁D",-10.551913476638747],[";\n",-10.55214641305052],["▁conventions",-10.552928016973862],["▁puts",-10.553487299047541],["▁begun",-10.553694547284623],["▁judgment",-10.553787222892687],["▁division",-10.553900451306212],["▁textile",-10.55406508440208],["▁route",-10.554101784519649],["▁apparent",-10.554936132493236],["▁alongside",-10.555021870887067],["▁host",-10.555151066539576],["▁compete",-10.555330176689214],["▁experiencing",-10.555865580050172],["▁Chechnya",-10.555865580050172],["ial",-10.556264368657185],["▁stations",-10.556663628751949],["▁disappointed",-10.55740183858484],["▁trans-European",-10.558053269371946],["▁blood",-10.55844290125805],["▁defending",-10.55861812419683],["▁respecting",-10.559046922665104],["▁campaigns",-10.559313047932378],["▁strictly",-10.559634314724876],["▁coherence",-10.563167547438509],["▁p.m.",-10.563997647138159],["▁consulted",-10.564251121067844],["▁surrounding",-10.567013047539428],["▁roads",-10.567032268459775],["ent",-10.567165828762377],["▁conservation",-10.567329867134564],["▁evident",-10.56749139843485],["▁torture",-10.568585234465049],["▁Statute",-10.569785218336593],["▁image",-10.570553974253617],["▁unions",-10.570558356453526],["▁directed",-10.570677123624122],["▁Parliament'",-10.570814717545765],["▁enlarged",-10.571362342728806],["▁forests",-10.571649240064227],["▁resource",-10.571891381238059],["▁Atlantic",-10.57200087813484],["▁desirable",-10.57274052118222],["▁tend",-10.573241736778023],["pursuan",-10.575055989386454],["▁organizations",-10.575377135891188],["▁N",-10.575858071570092],["x",-10.57639674592075],["▁Year",-10.576450515832654],["▁alternatives",-10.577249989857261],["▁protest",-10.578291199616414],["▁tangible",-10.57867745859307],["▁unanimity",-10.579422060209264],[".\nTherefore",-10.57967892996226],["▁threatened",-10.579787226598398],["▁standing",-10.580964532104558],["▁soil",-10.581018628891085],["▁connected",-10.581052473613326],["▁report.\nThe",-10.581165720237069],["▁ideal",-10.58190726400121],["▁replaced",-10.582286477289006],["▁acceptance",-10.582339190747499],["▁writing",-10.583231673631916],["▁victim",-10.583810699670373],["▁threshold",-10.585005407075709],["▁railways",-10.585316140330521],["▁tradition",-10.585322430356726],["▁yourself",-10.585398956758748],["▁traditions",-10.585946182782763],["▁OLAF",-10.58614854272254],["▁permitted",-10.586928458362252],["▁liberal",-10.587088810779182],["▁ruling",-10.58735013469207],["M",-10.587447044010812],["▁Labour",-10.58764948183849],["▁timely",-10.5880275332817],["▁L",-10.588033712978923],["▁agrees",-10.58856745929868],["▁refused",-10.589187086832105],["▁justification",-10.589420988597665],["ling",-10.58942149041047],["▁Palestine",-10.59167008389952],["am",-10.591842037543895],["▁confusion",-10.592166505310017],["▁forgotten",-10.59250941421411],["▁procedural",-10.592920577335292],["▁reconciliation",-10.593675864312893],["imposing",-10.594340670979179],["▁respective",-10.594605374505889],["▁countries.\nThe",-10.59475050022926],["▁items",-10.595144558539186],["▁migrants",-10.595815143485677],["(HU",-10.596298695763124],["▁sharing",-10.596702773776649],["▁defining",-10.597460988491294],["\nMr",-10.59786281966948],["S",-10.598526937510947],["European",-10.59893286920316],["▁mobile",-10.598979511717532],["postal",-10.59983413596914],["▁farms",-10.59985472972502],["▁contributing",-10.600499241426316],["▁1994",-10.601276610143334],["▁chemical",-10.601327967789032],["▁follow-up",-10.601377830941225],["▁lacking",-10.601909160460359],["▁valid",-10.60218244805916],["▁notice",-10.602308780686842],["▁joined",-10.60289037784992],["▁(debate)\n",-10.603549040357137],["▁equivalent",-10.604310221463914],["▁highlights",-10.605718293031028],["el",-10.605794062294297],["▁reflection",-10.607402176460164],["▁house",-10.607521741833255],["▁controversial",-10.60824951740873],["▁worthy",-10.60957739012144],[".\n-",-10.610453607519645],["▁era",-10.611026688096807],["▁perspectives",-10.611137107685039],["▁showed",-10.611200643450342],["▁integrity",-10.611206800185492],["▁impetus",-10.611206801462636],["▁estimated",-10.611362231424277],["A",-10.611571189156507],["▁Investment",-10.61197603095733],["▁residence",-10.611976842837041],["▁dramatic",-10.612686595859714],["▁scrutiny",-10.61274585398807],["▁H",-10.612962899052006],["▁Defence",-10.613033418492396],["▁characteristics",-10.613655534378907],["▁breach",-10.614426659247952],["▁reported",-10.614848314767041],["ritten",-10.614998390072623],["▁categories",-10.615059779280253],["-Mediterranean",-10.615189415447162],["▁helpful",-10.615950876269562],["▁motor",-10.615996437782968],["▁track",-10.617658545099989],["▁authorisation",-10.61784474919413],["▁housing",-10.618925893300824],["▁observers",-10.619102805428048],["owing",-10.619403876751235],["▁commend",-10.619681751130383],["▁Malta",-10.619701088406416],["▁short-term",-10.619720336462958],["▁keen",-10.62198803567108],["▁emission",-10.62271944792849],["▁slightly",-10.623101921122622],["▁achievements",-10.623457513458533],["▁Dublin",-10.623586068336557],["▁whatsoever",-10.623586068853376],["ful",-10.623850932418001],["▁interim",-10.624397318334047],["▁logical",-10.624422610433717],["▁consequently",-10.624628969989217],["▁assessments",-10.624915334050353],["▁Europe.\nI",-10.62525885192855],["▁raises",-10.625262473685888],["▁signing",-10.625687335337393],["ory",-10.625800885769257],["▁market.\n",-10.625904032637203],["less",-10.626248192324223],["▁destroy",-10.626762077942494],["▁intensive",-10.627418006757301],["▁missing",-10.628098399243523],[".\nOver",-10.628261105041872],["▁coastal",-10.628380742165092],["▁approaches",-10.628736168051326],["▁sales",-10.628849626226902],["B",-10.629245157476332],["▁resumed",-10.629251789036616],["▁subsequently",-10.629923803465434],["▁length",-10.630275088477138],["▁inside",-10.631302413382942],["▁joining",-10.631994527178662],["▁adverse",-10.632186591750028],["▁contrast",-10.632186595657211],[".\n(IT)",-10.632283407898132],["▁50%",-10.63306261331361],["▁systematic",-10.63376994312383],["▁finally,",-10.63399477409072],["▁preventive",-10.634060794806471],["▁thousand",-10.63588089837721],["supervisory",-10.636332439489438],["▁destroyed",-10.636751628717295],["▁fast",-10.637639982283439],["▁hoped",-10.637755439939347],["▁plays",-10.638083298447288],[".\nWhere",-10.63918502666295],["▁confident",-10.639251987694056],["▁chapter",-10.639271429785143],["(The",-10.64061948509725],["▁Moldova",-10.641502062424749],["▁imported",-10.64167713962173],["s.\nI",-10.641762447256632],["▁withdrawal",-10.641879254871549],["▁banned",-10.642495540642749],["▁cultures",-10.643189959090849],["▁subsequent",-10.643943631643815],["▁managing",-10.644044953654399],["▁warm",-10.644124488563751],["▁distributed",-10.644942300820851],["▁net",-10.645091258495086],["▁representing",-10.645801707411888],[".\nCan",-10.645897590434107],["▁nine",-10.647206818005104],["outermost",-10.647220549449909],["▁ratify",-10.647949400400371],["▁universities",-10.648015965594354],["▁preliminary",-10.64801668231124],["▁advocate",-10.648075686286724],["▁regularly",-10.649460317322937],["▁resistance",-10.64962133399177],["▁judge",-10.64978886774835],["▁advanced",-10.649944106596827],["▁error",-10.650153653738187],["▁information,",-10.650235341859865],["▁expansion",-10.650412065947709],["▁genetically",-10.650765595844378],["▁funded",-10.651214721701898],["▁flows",-10.651326561461389],[".\nFollow",-10.65183776327512],["▁neighbourhood",-10.652816942680914],["▁investors",-10.652852777733518],["▁freight",-10.653616132648683],["▁hundred",-10.654264207597341],["▁comparison",-10.654605573539346],["▁jurisdiction",-10.654883828288254],["▁occupation",-10.654903398673214],["▁woman",-10.65537362701609],["▁System",-10.65602561956801],["▁envisaged",-10.656255831154127],["▁integrate",-10.656412794836058],["▁Ashton",-10.657635277836558],["▁controlled",-10.657757867188975],["▁ambitions",-10.65820398872409],["Rule",-10.658285577931494],[".\nQuestion",-10.658495144352127],["▁appointment",-10.65852629900417],["▁losing",-10.659252771607193],["▁mistakes",-10.659485979746904],["▁conviction",-10.660637104844277],["▁participating",-10.660862388059133],["▁consent",-10.660867869883699],["▁exchanges",-10.66113669310807],["▁failing",-10.662749030871616],["▁gained",-10.662959629817738],["▁Parliament.\nI",-10.663303947737806],["▁300",-10.664265497689495],["▁K",-10.664704618472218],["▁restrictive",-10.664960431182212],["ous",-10.665250105942953],["▁convince",-10.66529554641117],["▁fire",-10.665846435251781],["▁drive",-10.666816189279258],["▁inhabitants",-10.666981884756702],["▁policy.\nThe",-10.66738835927945],["▁solved",-10.66838976799885],["▁providers",-10.668543824842963],["▁disputes",-10.668566134950215],["R",-10.669950458109929],["▁covering",-10.669963794986446],["▁August",-10.673880409585475],["▁perfect",-10.673919692218675],["▁reductions",-10.674792061589319],["▁infringement",-10.674846780092443],["▁tolerance",-10.675024687899281],["▁exceptions",-10.675622916450989],["▁etc.",-10.676039775897978],["▁mandatory",-10.676335013127185],["▁incorporate",-10.676521597375327],["▁eventually",-10.67656684574617],["C",-10.676596002975526],["▁fixed",-10.677313151954532],["▁Monday",-10.67732871124981],["▁agreements,",-10.677948063616022],["Therefore,",-10.679234489197507],["▁stringent",-10.679623140860778],["▁design",-10.680540111911673],["▁delegations",-10.681157926301152],["▁fails",-10.681515941094482],["▁pretext",-10.682942492921743],["▁ALDE",-10.684575686686808],["▁concentration",-10.685315552963564],["▁monitored",-10.685396087140038],["▁organic",-10.685864330322214],["▁hour",-10.686738245583367],["▁movements",-10.686761415005432],["▁executive",-10.687064959983404],["▁older",-10.68785101506019],["▁fifth",-10.687891063387625],["▁abroad",-10.687891396780692],["▁accountability",-10.688083178012311],["Nordic",-10.688716120084106],["▁Brazil",-10.689525221774163],["?\nHow",-10.689835341444834],["▁listening",-10.690105698283885],["▁absurd",-10.690324254943274],[".\nClearly",-10.690700508351012],["▁abuses",-10.690893014588156],["▁Doha",-10.69128228861433],["▁regimes",-10.691406706738126],["▁functions",-10.691471276799682],["▁States.\nI",-10.691529589935318],["▁sentence",-10.69188306987722],["▁Communist",-10.692356669838858],["▁fuels",-10.692492806573627],["▁decent",-10.69297683389459],["▁Lebanon",-10.693256153916614],["▁decline",-10.693291439847915],["▁ignored",-10.693420855268785],["▁wages",-10.693570408380783],[".\nPeople",-10.693743929701078],["▁Patten",-10.694557452540664],["▁consistency",-10.694560270772712],["▁examination",-10.694566252484933],["▁anniversary",-10.694799112903688],["▁2012",-10.695145379149547],["▁signs",-10.695216714389716],["▁pursuing",-10.696227938971974],["▁foundation",-10.696281651232338],["▁Citizens'",-10.696334097122923],["▁Solana",-10.697065440566348],["▁founded",-10.697191013851283],["?\nIs",-10.697761177031715],["▁birth",-10.69873831252302],["▁dead",-10.698778046671734],["▁block",-10.699283251215004],["▁resolving",-10.700422550643383],["▁detention",-10.700422718849957],["▁investigations",-10.70058133879467],["▁popular",-10.700609251946016],["▁search",-10.70123436374293],["▁gross",-10.70126366225171],["▁infrastructures",-10.701340527979761],["▁registration",-10.701388610156172],[":\n",-10.701721535053604],["ig",-10.70217098082343],["op",-10.702625383151105],["▁containing",-10.704170902606833],["▁ex",-10.704198401172182],["▁expertise",-10.704634982995955],["▁foster",-10.70469998378876],["▁Education",-10.704877781599398],["▁female",-10.705479643417128],["▁assets",-10.705963314591868],["▁35",-10.70695583452149],["▁humanity",-10.70745433916732],["▁dangers",-10.70760950770703],["▁marked",-10.708099415641556],["▁pilot",-10.708336886719557],["▁statute",-10.708372157319484],["▁president",-10.708684407890711],["▁sad",-10.708760359110812],["▁card",-10.709258592298076],["▁answered",-10.709874679498595],["▁sight",-10.710145985610325],["▁looks",-10.710424590136604],["▁evaluate",-10.710984196703887],["▁vote.\n",-10.711641200391687],["▁autonomy",-10.712262011958774],["▁meantime",-10.712315868101742],["▁stakeholders",-10.712917654668152],["▁arrive",-10.713075773522451],["▁Iraqi",-10.71352449060504],["▁fears",-10.714607053549386],["▁outlined",-10.715068147791031],["lbeit",-10.715670913969475],["▁accepting",-10.715841726570943],["▁chemicals",-10.716201692595941],["lo",-10.71637843519538],["▁south",-10.716502233206267],["▁acknowledged",-10.716505644924554],["▁flow",-10.716599791755504],["▁Millennium",-10.716633861022661],["▁variety",-10.71737929467357],["▁Cohesion",-10.717527518319962],["▁suggests",-10.717672270097875],["▁tough",-10.718866339164984],["tic",-10.719864717859608],["▁tonight",-10.719961035750464],["▁proven",-10.720281786128435],["▁Wednesday",-10.720305632778418],["▁experiences",-10.720660482605744],["▁V",-10.720724381803844],[".\nObviously",-10.721571191151309],["▁invited",-10.72239975029063],["▁Objective",-10.722588378047103],["▁collapse",-10.722954809237947],["▁Tunisia",-10.723261468835751],["▁prompt",-10.723301610054559],["▁imperative",-10.724243326753072],[".\nC",-10.72522037284672],["▁world.\n",-10.725482038611993],[".\nShe",-10.726156891318052],["▁rights.\n",-10.726588738458014],["▁stages",-10.726615807114623],["▁third-country",-10.726863582299043],["▁win",-10.72717171442849],["▁train",-10.727320550961156],["▁visited",-10.727404905680245],["▁time.\n",-10.727421713378792],["▁level.\n",-10.727893364137191],["▁10%",-10.729616604050062],[".\nAny",-10.730124411004155],["ch",-10.73018091059016],["▁employed",-10.730615551399067],["▁consolidation",-10.731154800781244],["▁virtually",-10.731407879807149],["▁criterion",-10.73202210346983],["▁liked",-10.732053901192092],["▁finish",-10.7323209789753],["▁Libya",-10.73281493124481],["▁denied",-10.732969143549283],["▁modernisation",-10.733873131147892],["▁furthermore",-10.734692693509576],["▁exploit",-10.734851091946862],["▁except",-10.735040913774924],["▁falling",-10.735315917828524],["▁Criminal",-10.73549885599333],["▁violent",-10.735504620435405],["▁models",-10.735780203762873],["▁criminals",-10.735789478881587],["▁Greens",-10.736154659923884],["▁(EC)",-10.736399425496762],["▁Verheugen",-10.737241775713484],["▁Sudan",-10.738109777906374],["▁refugee",-10.73843980812643],["▁murder",-10.73849652751269],["▁entering",-10.738878003093024],[".\nNonetheless",-10.738934403526663],["▁dossier",-10.739170256494301],["▁exert",-10.73965785891098],["▁excuse",-10.74007843439514],["▁learned",-10.740587006313827],["▁Syria",-10.740668576725682],["▁compromises",-10.741415931692416],["▁fifteen",-10.741612461233089],["▁Democratic",-10.741734795661493],["▁citizens.\n",-10.742360249841948],["▁maintenance",-10.742488839587764],["▁offices",-10.742592243466829],["▁sympathy",-10.74336602893505],["▁EIB",-10.744243994942218],["▁renewed",-10.74450745689634],["▁hopefully",-10.745573702721344],["▁Decision",-10.746737473421335],["▁cutting",-10.746891808122282],["▁argue",-10.747642849779144],["▁prime",-10.748111812255946],["▁actors",-10.748164926140007],["▁visible",-10.748645450547453],["▁substantially",-10.748675057917765],["▁endorsed",-10.748889417579436],["▁died",-10.749148830011698],["▁accounting",-10.750017035578757],["▁p",-10.75064533116825],["▁disastrous",-10.751295585435365],["▁years.\n",-10.751405963114674],["'.\n",-10.751421477286367],["▁voters",-10.75172797655503],["▁visas",-10.75207162362861],["▁fate",-10.752720414452671],["▁safeguards",-10.752837160564138],["▁fires",-10.752908782416569],["▁Services",-10.753247810605284],["▁fit",-10.753409507189582],["▁incentive",-10.753873332509368],["▁GMOs",-10.754830791595744],["▁features",-10.7558407529883],["non-governmental",-10.756389650931887],["▁released",-10.75660217079062],["▁concludes",-10.756872540311676],["▁indication",-10.757450178242253],["▁badly",-10.75832219554277],["▁black",-10.758383601727623],["▁backing",-10.758576084188306],["▁unilateral",-10.75916177458781],["▁airport",-10.759271506583712],["▁Friday",-10.759740771246499],["▁year.\n",-10.759784846499967],["▁80",-10.76014136755106],["Furthermore",-10.760572499002409],["▁clauses",-10.760813404422045],["▁names",-10.7608804377886],["▁privacy",-10.761073440425191],["▁Santer",-10.761099662232768],["▁cast",-10.761692741919319],["▁essence",-10.76196711877449],["▁appointed",-10.761991647463251],["▁feature",-10.762225994406936],["▁sincere",-10.762340160421047],["▁Schulz",-10.76286155019135],["▁gradual",-10.762914085893474],["▁this:",-10.763253324223502],["▁productive",-10.7633937916226],["▁Chairman",-10.763774689837781],["▁adequately",-10.764651209889227],["▁ageing",-10.765221278620004],[".\nP",-10.76557212089708],[".\nEvery",-10.76600967227716],["▁socio-economic",-10.767346176489015],["▁sites",-10.767571520878011],["▁consistently",-10.768030838640229],["?\nThis",-10.76803555872607],["▁devoted",-10.768689859589026],["▁accordingly",-10.769064889110144],[".\n(S",-10.769904608154771],["▁dictatorship",-10.77140213247769],["▁inspection",-10.771448122590304],["▁die",-10.771525864162488],["▁closure",-10.771604154391422],["Above",-10.771864616336305],["▁borne",-10.772271636920543],["Women's",-10.772319838955013],["usually",-10.772605311286735],["▁Council.\n",-10.772757970750785],["▁sit",-10.772956101986138],["▁i",-10.773684707855423],["▁ceiling",-10.774564233195257],["▁apparently",-10.774814690281286],["▁completion",-10.775468649874004],["▁Solidarity",-10.775468743048517],["▁productivity",-10.775496879074119],["▁avoided",-10.775933953872423],["▁immunity",-10.77728270912626],["▁examining",-10.777282737995083],["▁game",-10.777659704735415],["▁recognises",-10.777821638390154],["▁PPE",-10.778199110564234],["▁acted",-10.77824329344633],["▁damaging",-10.779101204608747],["▁consultations",-10.779248172443161],["▁touch",-10.780524779590163],["▁Liberals",-10.780849571220028],["▁OSCE",-10.78092073721821],["▁emerged",-10.781263464390749],["▁cope",-10.781497422993773],["▁inquiry",-10.781832583668322],["▁catch",-10.781966548472484],["▁attend",-10.782197543736267],["▁straight",-10.78274311667976],["▁resort",-10.782744768663289],["▁1992",-10.782780452755418],["ted",-10.783490668201562],["▁organisations,",-10.78435219067752],["▁explanations",-10.784540336590133],["▁assurance",-10.784761746888236],["▁Union.\nWe",-10.785339217220482],["▁coal",-10.786968647793582],[".\nTheir",-10.787045371138651],["▁irregularities",-10.787323889280799],["▁far-reaching",-10.787334687001211],["▁paragraphs",-10.787709997267651],[".\nMost",-10.788250640185296],["▁deficits",-10.789157644362461],["▁today.\n",-10.789699769124868],["G",-10.790086254776286],["▁character",-10.790197891278236],["▁scientists",-10.790751819466188],["Today",-10.792288810888552],["▁partnerships",-10.79248535926826],["▁leaves",-10.792630561283254],["▁Fischler",-10.792836544030541],["▁everywhere",-10.79287984523485],["▁Scotland",-10.793759053243338],["▁shipping",-10.793768755505162],["▁object",-10.79454395915592],["▁observations",-10.795060372839696],["▁accused",-10.795817050772996],["▁tackled",-10.796117994527613],["▁expert",-10.796457936288734],["▁consolidate",-10.79795706027604],["▁Slovenia",-10.7981570234193],["▁stick",-10.798378685851418],["▁false",-10.799308391205388],["▁title",-10.799312058479186],["ge",-10.799710423298912],["▁initially",-10.80005322669782],["▁storage",-10.800240556955265],["▁arrived",-10.800706728276847],["▁testing",-10.800993000062126],["▁autumn",-10.801169925267207],["ating",-10.80246648892666],["▁'the",-10.80253473760088],["pe",-10.803248357078548],["▁stimulate",-10.803534655980279],["▁heads",-10.803649576304592],["▁Information",-10.804213857438816],[".\nLike",-10.804369161276377],["um",-10.804756868187926],["▁exclusive",-10.806074478107776],[".\nWell",-10.806160895392948],["▁progressive",-10.806643749072533],["▁stem",-10.807562724189523],["▁football",-10.807700789360632],["▁precautionary",-10.80770808355824],["▁Liberties",-10.80863612813516],["▁struck",-10.808636829150029],["▁repercussions",-10.810511421470075],["▁simplified",-10.8105114214701],["▁rigorous",-10.810560721804068],[".\nAre",-10.810618322172347],["▁(H",-10.811751267554017],["▁recommended",-10.812340384606328],["▁personnel",-10.81254637854243],["▁sections",-10.812818898889368],["▁Brok",-10.813330984270667],["▁reserves",-10.813635236571734],["▁desired",-10.81514540100618],["▁silence",-10.815307916989443],["▁shift",-10.815565420502475],["▁grave",-10.816493178750182],["Although",-10.817526045311102],["▁minor",-10.817774781103427],["▁investigate",-10.818566599281228],["?\nIf",-10.818776568578233],["▁meets",-10.818964212727344],["▁fought",-10.819008728469148],["▁volume",-10.819084390963049],["▁sell",-10.81911703846802],["Does",-10.819661385958902],["▁wind",-10.819680416661347],["do",-10.819846535641327],["he",-10.820405604079248],["▁den",-10.820421010599976],["▁attach",-10.82054201606348],["▁repression",-10.82089100257403],["▁sums",-10.821658908663824],["▁hazardous",-10.821841676056689],["▁exemption",-10.82201159247612],["▁dis",-10.82222290262326],["▁dream",-10.822395108465123],["Subject",-10.822445722270732],["▁cheap",-10.822498122513327],["▁corresponding",-10.822507214517685],["▁inappropriate",-10.822697659875082],["▁programming",-10.8227873271251],["▁MEP",-10.82314892042662],["▁enabled",-10.824090492923801],["▁2006,",-10.82411542218988],["▁removal",-10.824689351670223],["▁notion",-10.824775940936785],["▁enshrined",-10.824781943221707],["▁notes",-10.824801723578592],["▁ensured",-10.825861178488971],["▁vocational",-10.826629163392438],["▁sold",-10.826833096419193],["▁Iranian",-10.827058473401694],["▁explicitly",-10.827193068061824],["▁continuation",-10.827549219940284],["▁story",-10.827549254784548],["▁workers'",-10.828495485568167],["▁Congo",-10.828511188360164],[".\nOtherwise",-10.829323213190705],["▁30%",-10.82953911723552],["▁initiated",-10.829799074494419],["ities",-10.830835671028645],["▁colleagues,",-10.830887916222366],["placing",-10.83130901935376],["▁Stockholm",-10.831576141884344],["▁re-",-10.832086307807401],["▁surprise",-10.832987736761405],["▁reporting",-10.833019703000469],["▁Europe'",-10.833227990350283],["▁Reform",-10.833259585233169],["ance",-10.833892064913627],["▁Secretary",-10.83418571429424],["con",-10.8344098390981],["▁seekers",-10.834919142263502],[".\nBefore",-10.835106853519303],["▁component",-10.835116763613216],["CS)",-10.835428741949064],["▁Switzerland",-10.835870379496463],["-General",-10.836077496300977],["▁it.\nI",-10.836095690752114],["▁flights",-10.836878150460757],["▁participants",-10.836956984218755],["▁'no'",-10.837445635898197],["▁delivered",-10.837477491840207],["ut",-10.837797414103857],["▁innocent",-10.838106089419245],["▁Great",-10.83845241123693],["▁logic",-10.83976748658747],["▁attractive",-10.840008865503986],["▁adapted",-10.84037817728978],["▁disadvantaged",-10.840380041987544],["▁statistical",-10.840500809935566],["▁multiannual",-10.841010878168397],["▁exposed",-10.84121918487724],["lifelong",-10.84149797103628],["preparatory",-10.84204862475286],["▁planet",-10.842136056835713],["▁work.\n",-10.84305052644882],["▁fundamentally",-10.844099955421925],["▁harmonise",-10.844455282223805],["▁helps",-10.844535481663346],["ring",-10.845131824349334],["▁democratically",-10.845745897143642],["▁EU'",-10.845850035717273],[".\nRegarding",-10.846030900190774],["K)",-10.846935647722388],["▁Of",-10.847370066960377],["▁wherever",-10.847469415249563],["▁attached",-10.848105020243057],[".\nTwo",-10.848662875292794],["▁speculation",-10.84877529286119],["▁horizontal",-10.848793264732084],["▁sex",-10.849522272800655],["▁farm",-10.84980599028432],[".\nAlso",-10.850084245454521],["L",-10.850330260407654],["▁pace",-10.851713913398106],["▁stricter",-10.852144801076747],["T)",-10.852739269315247],[".\nDoes",-10.852909976207663],["▁sale",-10.85360002420823],["▁blind",-10.853626669823825],["▁forestry",-10.853691136390559],["▁ownership",-10.85464916445407],["▁inequalities",-10.85562515443816],["▁tape",-10.855733476047567],["▁obstacle",-10.855905633597489],["▁transferred",-10.855957056936422],["▁strive",-10.856616252939997],["▁Commission.\n",-10.856688293201666],["▁(vote)\n",-10.856962596570405],["▁linguistic",-10.857590236327042],["▁democratisation",-10.857600815024485],["▁foodstuffs",-10.85814443544688],["▁alarming",-10.859382746251327],["▁biofuels",-10.859621060675114],["▁responses",-10.860257166297329],["▁inevitably",-10.860545903355057],["▁detriment",-10.861022016690663],["▁soldiers",-10.861231029607188],["▁inspections",-10.862963959509198],["stating",-10.863298185451072],["▁intelligent",-10.86337173256748],["▁errors",-10.863837447752491],["▁handling",-10.86388768224765],["ry",-10.864441524838416],["▁twice",-10.864501284474485],["▁criticise",-10.865064226817237],["▁patient",-10.86516234547968],["▁enterprise",-10.86548869606489],["▁own-initiative",-10.865491518612313],["▁Institute",-10.865491560897468],["▁brutal",-10.866423054013925],["▁Re",-10.866620713926178],[".\n(ES)",-10.867070902965132],["▁hunger",-10.867486443486602],["▁presidential",-10.867507157853233],["▁transposition",-10.867665442957279],["▁principal",-10.867678167607107],["▁Romanian",-10.86790310618831],["After",-10.8681053203576],["▁embargo",-10.868416409848148],["▁fulfilled",-10.8684997483044],["▁40%",-10.869562259984587],["▁western",-10.869883536588091],["▁cent",-10.870031895121837],[".\nYour",-10.870759458414955],["cing",-10.870835894556238],["▁openly",-10.871168067689005],["▁appalling",-10.871458713150268],["▁facility",-10.87146012438922],["Before",-10.871890249173239],["▁dependence",-10.872147736167612],["▁saving",-10.87264258838129],["▁socially",-10.872915798630178],["▁objections",-10.872971697371959],["USD",-10.87327808656397],["▁ship",-10.873365546901368],["▁recycling",-10.874455742680304],["▁Day",-10.875582893976066],[".\nAmendment",-10.875629896539888],["im",-10.875636900987903],["▁lists",-10.875689629306656],["land",-10.875810590805457],["▁generate",-10.875954079564096],["▁pressing",-10.876033748772802],["▁race",-10.876283475135953],["▁assured",-10.877669685678207],["▁practically",-10.87832196669192],["▁class",-10.878526840708936],["▁originally",-10.878579553486468],["▁won",-10.878640742913223],[")\nMr",-10.87885349991712],["▁constituency",-10.879470769287245],["▁internationally",-10.879567067632006],["▁homes",-10.879869072989685],["▁north",-10.879996993853606],["▁neighbour",-10.880069759289658],["▁constraints",-10.880195084972073],["▁potentially",-10.881308833619212],[".\nAllow",-10.881938366714007],["▁findings",-10.883870726282835],["▁concessions",-10.884141149318399],["▁closing",-10.884511115752517],["▁persecution",-10.884515820730549],["▁monopoly",-10.884795453835707],["▁producer",-10.88581128253141],["▁routes",-10.885954721473786],["▁abolish",-10.886146334775802],["▁(\n",-10.887157022607605],["▁accurate",-10.887622219185237],["▁decade",-10.88830783421016],["▁wholeheartedly",-10.888729437784272],["▁telling",-10.888831569175276],["1st",-10.88888760945352],["▁donors",-10.889212456734079],["▁Helsinki",-10.889576968641919],["▁fallen",-10.889804510347723],["▁book",-10.89112047412352],["▁wished",-10.891157215684014],["▁GUE/NGL",-10.891610522802473],["▁area.\n",-10.89269730641874],["▁systematically",-10.892701063891831],["▁civilians",-10.893160754612303],["▁ended",-10.893304671730462],["▁travelling",-10.89374050053872],["▁middle",-10.894599732945778],["▁Tampere",-10.894668628925647],["▁composition",-10.894673797035818],["▁post-",-10.895768571175967],["▁recorded",-10.896310731662247],["▁researchers",-10.896893678117312],["▁discipline",-10.896907080078705],["▁serves",-10.896953033026662],["▁Le",-10.897000807486666],["▁posts",-10.897158052861226],["▁revolution",-10.89745145960089],["▁missions",-10.897580576134835],["▁distance",-10.897763893726694],["▁seat",-10.897788687053371],["▁euros",-10.897807356269928],["▁rating",-10.89822319061925],["▁demanded",-10.898423220298085],["tra",-10.898872612173466],[".\n(",-10.89913333975742],["▁floods",-10.89981961701597],["▁Kurdish",-10.900033080728953],["’,",-10.900307071980123],["▁survival",-10.900813040932057],["▁deciding",-10.90081304094253],["▁large-scale",-10.900914230142485],["▁appreciation",-10.901840790161032],["▁disabilities",-10.90184127835905],["▁Federal",-10.901841305778998],["▁year's",-10.901991254718357],["high-quality",-10.902180918098793],["▁1993",-10.90287019027502],["▁possible.\n",-10.902878369485048],["▁automatically",-10.902910389463225],["▁adjustment",-10.903417420369085],["▁remained",-10.90364367938841],["▁comitology",-10.903899462866228],["▁Europe.\nWe",-10.904154628246621],["▁comparable",-10.904162959570343],["▁mother",-10.90495231201312],["▁pillars",-10.905076411291859],["▁abandon",-10.905704301947157],["▁stopped",-10.906042873538063],["▁unemployment,",-10.906190344436048],["▁assessing",-10.906201070540355],["irrespective",-10.906995440294429],[".\nSimilarly",-10.907033261352872],["▁80%",-10.907040142493624],["▁subjected",-10.907840964425562],[".\nRe",-10.908866412421062],["no",-10.90949753098873],["▁broadly",-10.909942801598575],["▁criticised",-10.910549374087669],["▁characterised",-10.911291686200055],["▁AIDS",-10.911919048528661],["▁Bush",-10.91217732273854],["▁refusal",-10.912314924680633],["▁presents",-10.912736211261336],["ated",-10.913059274024224],["▁70",-10.914484914306025],["▁marks",-10.914860665950842],[".\nYes",-10.915251896853995],["▁Procedure,",-10.915354663621402],["▁islands",-10.916305856972395],["ke",-10.91638476515727],["ha",-10.916394481048872],["▁criticisms",-10.917143538876438],["▁lesson",-10.917457217654391],["▁complied",-10.917536692805328],["▁exceed",-10.918233415022296],["▁retirement",-10.918436533445039],["▁bases",-10.918776597398784],["▁coordinating",-10.919476100391675],["▁Verts/ALE",-10.919476100494773],["▁Do",-10.919624483585924],["▁Youth",-10.91966053983349],["▁map",-10.92002766616183],["▁pharmaceutical",-10.920297180668996],["▁genocide",-10.920523220819291],["ver",-10.92135667037015],["▁worried",-10.92157143884036],["▁satellite",-10.922114893028755],["▁Galileo",-10.922145590259863],["▁creative",-10.922620758521695],["▁incidents",-10.92280333285256],["▁remark",-10.922914555116465],["▁adaptation",-10.92294843483554],["▁halt",-10.92304433338841],["▁minds",-10.923130672847332],["▁contradiction",-10.924266613362796],["▁zero",-10.924429422361474],["▁in-depth",-10.924722701662276],["▁delicate",-10.925775333247092],["▁tuna",-10.925777181759777],["▁protectionism",-10.926668307561032],["▁thoroughly",-10.927354577300383],[".\n(NL)",-10.927815549491148],["▁atmosphere",-10.92788392635136],["▁interference",-10.927886658679732],["▁sports",-10.928639483910516],["▁strange",-10.928944930949243],["▁countries'",-10.929506055865463],["▁issue.\n",-10.929779724826009],["▁demonstration",-10.929864693613476],["▁deadlines",-10.930017517059587],["▁How",-10.93097424542428],["▁Globalisation",-10.931075439367005],["▁guilty",-10.931128088775868],["▁Latvia",-10.931170367294799],["ru",-10.931269058880552],["▁Union.\nIt",-10.931481340065577],["▁W",-10.93187325896749],["▁quick",-10.932023241327148],["▁wake",-10.932121952990848],["▁references",-10.932366385825363],["▁policy.\nI",-10.933360776787342],["▁await",-10.933660913866195],["▁indirect",-10.933951175813952],["▁assessed",-10.93466749090178],["▁town",-10.934697263079293],["▁unit",-10.934832668380512],["▁flag",-10.935187617395052],["▁Code",-10.935325098892465],["▁channels",-10.935516067165034],["▁offences",-10.935841073009179],["▁fault",-10.93617690041355],["▁Timor",-10.93641064446336],[".\n(RO)",-10.936699502520169],["▁Algeria",-10.936860383393356],["ve",-10.936891364256056],["▁Black",-10.937804144169963],["▁countries.\nI",-10.938216964627927],["▁medicin",-10.938357629673646],["▁ideological",-10.938720908994593],["▁obtaining",-10.93890953394952],["ub",-10.938949357816842],["▁withdrawn",-10.938992492262695],["un",-10.939167103662278],["▁camps",-10.939967408151071],["▁suspend",-10.940004833300238],[".\nHence",-10.94028929751351],["▁genetic",-10.941656986210898],["ecretary-General",-10.941775251243312],["▁generous",-10.941895577970095],["▁con",-10.94381607869009],["▁1990",-10.944129320054081],["▁correspond",-10.944289473382444],["▁grants",-10.945625295851617],["▁victory",-10.946015487223635],["▁ill",-10.946246205235722],["▁remit",-10.946403212130921],["▁analyse",-10.946676869078033],["▁xenophobia",-10.948140480586417],["▁relief",-10.948228871463222],["▁enforce",-10.948587123156088],["▁persuade",-10.948790395877294],["▁unprecedented",-10.949218066793314],["▁combination",-10.949218066793817],["▁topics",-10.949645400625524],["▁condemnation",-10.949870244538882],["▁rational",-10.950077619395556],["▁Mexico",-10.950205698575633],["▁beneficiaries",-10.950296815444885],["▁banana",-10.950898942350216],["▁realised",-10.95097914343109],["▁arises",-10.951085787639958],["▁authorised",-10.951605292848255],["▁root",-10.952118696769285],["▁Federation",-10.952457810331783],[".\nPlease",-10.953066983943415],["▁Hague",-10.953541648905997],["(",-10.95365067261902],["▁scheduled",-10.953853192932591],["▁moratorium",-10.954623484833757],["▁pesticides",-10.955051151366597],["▁topical",-10.955057959413367],["▁fashion",-10.955744321916889],["▁addresses",-10.95578294050991],["▁heavily",-10.956793924260136],["▁Vienna",-10.957010617713973],["▁Hamas",-10.957888565048027],["▁terror",-10.958130498679694],["▁estimates",-10.958436267753513],["▁transfers",-10.959064000132418],["▁conscience",-10.9593695088539],["▁federal",-10.960226479113118],["▁Asian",-10.960482256800182],["▁reminded",-10.960746112585191],["▁arrested",-10.961152756014142],["▁formally",-10.961543099830001],["▁facilitating",-10.962240578491198],["▁modest",-10.962291062960958],["▁wise",-10.962718751161429],["▁reveal",-10.963231711973549],["▁contributes",-10.964746671632373],["von",-10.965147209343765],["▁clarified",-10.965522774405361],[".\nOther",-10.965627075358134],["▁match",-10.96632657148919],["▁reverse",-10.967398801827759],[".\nW",-10.967676838674208],["▁perform",-10.968091318910812],["▁Annex",-10.96852902864395],["▁integral",-10.968815861380794],["▁exclude",-10.96893925575084],["▁workforce",-10.968958886299966],["▁incident",-10.969379185351912],["▁Estonia",-10.969584648520755],["▁organization",-10.969781676745741],["▁everyday",-10.971059096263362],["ca",-10.971327139611308],["▁dare",-10.971362631927768],["▁posed",-10.971493968545868],["▁relative",-10.971595952417893],["▁indicates",-10.971726423013555],["men",-10.971752137920543],["▁label",-10.971820617150152],["▁instability",-10.972119871610538],[".\nNaturally",-10.972601980846921],["▁solving",-10.973307652138674],["▁EU.\n",-10.973345736661866],["▁reviewed",-10.973637104474438],["▁investing",-10.97413464099122],["▁wonderful",-10.974169928127496],["▁self-employed",-10.974329743417146],["▁corporate",-10.974785030450976],["▁incomes",-10.974939693700822],["▁punishment",-10.97516209529369],["▁Caucasus",-10.975434748635255],["▁praise",-10.975491337014128],["▁towns",-10.975859132419542],["▁irresponsible",-10.976542168644933],["▁400",-10.977263780451086],["▁articles",-10.977598104056009],["▁passing",-10.97764495280668],["▁born",-10.97789482916194],["▁returned",-10.97816001509375],["▁ultimate",-10.978242787445886],["per",-10.97833939872155],["▁identification",-10.978760693837778],["▁Madrid",-10.97876069670547],["▁livestock",-10.978774310873355],["▁anywhere",-10.978919277027641],["ization",-10.979066971675497],["▁audiovisual",-10.979871804822505],["▁Kinnock",-10.979871804824139],["?\nThat",-10.979973619745698],["be",-10.980283079590127],["▁arrangement",-10.980837184993845],["▁stresses",-10.982233156327732],["▁emphasize",-10.982291984494072],["▁foods",-10.98233569025047],["▁mental",-10.983545411882954],["▁illegally",-10.984096425556599],["▁orientation",-10.984191996136598],["▁prerequisite",-10.98473722024083],[".\nT",-10.985305153114233],["▁governed",-10.985837209336388],["▁witnessed",-10.985962014101055],["▁input",-10.985996620652983],["▁devote",-10.986241197140895],["▁closed.\n",-10.98662664816114],["▁privatisation",-10.987684343747798],["▁diverse",-10.987684355329566],["▁Greens/",-10.98784820594152],["▁remarkable",-10.987863806695694],["Indeed",-10.988374123834713],["▁sustained",-10.989187614259063],["▁registered",-10.989517417292882],["▁2007-2013",-10.989927754708884],["▁St",-10.989984618837202],["▁Second",-10.99044651938285],["▁isolation",-10.991051349825899],["▁90",-10.991344587804935],["ex",-10.991382313824339],["▁abolished",-10.991745209604602],["▁immigration,",-10.991767190719255],["▁shame",-10.992322629006377],["▁mine",-10.992747982117672],["Unfortunately",-10.992811493826139],["▁normally",-10.99331041408804],["▁reinforced",-10.995263012085648],["▁Turkey's",-10.995787743849245],["▁describe",-10.99579817059913],["▁expenses",-10.995881757482909],["▁empty",-10.996688340289204],["▁attempting",-10.996745269148711],["▁cattle",-10.997820979381585],["▁J",-10.998331276430402],["▁Kong",-10.99900382168683],["▁Now",-10.999357135014415],["▁quantity",-11.00008585426653],["▁trends",-11.000907425880191],["▁emerge",-11.001289537623226],["▁uses",-11.001810466405818],["▁responding",-11.002534273252126],["▁Olympic",-11.002673540373458],["▁emphasises",-11.002926282036427],["▁served",-11.003272882984408],["▁democracies",-11.003494948093943],["▁gases",-11.003745986609008],["(ES)",-11.00396321941109],["▁indispensable",-11.004633900257952],["▁caught",-11.004637101531742],["▁cycle",-11.004750224360102],["Hong",-11.004938223082267],["▁donor",-11.005054543188871],["▁dual",-11.005858057103492],["▁convey",-11.006906103515629],["▁process.\n",-11.00737688744917],["▁satisfy",-11.007537774802024],["▁Martin",-11.00808972282303],["▁computer",-11.008162093863135],["▁believed",-11.008316452590412],["▁unlike",-11.008413425842264],["▁civilisation",-11.009167702744946],["▁monopolies",-11.00920272555755],["▁divide",-11.009757971860468],["Since",-11.010555265107307],["▁them.\nI",-11.010852991600625],["▁survive",-11.011066581209725],["▁disparities",-11.011494989890382],["▁Congress",-11.011496847199147],["▁differently",-11.011986097189496],["▁Democrat",-11.012039495933102],["if",-11.012410705776919],["ecuring",-11.012442040769805],["▁Resolution",-11.012645795061088],["▁precedent",-11.012739237375861],["▁translation",-11.013286763172701],["▁warrant",-11.013615528512704],["▁CFSP",-11.013792526068105],["▁enthusiasm",-11.01391611337871],["▁poorer",-11.014732700124615],["▁interventions",-11.014847100620312],["▁removing",-11.01494326880189],["▁G20",-11.014978216866153],["▁concepts",-11.01561751558867],["▁expand",-11.016114493949678],["▁problematic",-11.016194998437365],["\nI",-11.016657323356466],["▁whenever",-11.016748987237229],["▁Christians",-11.017178425524301],["▁Monti",-11.017328372341032],["▁Council.",-11.017915157807352],["▁energies",-11.018403479472873],["▁complement",-11.01871174037316],["▁advances",-11.01887333416365],["▁footing",-11.019641770878607],["▁enjoyed",-11.020008834440318],["▁dioxide",-11.020716956242431],["▁narrow",-11.020733149636097],["▁isolated",-11.020850453292997],["▁question:",-11.02086598425997],["ak",-11.02095074023627],[".\nMay",-11.021030263501366],["▁rare",-11.021058954534704],[".\nB",-11.021160336668991],["(1)",-11.02169075746616],["▁transnational",-11.021924209865272],["disproportionate",-11.023036082840626],["▁claimed",-11.023481374833878],["▁licence",-11.024154049565446],["recognising",-11.024198069090641],["▁licences",-11.02424048098558],["▁affair",-11.025313155204428],[".\nrapporteur.",-11.026488080906876],["▁assembly",-11.026524448154682],["!\nMr",-11.026589185836343],["▁lowest",-11.026790303854927],["▁audit",-11.028494437615953],["▁frankly",-11.0286504961122],["▁Baroness",-11.028859200552617],["▁alter",-11.029309536289258],["▁maybe",-11.029406090908095],["▁manufacturing",-11.03002556008065],["▁steel",-11.030029638418057],["▁radio",-11.030117744829187],["▁Perspective",-11.031194350090125],["▁inequality",-11.031195274455175],["▁recession",-11.03120729571227],["▁burdens",-11.031329516226752],["▁here.\n",-11.031713709066342],["▁Paris",-11.032276063669357],["▁disappointment",-11.032388091056628],[".\nWhilst",-11.032717663280053],["▁merit",-11.033611244137699],["▁strikes",-11.033722357334245],["one",-11.033725281296785],["▁people.\n",-11.034342630765796],["▁messages",-11.034474518185846],["▁earmarked",-11.034788991748522],["▁Arctic",-11.034981737935361],["▁profound",-11.03513092074448],["▁aspirations",-11.03518882320785],["▁publication",-11.035192036972035],["▁drop",-11.035853196360785],["▁doors",-11.035968267397173],["▁owe",-11.036639580761683],["▁weaken",-11.036776613407152],["▁vague",-11.037007750027037],["▁Blair",-11.03706336922383],["▁tremendous",-11.03737746366367],["▁safer",-11.038027128093255],["Until",-11.038534992974014],["▁definitive",-11.038612652449562],["▁Tibet",-11.038725480814993],["▁Law",-11.039031230399154],["▁availability",-11.039425082498362],["?\nWhy",-11.0394639134751],["▁cross",-11.039611204079883],["▁rid",-11.039809922856108],["▁confirms",-11.039888800968619],[".\nF",-11.040108164658271],["▁interpreted",-11.04105586495615],["▁fleets",-11.041474289795449],["▁requir",-11.041780622867773],["▁pose",-11.042541640549999],["▁pull",-11.042985187022797],["▁debate.\n",-11.043039494512431],["▁smoking",-11.044150956610668],["▁workplace",-11.044292568419472],["▁multinational",-11.04462505198602],["▁remote",-11.045280263564528],["▁States.\nWe",-11.04532062476991],["▁displaced",-11.045337189883764],["▁Neighbourhood",-11.045337258189955],["▁disregard",-11.045595521002728],["▁recognize",-11.046003314691994],["▁twenty",-11.046461413979308],["▁inevitable",-11.046524837800646],["/EC",-11.046981840570567],["▁tariff",-11.046989540282954],["▁postponed",-11.04714646694135],["▁preference",-11.04767028740499],["▁swift",-11.04802839824153],["▁limiting",-11.048691614885366],["▁sector.\n",-11.048919365573276],["▁warming",-11.049040089301556],["▁relationships",-11.049661696267012],["▁occupied",-11.05009664022569],["▁self-",-11.05025005722952],["▁purchase",-11.050708008533395],["ard",-11.05089893366947],[".'\n",-11.051805017516728],["▁publicly",-11.05188389394809],["▁moves",-11.052339822748309],["▁combine",-11.05301177344151],["▁guide",-11.053255625039593],["vi",-11.053628959146192],["▁philosophy",-11.05368512136469],["▁Frontex",-11.053686068421445],["O",-11.053748695657392],["▁gentlemen",-11.053848264169929],["▁encouragement",-11.053970556246075],["▁law.\n",-11.054327912997653],["▁patents",-11.05477552775472],["▁bill",-11.05587053030099],["ten",-11.056016043500652],["▁delayed",-11.05607131003925],["▁preferred",-11.056101345639716],["▁handled",-11.056643666921868],["(2)",-11.056674276216404],["▁multinationals",-11.056803608269156],["▁32",-11.056895292818322],["▁concluding",-11.057278675997896],["▁country.\n",-11.057454412180341],["▁uphold",-11.05778344009383],["▁sectoral",-11.058060734910805],["▁debate.\nI",-11.058736595572046],["▁location",-11.058880675890721],["▁drinking",-11.059173563993419],["▁pragmatic",-11.059612307547184],["▁Prize",-11.059684764195882],["▁Eurostat",-11.059741565457387],["▁exploited",-11.060026447837933],["▁An",-11.060064191571106],["▁disadvantage",-11.06062819575791],["▁Slovak",-11.060876625336626],["▁focuses",-11.060977535081207],["▁threatening",-11.06125196924371],["▁scandal",-11.061280898372145],["▁doctors",-11.06163558642311],["▁initiate",-11.061666738510642],["Firstly",-11.061927235647762],["▁elimination",-11.062094012141383],["▁organized",-11.062212264545757],["▁appeared",-11.06229134524185],["▁Afghan",-11.062444183796119],["▁them.\nThe",-11.062713109421281],["▁aiming",-11.062746353425538],["j",-11.06275211178577],["▁children's",-11.06275759244642],["▁San",-11.063534649782454],["▁hide",-11.063754662801813],["▁45",-11.063866086900022],["▁Montenegro",-11.064510931453114],["▁suspension",-11.065721585206303],["F",-11.066016252324403],["▁pipeline",-11.06611483790255],["▁remedy",-11.066478187866252],["▁broken",-11.067263985690303],["▁dairy",-11.068147299431928],["▁biological",-11.068153843253912],["▁overwhelming",-11.06863724901098],["▁recital",-11.068779851410142],["▁wars",-11.069293612595636],["Adjustment",-11.069362369405635],["▁Milosevic",-11.06977915228967],["▁split",-11.071798844345803],["misunderstanding",-11.0722247143403],["▁cod",-11.072324263563246],["▁abandoned",-11.073755764428558],[".\nE",-11.07377417404053],["▁mid-term",-11.074239247915433],["▁feels",-11.074242881814527],["▁gratitude",-11.075459944592291],["▁electorate",-11.07545995508675],["▁conjunction",-11.07546189560944],["▁indirectly",-11.07679674679379],["▁2,",-11.077418437925697],["D",-11.077871216723494],["▁bottom",-11.077878145576248],["▁secondary",-11.077975545565685],["▁faces",-11.077985965520833],["▁driven",-11.078104827165994],["▁player",-11.078169220273343],["▁exact",-11.078397673787702],["▁Conciliation",-11.07913641886125],["▁understandable",-11.080230725115266],["▁online",-11.080266769881739],["ner",-11.080326508232044],["▁Frattini",-11.080364920089705],["▁regulating",-11.08036492062946],["▁pity",-11.080533985161964],["▁...\n",-11.0812396196817],["▁1%",-11.081554982052175],["▁harmonization",-11.081607873549371],["▁cells",-11.082342383287347],["▁symbolic",-11.082798797842862],["▁Goals",-11.083389055005746],["▁promotes",-11.083776900083404],["▁interfere",-11.084059562176758],["▁toxic",-11.084225724270848],["▁Special",-11.084246883110339],["▁minors",-11.084311894293005],["▁market.\nThe",-11.084472323012388],["P",-11.084516935983881],["▁judiciary",-11.085294073007347],["▁quantities",-11.085294073013237],["▁Saddam",-11.08529407360901],["▁48",-11.085434113827258],["▁teachers",-11.085459831014656],["▁flight",-11.08563774542379],["▁dedicated",-11.086625395800258],["▁roots",-11.086992730776135],["▁urged",-11.087988268905132],["▁violated",-11.088014917875316],["Moreover",-11.089144689463744],["ier",-11.08928129087156],["▁units",-11.089527124073575],["▁complaint",-11.090104406675188],["Will",-11.090474933437942],["▁signals",-11.090475418707262],["determining",-11.091650689439007],["▁Nigeria",-11.091789549880973],["▁pre-",-11.092017084065136],["▁lift",-11.092036981077179],["▁faster",-11.093016607955786],["▁complexity",-11.093026882132992],["▁expressly",-11.093128166735529],["▁enforced",-11.093227272434316],["▁it.\nThe",-11.09361412696753],["▁lend",-11.09459875483385],["▁York",-11.095223897992218],["▁weaknesses",-11.095251124344102],["!\nI",-11.095314614282966],["▁telephone",-11.095412691077193],["▁charter",-11.095497556802306],["(RO)",-11.096080265916605],["▁positively",-11.09612667921196],["▁transmission",-11.096475897236603],["▁traceability",-11.09648174636945],["▁invested",-11.09669719228804],["▁symbol",-11.096901933361224],["▁Process",-11.09736135422912],["▁Europe.\nIt",-11.097748768020754],["▁dear",-11.098516824458354],["▁controlling",-11.099391839569108],["▁platform",-11.09941352969183],["▁announcement",-11.09967747933841],[".\nFourthly",-11.099694596801072],["▁Indonesia",-11.099920049316353],["▁Freedoms",-11.100906131885738],["tion",-11.101019962666548],["▁Women",-11.101398316003593],["▁shortage",-11.102058175889372],["▁adjustments",-11.102103394996224],["▁stabilisation",-11.102763098400487],["▁reproductive",-11.102793059690692],["com",-11.102856125654233],["▁IMF",-11.103068172468948],["▁explicit",-11.103209164391075],["▁administrations",-11.103304159471122],["▁concentrated",-11.103866962548917],["qui",-11.104383947931321],["▁generated",-11.104536027573753],["▁broadcasting",-11.104720133918644],["\nSubject",-11.105153068632603],["▁selection",-11.105277976575746],["▁Balkan",-11.106027686182008],["▁Taiwan",-11.106513680509803],["▁Di",-11.106767012788062],["▁pays",-11.106810257732658],["▁150",-11.106918270853134],["▁communicate",-11.107353204373199],["▁depth",-11.107448007018835],["▁execution",-11.107653598898848],["▁implies",-11.107780988498224],["▁Ecofin",-11.108175296575597],["▁mines",-11.108280319630044],["▁fragile",-11.109045186436932],["▁invitation",-11.109056714893462],["▁establishes",-11.109113973257942],["▁Colombia",-11.109684158021526],["▁coast",-11.110230796732882],["▁intelligence",-11.110311009167006],["▁specified",-11.110311618418507],["▁sub",-11.111112275062471],["▁feasible",-11.111578436511332],["▁banning",-11.11159237035487],["▁Danube",-11.11179258186149],["▁bananas",-11.112143919196189],["▁OECD",-11.112324695015051],["▁us.\n",-11.112772171392226],["▁spectrum",-11.112847472076272],["▁pluralism",-11.112850847269868],["▁medicine",-11.113823394592814],["H",-11.11383897445808],["▁copyright",-11.114122484869393],["▁Board",-11.114126347766717],["▁throw",-11.114178289342979],["20",-11.114934701358361],["▁escape",-11.115065387340959],["▁zones",-11.115084149926235],["▁east",-11.115348021827455],["▁years'",-11.11558013816757],["▁girls",-11.115607740256657],["▁co",-11.116462894598289],["▁gets",-11.11698582818308],["▁simplifying",-11.117039815805814],["▁entrepreneurs",-11.11712486634257],["▁applaud",-11.117313363138496],["▁threaten",-11.117418867653216],["▁renewal",-11.118051485415485],["▁agents",-11.118406856706958],["▁integrating",-11.119268112511087],["▁belonging",-11.119799180195457],["▁sadly",-11.120049789669508],["▁en",-11.120403181575744],["▁preservation",-11.120496474653423],["▁demonstrations",-11.12193637093128],["▁famous",-11.12234984814265],["▁attract",-11.12353161419702],["▁deliberately",-11.12365579949203],["▁prevail",-11.123844214446272],["▁37",-11.124132461932621],["▁holds",-11.124194657897139],["▁suppliers",-11.124423829225854],["▁imbalances",-11.125096922001827],["nd",-11.125195792422655],["▁separation",-11.125627196777145],["▁encourages",-11.126249003706576],["▁mobilisation",-11.126916919314855],["▁opt",-11.12699183989162],["▁quarter",-11.128126493149793],["▁censure",-11.128202858172042],["▁toys",-11.128494092961901],["▁Beijing",-11.128644928508571],["▁continuous",-11.128668151063128],["▁rejecting",-11.129025269649102],[".\nWill",-11.130366536952671],["▁analyses",-11.130736758672201],["▁margin",-11.13089549558743],["▁abstain",-11.131083780810519],["▁coalition",-11.132089882968767],["▁backed",-11.13303190221497],["!\nThe",-11.133457929891168],[".\nCould",-11.133683247709744],[".\nEveryone",-11.134100873716736],["▁States.\nIt",-11.134232743196016],["▁DG",-11.134267144343404],["▁airline",-11.134311562560708],["▁Organization",-11.134671184842388],["▁pick",-11.13472418227298],["▁acquired",-11.13509427527521],["▁author",-11.13532279459174],["▁university",-11.135969886066654],["▁1,",-11.135975820958372],["▁2015",-11.136042305641858],["▁components",-11.13610363878439],["▁runs",-11.13680933123793],["suing",-11.137077510782866],["▁refrain",-11.137270281430283],["▁deregulation",-11.137293535209276],["▁derogation",-11.13829065775081],["▁defended",-11.138801093298994],["▁policy.\nWe",-11.139160234645548],["▁consolidated",-11.139173182382015],[").\n",-11.139897311720558],["▁painful",-11.140476547876478],["▁entails",-11.140512445504491],["▁manoeuvre",-11.141181623507919],["line",-11.141263520121244],["▁unified",-11.141271741859725],["▁abortion",-11.141499552149808],["▁postpone",-11.142175960851754],["▁circulation",-11.142488813052516],["▁cloning",-11.142488958186304],["▁consult",-11.143213969571654],["▁veto",-11.143785974806208],["▁substantive",-11.14379771357552],["▁approving",-11.143799052052373],["▁echo",-11.143989052234105],["▁noon",-11.144098509573498],["▁acquire",-11.144680982090343],["▁year.\nThe",-11.144695260716748],["▁compare",-11.1448049579808],["▁tensions",-11.145440658307406],["▁seats",-11.145635733321575],["▁ties",-11.146478481520624],["▁tariffs",-11.147456675156654],["our",-11.14754385494841],["▁Forum",-11.14782719744029],["▁60%",-11.147874835110802],["▁Muslim",-11.14806904269916],["▁arisen",-11.14864212153328],["▁wide-ranging",-11.149050524754585],["▁intolerable",-11.149050646173343],["▁radioactive",-11.149053411753687],["▁salaries",-11.150368048229765],["▁residents",-11.150958183557513],["N",-11.151100314797468],["▁grown",-11.151212490787245],["▁reassure",-11.151259323424341],["▁socialist",-11.151652415075336],["▁cofinancing",-11.15169028478023],["▁responded",-11.151780761465208],["▁pre",-11.15187997821333],["▁formulated",-11.1520797925658],["▁hinder",-11.152381694112904],["▁Council’s",-11.15253995954153],["▁Al",-11.15254609628657],["▁Some",-11.152738854498693],["▁books",-11.152937742886692],["▁existed",-11.153043669701528],["▁Commission.\nI",-11.153250845105951],["▁deprived",-11.15341965305388],["▁autonomous",-11.1535686293333],["▁reconcile",-11.153903029866123],["▁guidance",-11.154331055002135],["▁unsatisfactory",-11.15433107149185],["▁weekend",-11.154426475725833],["▁trouble",-11.15525550952281],["▁seemed",-11.156244501465704],["▁Albanian",-11.15666169282239],["▁journey",-11.15676097478148],["▁sensitivity",-11.156981818256043],["▁entail",-11.157037168028197],["▁customers",-11.157969851805833],["▁enhancing",-11.158309839675418],["vo",-11.15878125863952],["▁Cuban",-11.159138247750192],["▁hypocrisy",-11.159639626738404],["▁preserving",-11.159641997396694],["▁momentum",-11.159877948898956],["▁ends",-11.160035220098688],["▁owners",-11.161099626366797],["▁surplus",-11.162254083901562],["▁macroeconomic",-11.162305168041293],["▁located",-11.162368111390997],["▁tabling",-11.162495560898186],["▁revealed",-11.163067743405936],["▁indications",-11.163725194604464],["▁undermin",-11.163836215673303],["▁detrimental",-11.164331430047621],["▁tension",-11.16465008946229],["▁exemptions",-11.164740167864737],["▁hoping",-11.164981990178106],["rely",-11.165132278094429],["▁Moscow",-11.165202427949708],["▁reactions",-11.165253144486261],["▁diplomacy",-11.166315755779085],["▁Round",-11.166335762700221],["▁organising",-11.166339785912374],["▁Iceland",-11.166392521440866],["▁U",-11.166401208613369],["▁engagement",-11.166555114828032],["▁derogations",-11.166606655411744],["▁worker",-11.16672029249103],["ability",-11.166782176346588],["▁eliminating",-11.167655700534281],["s.\nWe",-11.168053529858337],["▁phrase",-11.168648243265855],["▁SIS",-11.169265910851788],["▁accountable",-11.170013683698421],["Nevertheless",-11.170223187566833],["▁Swoboda",-11.17034206891218],["▁earth",-11.170362999909646],["▁fulfilling",-11.170427907967387],["▁34",-11.170797768240384],["▁system.\n",-11.171440267784774],["▁infringements",-11.17145878223992],["▁officially",-11.171676601699636],["▁demonstrating",-11.171687963455181],["▁senior",-11.171687963580398],["▁Communities",-11.17168896324134],["▁lawyers",-11.171744643714668],["▁Area",-11.171969375798366],["EU",-11.172735578398433],["▁accepts",-11.17303358916395],["▁fishery",-11.17303598152236],["▁proposal.\n",-11.173087363743516],["▁follows:",-11.173116965485043],["▁publish",-11.173181555905575],["▁petitions",-11.17394995132829],["▁future.\nThe",-11.174036812041477],["▁watch",-11.17429596740173],["▁sheep",-11.174385830954218],["ll",-11.174517221285107],["▁seas",-11.174681110462338],["▁professionals",-11.174893506217776],["▁mountain",-11.17535038785827],["▁selling",-11.175421012672139],["▁carriers",-11.175554433284855],["▁matter.\n",-11.17557637463505],["▁tourist",-11.175733245437879],["▁pursuit",-11.1757365571797],["▁mix",-11.176161267119966],["▁eligible",-11.17708973134463],["▁College",-11.177089731717437],["▁optimistic",-11.177216471055786],["▁Guantanamo",-11.177276821322886],["▁disappointing",-11.177480890052372],["▁witness",-11.177481581244583],["▁blocked",-11.178098986798814],["▁prostitution",-11.178444744926281],["▁knew",-11.178444916029143],["▁Washington",-11.178590475204585],["▁convincing",-11.178887023115909],["▁courageous",-11.178973972593521],[".\nR",-11.17917044980226],["ized",-11.179367039777429],["▁Laeken",-11.1800586609078],["▁advocates",-11.180330722828508],["▁subsidy",-11.181711238043068],["▁bridge",-11.182177826747104],["▁mercury",-11.182520836866075],["▁years.\nThe",-11.183099691490058],["▁definite",-11.183120849574102],["▁Islands",-11.183210928821097],["▁career",-11.183392857778035],["▁distortions",-11.184425700696341],["▁earthquake",-11.184537989944165],["▁underlined",-11.184833048453424],["▁swiftly",-11.184886742666784],["▁explanatory",-11.185247658959806],["▁Christmas",-11.18543611735732],["▁streets",-11.18560932162207],["▁Su",-11.185745561391958],["▁3,",-11.185978625921582],["▁ministerial",-11.18666628422067],["▁3%",-11.18689938407352],["▁misleading",-11.186963350193777],["▁vary",-11.187152223754929],["▁pensioners",-11.187614826061601],["▁domain",-11.18798188274644],["▁formed",-11.188646944732042],["▁learnt",-11.188706878902838],["▁slaughter",-11.18872000006376],["▁marking",-11.18906913451844],["▁knowing",-11.189277873366764],["▁25%",-11.189544069834277],["▁noticed",-11.190139923798903],["▁EP",-11.190461909990741],["▁development.\n",-11.190485502741744],["▁refus",-11.190499445558478],["▁(L",-11.190523796973128],["▁merits",-11.190643551106469],["E",-11.191320906788318],["▁insecurity",-11.191728416085567],["▁smooth",-11.192494186863211],["▁offence",-11.192782042220646],["▁white",-11.192845777223432],["▁vigilant",-11.1934723477586],["▁propaganda",-11.193472864533945],["▁today.\nI",-11.194618237633247],["▁newspaper",-11.19469219430534],["▁recover",-11.194991269409748],["▁future.\nI",-11.195717297593276],["▁apologise",-11.196229068570576],["▁Poettering",-11.196229068609567],["▁Hussein",-11.196229068730535],["▁biotechnology",-11.196229851192367],[".\nHis",-11.196318033403596],["▁gaps",-11.196346716410964],["▁counterfeiting",-11.196478427722457],["▁identifying",-11.196968561055302],["▁ending",-11.197219651563142],["▁meaningful",-11.197302257086939],["▁listed",-11.1975226647264],["ship",-11.198032847697286],["▁over-",-11.198410210844816],["▁reforming",-11.198487089403887],["▁La",-11.198814044946253],["▁work.\nI",-11.198986681497537],["▁olive",-11.198994201590018],["▁worthwhile",-11.198997014004314],["▁compensate",-11.1990138906779],["▁transportation",-11.19902418656365],["▁Darfur",-11.199269622294644],["▁arbitrary",-11.199397863668935],["▁Chancellor",-11.199680473164655],["▁mixed",-11.201024533092557],["▁proves",-11.20115801603486],["▁wave",-11.20168647480958],["▁expresses",-11.20181770411153],["▁Haiti",-11.201906855782308],["▁bears",-11.202262251722257],["▁scenario",-11.202588846939253],["▁delivery",-11.20276470806634],["▁noon.\n",-11.202822965288743],["▁twelve",-11.203154302906714],["ag",-11.203787107165873],["▁Yugoslav",-11.203948920004814],["▁well.\n",-11.204396830709058],["▁proactive",-11.204547391056263],["▁tendency",-11.204552292529183],["▁judges",-11.20481318819639],[".\nApart",-11.20571727555075],["▁authors",-11.205915970274148],["▁continuity",-11.205937881139729],["▁breaches",-11.205953486706417],["▁attended",-11.205983228081658],["▁nationality",-11.206015133073791],["▁operates",-11.206022861786128],["▁36",-11.206057384548544],["▁Serbian",-11.206096213886413],["▁suddenly",-11.20646186849611],["▁Parliament.\nThe",-11.207248132652254],["▁Barnier",-11.207332589523684],["▁summary",-11.207332616424],["▁wholly",-11.207343689986082],["▁fruitful",-11.207925457556337],["▁awaiting",-11.208122040787595],["▁States.\nIn",-11.209185880335571],["▁officers",-11.209927609225993],["▁adhere",-11.210109950180042],["▁redundancies",-11.210127830722492],[".\nThrough",-11.210482846265684],["▁partial",-11.21048377070149],["▁sooner",-11.210724320090886],["▁opponents",-11.211161462962757],["▁attitudes",-11.211275330566629],["▁judgments",-11.211331735782812],["▁surprising",-11.211478457420753],["▁software",-11.211531825148437],["▁'yes'",-11.211590819854948],["▁Regions",-11.212490689801077],["red",-11.212698601779591],["▁Guinea",-11.212930916631867],["▁Ukrainian",-11.213203211975335],["▁textiles",-11.214095405790662],["▁indigenous",-11.214336469651062],["▁contradictory",-11.214357369772674],["▁restriction",-11.214455848265843],["▁definitions",-11.214551355572532],["▁33",-11.214672047259622],["▁supranational",-11.21623901267821],["▁Directorate",-11.216376981373053],["▁REACH",-11.216671151882839],["▁cease",-11.217249161340774],["▁lengthy",-11.217750126252534],["▁inland",-11.218743892553057],["▁successes",-11.21892767777933],["▁formula",-11.218977546440838],["▁thoughts",-11.21959849749301],["▁redundant",-11.219973196953024],["▁capacities",-11.219973196976753],["▁deplore",-11.221024628618382],["▁dates",-11.221320824400973],["▁certification",-11.221387624124041],["▁deterioration",-11.221387625260748],["▁pre-accession",-11.22138861618123],["▁moderate",-11.221821387956648],["▁chief",-11.22280405569477],["▁complementary",-11.222881884264302],["▁Tuesday",-11.223580257057293],["▁bigger",-11.224257840566686],["▁undermined",-11.224426422936993],["▁frontiers",-11.224465099937635],["▁constituents",-11.224577209880623],["▁Ma",-11.224695105446457],["▁scandalous",-11.225670616539656],["▁update",-11.22584821148937],["▁Palacio",-11.227065424397853],["▁Basque",-11.22706547525462],["▁Bolkestein",-11.227436913190047],["▁mobilise",-11.228062241219611],["▁alleged",-11.229172159197425],["▁advocated",-11.22925364413556],["▁tolerate",-11.229492043027683],["▁Chair",-11.229872834142645],["▁chair",-11.229954041081408],["▁punish",-11.231939412213357],["▁Industrial",-11.232087130395026],["▁mutually",-11.232741328116777],["▁devastating",-11.232775646515105],["▁packaging",-11.232776761447058],["▁love",-11.23282868228696],["▁Even",-11.232918588719778],["▁knowledge-based",-11.233027832954093],["▁write",-11.233250826091655],["▁caution",-11.234383713318184],["▁station",-11.234880040531165],["▁Articles",-11.234947316878444],["▁jeopardise",-11.235215037990994],["▁centuries",-11.23564303333367],["▁disability",-11.235664456591792],["▁automatic",-11.235845225233547],["▁realities",-11.23607864594899],["▁handle",-11.2364585382776],["▁permits",-11.236494112376661],["▁42",-11.237135707399492],["high-level",-11.237305250395957],["go",-11.237612748046695],["▁fill",-11.2378277395363],["▁structured",-11.237946830091218],["▁rights.\nThe",-11.238408894201866],["▁reformed",-11.238727783971768],["▁Union.\nIn",-11.238817827583276],["▁thinks",-11.238906643656644],["▁Mugabe",-11.239012338919485],["▁profession",-11.240805103122124],["Southern",-11.241404224719785],["▁alliance",-11.241591293172284],["ped",-11.242118662177283],["▁frequent",-11.24236169724907],["▁Council'",-11.242543689887594],["incomprehensible",-11.242847671467935],["▁reception",-11.242847671468198],["▁papers",-11.243059910488395],["▁slowly",-11.243496834642492],["▁deliberations",-11.243694164780424],["▁coins",-11.243803925470486],["▁Why",-11.24383998771932],["ria",-11.24426751218401],["▁psychological",-11.24429550054148],["▁robust",-11.244296278005585],["▁classification",-11.244307600329089],["▁alert",-11.244355301834647],["▁organs",-11.244436794225198],["▁wall",-11.245444032674015],["▁collect",-11.245705313215446],["▁incompatible",-11.24574412483514],["▁5%",-11.246197439825071],["▁financially",-11.246469003536394],["▁buying",-11.246741903011223],["▁killing",-11.246751781832568],["▁liberalization",-11.2472285566921],["▁rhetoric",-11.247632096491273],["▁God",-11.247813217094285],["▁teaching",-11.248024793124175],["▁condemning",-11.248444916442468],["▁Commissioner's",-11.248601775014526],["▁contamination",-11.248648992015111],["▁inclusive",-11.248648992015461],["▁privileged",-11.249207585812135],["Many",-11.249790377203855],["▁Vietnam",-11.250099946582752],["▁outline",-11.25022275841433],["▁allies",-11.25149988664478],["▁Relations",-11.251562342034205],["▁tested",-11.25181227966078],["▁prejudice",-11.25263270141857],[".30",-11.252717116173075],["▁El",-11.252773241187715],["▁hitherto",-11.253022176875781],["▁excise",-11.253022213694742],["parliamentarians",-11.253340942530482],["▁Bulgarian",-11.254394041634658],["▁well-known",-11.254484164900576],["U",-11.254753488397139],["▁Be",-11.254932840437345],["▁costly",-11.25520542416426],["safeguarding",-11.255617893949903],["▁belongs",-11.255846658458989],["▁voices",-11.255895486754603],["▁cheaper",-11.256223294906002],["der",-11.256437971945857],["▁Michel",-11.257076360191839],["the",-11.258473489950994],["▁EU-",-11.25961447560606],["▁decrease",-11.259925734979081],["▁memory",-11.260353798454252],["▁preferences",-11.260433682413574],["▁shoulder",-11.260532971914497],["ou",-11.260654743729123],["▁discovered",-11.260811776628831],["▁neutral",-11.261099710094472],["▁III",-11.261826890265421],["?\nThere",-11.262668668804569],["▁newspapers",-11.263470020830084],["geared",-11.26399487748635],["▁schedule",-11.2643510686509],["▁countries.\nWe",-11.264564179078988],["▁speaks",-11.26456815098339],["▁assent",-11.264842228465383],["▁continually",-11.265071561190773],["▁disarmament",-11.266257666628341],["▁liberty",-11.26625767072029],["▁excessively",-11.2663321932452],["▁immense",-11.266984594795037],["▁time.\nI",-11.267719628298858],["▁Chernobyl",-11.267928830700209],["coming",-11.268340891453054],["▁recognized",-11.268430034792416],["▁Council.\nI",-11.268467386039887],["▁clothing",-11.269224232266616],["▁competitors",-11.270251024868312],["▁Communication",-11.270264040166944],["▁Cotonou",-11.270708706511915],["▁proportionality",-11.270735301688344],["▁modes",-11.271003487143675],["▁poses",-11.271100747993042],["▁supporters",-11.271337597619434],[".\nEach",-11.272057690089685],["▁Council.\nThe",-11.272181340428276],["▁1991",-11.272221932896553],["▁warn",-11.272308214303944],["▁expecting",-11.272486132923841],["▁transform",-11.272794537220811],["▁departments",-11.273944664218124],["▁non",-11.275955351164278],["▁reunification",-11.276674420759484],["ven",-11.276823336673468],["▁By",-11.276887147034632],["▁conditional",-11.277016742217793],["▁conventional",-11.277386504385724],["▁allowances",-11.277821299916294],["▁wanting",-11.278039712394182],["▁ridiculous",-11.278171425919696],["▁destination",-11.279090904127937],["▁seriousness",-11.279538155638088],["▁reputation",-11.279670679188687],["▁Norway",-11.279677309512351],["▁theory",-11.279902413425054],["▁returning",-11.279954134301082],["▁transformation",-11.27995980427564],["▁profitable",-11.280105059148607],[".\nNeither",-11.280711126472244],["▁imperialist",-11.280778976540578],["▁self-determin",-11.281208747461976],["▁70%",-11.281238857210086],["▁weakness",-11.28128913080492],["▁inspectors",-11.281725855640929],[".\nArticle",-11.281823916923724],["▁disappear",-11.282020948957506],["▁level.\nThe",-11.282051488881493],["▁Conservative",-11.282501146729409],["interoperability",-11.282641369381805],["▁UEN",-11.282675937417281],["az",-11.282696005997419],["▁awarded",-11.283248281339208],["T",-11.283664238951026],["▁calm",-11.284694678524353],["▁collected",-11.284830203976252],["▁charged",-11.285278107452278],["bel",-11.286007007756957],["▁'a",-11.287125068450745],["▁plus",-11.287201854635004],["▁here.\nI",-11.288231385674393],["▁sentences",-11.288294161440636],["▁formulate",-11.2883911048003],["▁cold",-11.288439099598321],["▁cooperating",-11.288713690239206],["▁well-being",-11.288713715685724],["▁Finance",-11.28871371691255],["▁unclear",-11.288726207412404],["▁Peace",-11.289116847020864],["▁petition",-11.29022516253767],["▁maternity",-11.290228841755422],["▁cooperative",-11.290597705961607],["!",-11.291435669208989],["▁pending",-11.291657959680958],["▁recourse",-11.291750129371268],["▁Confedera",-11.2917590982299],["▁assumed",-11.291787353923205],["▁Herzegovina",-11.291925143313371],["▁pave",-11.293839471924672],["▁said:",-11.294163527862331],["▁problem.\n",-11.29430860175106],["▁Sahara",-11.2947681918187],["▁incapable",-11.294788753466872],["n-discrimination",-11.295045555198925],["▁rescue",-11.295517168221352],["▁agreeing",-11.295961488195399],["▁finished",-11.296237281498346],["▁Posselt",-11.296312509541977],["▁reinforcing",-11.296312509621533],["ations",-11.296546484514042],["s’",-11.297095020683656],["ide",-11.297263588763574],["00",-11.297799515343566],["▁forecasts",-11.297837206251339],["▁ideology",-11.297839283731454],["▁anybody",-11.298004097200469],["▁revise",-11.298941283254006],["▁intent",-11.298987989835364],["▁asks",-11.299001933531665],["▁hearings",-11.299289875718092],["▁drastic",-11.299306470552654],["▁quantitative",-11.299368279080046],["▁pornography",-11.299368279080657],["▁severely",-11.29964643729225],["▁techniques",-11.299686182959245],["▁site",-11.299827067367147],["▁murdered",-11.300464437860569],["▁qualitative",-11.300899672681023],["▁CFP",-11.300915045802462],["▁feelings",-11.300952814185994],["▁suspect",-11.301154360466908],["▁translated",-11.3012951388903],["Sri",-11.301492913560825],["▁supplement",-11.301895200005237],["▁launching",-11.302510666547064],["▁yield",-11.302942204132433],["▁Indian",-11.302974412366908],["▁tens",-11.303199157107086],["▁capabilities",-11.303969768925953],["▁survey",-11.304733108286928],["▁allocate",-11.305080823142852],[".\nWho",-11.305172245214381],["▁43",-11.305465888764626],["▁billions",-11.30548158534733],["▁eurozone",-11.305507983514612],["▁liberties",-11.305508445278448],["▁Equality",-11.305571476304017],["up",-11.30662033593266],["▁issue.\nI",-11.30667655552364],["▁situation.\n",-11.306841136527527],["▁debts",-11.30686749890316],["▁Sakharov",-11.30704880687759],["▁scourge",-11.307048809196878],["▁multi",-11.307456298653678],["▁Azerbaijan",-11.307782781360642],["▁ingredients",-11.308228555722302],["▁boundaries",-11.308610723531114],["▁referendums",-11.308821384596605],["▁intense",-11.309263186138704],["ill",-11.309678098287375],["▁typical",-11.310073554462335],["▁mentioning",-11.310844845616057],["▁breaking",-11.311374017534522],[".\nYesterday",-11.312606768469632],["▁aggressive",-11.313235987030902],["▁ECHO",-11.313239186439286],["▁Slovenian",-11.313263234704511],["▁prisons",-11.313478848616603],["▁fairer",-11.31365915080891],["▁report.\nWe",-11.313894263914484],["▁silent",-11.314788785049773],["▁fell",-11.314830783745043],["▁artificial",-11.315551910122018],["▁exempt",-11.31570754921904],["▁limitations",-11.31586559350453],["▁promising",-11.316343997971558],["▁advisory",-11.316380952660769],["▁founding",-11.316455410402131],["▁contradict",-11.31723813153376],["▁foot",-11.317665774962087],["▁mentions",-11.317781244007802],["While",-11.317880198152915],["▁impunity",-11.317901632431726],["▁exposure",-11.317907727985823],["▁dimensions",-11.318000363695287],["deemed",-11.31821428688771],["▁viewed",-11.318549320073881],[".\nQuite",-11.31865313467043],["▁Ba",-11.318775979399483],["▁precondition",-11.318880411103258],["Gender",-11.319900552659057],["▁retained",-11.31996489263826],["▁punished",-11.320144405075773],["▁mainstreaming",-11.320272742250678],["▁technically",-11.320280257652657],["▁recommends",-11.320850714694515],["▁manufacture",-11.321255384996],["▁appropriately",-11.321383727265829],["▁prohibited",-11.32156484112337],["▁objection",-11.321631723020946],["▁bus",-11.322643573614577],["?\nDo",-11.323134626248226],[".\nThanks",-11.323826478547513],["▁ineffective",-11.323981111630228],["▁countryside",-11.324770998000476],["▁instances",-11.325362563911742],["▁capitalist",-11.325504993875729],["▁[",-11.325626056590757],["▁highlighting",-11.32568357699382],["▁abide",-11.325800321276962],["▁argued",-11.326488386374537],["▁Third",-11.328141101906139],["▁absent",-11.32887342192204],["▁fossil",-11.328873519336879],["▁Putin",-11.328873538696332],["▁entirety",-11.32887491126],["▁ease",-11.328877381551877],["▁underlines",-11.329066234075237],["▁bare",-11.329505186275842],["▁soft",-11.329986878733779],["▁entities",-11.330451249297656],["Those",-11.330684616662037],["▁participated",-11.331095623240184],["productive",-11.331167556327221],["▁countries.\nIt",-11.33165556163528],["▁activists",-11.33178405206317],["▁viability",-11.332030774599607],["▁specify",-11.33227569968314],["-free",-11.33237464609123],["▁protests",-11.332484004235258],["▁Pa",-11.3326140410815],["▁diversification",-11.333612863488579],["▁commerce",-11.333612863594858],["▁settled",-11.334035275162798],["▁ruled",-11.334162878374105],["▁simpler",-11.335141799510389],["▁relevance",-11.335197649817687],["▁discriminatory",-11.335197838132492],["▁reconsider",-11.336075685590767],["▁receives",-11.336721723559366],["▁1989",-11.336800103134665],["▁Ro",-11.336850312290393],["Working",-11.337108606267247],[".\nAnyone",-11.337138712227853],["▁opt-out",-11.337213238381548],["▁38",-11.337489426856028],["▁judged",-11.337634661113952],["▁Islam",-11.33780630676161],["▁75",-11.339158220070912],["▁pro",-11.339935350079491],["▁Watson",-11.339967133261556],["▁stood",-11.339967143489798],["▁Can",-11.339998793425837],["▁region.\n",-11.340802999847732],["▁accusations",-11.341005995707828],["▁mothers",-11.34153039215563],["▁trialogue",-11.341563107985891],["▁secretariat",-11.34163341343844],["▁chose",-11.34221759393795],["▁harmonising",-11.343159501477997],["▁opposing",-11.343159544218846],["▁airspace",-11.343170309038223],["▁Media",-11.343920008874736],["▁touched",-11.344262426761858],["▁likewise",-11.34491262351294],["▁question.\n",-11.34491683303983],["▁organisms",-11.345286350401011],["▁attempted",-11.345677773495614],["▁nice",-11.345782940312098],["▁settle",-11.345884190999286],["▁destroying",-11.3468031245119],["▁attache",-11.346937203877253],["▁disagreement",-11.347438374890993],["▁distinguish",-11.347509114590782],["ow",-11.347853960640913],["▁austerity",-11.347967174098015],["guiding",-11.34796725739217],["▁way.\n",-11.348521631038377],["▁hoc",-11.348677576917712],["▁suspicion",-11.348998294097237],["▁conducting",-11.349245529023317],["Such",-11.349513617303057],["▁peripheral",-11.349574890887915],["ize",-11.34957821468941],["▁appoint",-11.349585372937094],["▁website",-11.350097910278066],["▁pushing",-11.35027695930123],["▁draftsman",-11.351187444231424],["▁guided",-11.35176099623607],["▁insisted",-11.35195876871062],["▁wrote",-11.352798100071865],["▁supplied",-11.352798334416299],["▁them.\nWe",-11.353268250709776],["▁imbalance",-11.353464042555323],["▁distortion",-11.353779162064914],["▁racist",-11.35378083072595],["▁conferences",-11.354116634743884],["▁threatens",-11.354272531340683],["▁hatred",-11.354413662683328],["▁welcoming",-11.35441467651198],["▁requesting",-11.35441738014261],["▁MEDA",-11.354418918475687],["Maritime",-11.35456824481427],["▁legislation.\n",-11.354811297469217],["▁redress",-11.355030625199173],["▁film",-11.355122619574345],["▁worry",-11.355987925370117],["▁repair",-11.356193042010547],["▁measured",-11.356375855333745],["▁confront",-11.356443713119972],["▁plain",-11.356595350929712],["▁spreading",-11.356797643239092],["▁society.\n",-11.356947559670836],["ible",-11.357394436074392],["▁duration",-11.357652496468244],["▁interpret",-11.358076576758933],["▁display",-11.358613700932327],["▁weapon",-11.358647725178077],["▁Euratom",-11.3592866793242],["▁90%",-11.359340353323077],["▁100%",-11.359379727770872],["▁admitted",-11.359565403681241],["▁Natura",-11.359818753976949],["pproval",-11.3599997635635],["ence",-11.360751712279129],["▁totalitarian",-11.360865578183322],["▁identical",-11.360901872168167],["▁formation",-11.361017725539304],["▁Chile",-11.361401484151765],["▁Sa",-11.361975680885138],["▁reactors",-11.36200253587269],["Given",-11.3620346670757],["▁cautious",-11.362466471752953],["▁dismantling",-11.36253053485675],["▁injured",-11.362569263226296],["▁informing",-11.363088329690054],["DA)",-11.363566939723135],["▁Customs",-11.363690424623265],["▁taxpayer",-11.364140503273589],["▁contents",-11.364544460995166],["▁missed",-11.364643572337645],["▁harsh",-11.364674967198741],["▁profile",-11.364822553333191],["▁600",-11.365239855698437],["K",-11.365420321324535],["▁separately",-11.36576955266326],["▁countries.\nThis",-11.365826524078514],["▁G8",-11.365891813379438],["▁industrialised",-11.366057495089605],["▁a.m.\n",-11.36649314067009],["▁advise",-11.366838654677784],["Yet",-11.367330196335905],["▁excellence",-11.367432504481386],["▁extradition",-11.367432515255839],["▁coexistence",-11.367435619734568],["ers,",-11.367439212638779],["▁Equal",-11.367871799831391],["▁minimal",-11.368012253697643],["▁globalised",-11.368084499862498],["▁market.\nI",-11.368101078107369],["▁areas.\n",-11.368123646522378],["tal",-11.368228930268128],["▁Gothenburg",-11.369071848627957],["▁Democracy",-11.369071854732049],["▁precedence",-11.369081550183981],["▁chapters",-11.369087176138894],["▁ILO",-11.369616907107126],["▁adjust",-11.37002840196584],["▁crisis.\n",-11.370059973791982],["▁uncertain",-11.370715668524628],["▁blow",-11.371276804247572],["▁assert",-11.371685316293448],["laying",-11.372042951119699],["▁thrust",-11.37235862219112],["▁England",-11.372358623214962],["▁striking",-11.372358654589174],["▁laundering",-11.372359192767547],["▁'in",-11.373048328956681],["led",-11.373994331349795],["▁pride",-11.37565638995203],["▁altogether",-11.37565641268056],["▁venture",-11.376215279667203],["▁confronted",-11.376293961455561],["▁etc",-11.376593101686996],["▁anticipate",-11.376881697317474],["▁proliferation",-11.37730912563138],["▁unrealistic",-11.37730966011682],["?\nAnd",-11.377366456479887],["▁area.\nThe",-11.378526137347333],["▁translate",-11.378540981628543],["▁employ",-11.378614376706093],["▁blocking",-11.378935489725867],["▁appreciated",-11.379110684065079],["▁visits",-11.379707277684922],["▁rigid",-11.38056256595418],["▁eat",-11.380568271490903],["▁award",-11.38058642468117],["▁counterfeit",-11.380620530715827],["▁Foundation",-11.380623131861855],["▁resume",-11.381857024328536],["▁earn",-11.381923771735355],[".\nauthor.",-11.382275882695577],["▁plenty",-11.382284259222345],["▁Taliban",-11.382548028534362],["▁Conservatives",-11.383337027758035],["▁migratory",-11.38394815264208],["▁cultivation",-11.383948152708076],["▁dominant",-11.384260583676998],[".\nConcerning",-11.3846162177515],["▁House.\n",-11.38542179935876],["▁outbreak",-11.385485827272753],["▁exemplary",-11.38561481930868],["▁departure",-11.385632424637784],["▁wood",-11.385670866140408],["▁resolution.\n",-11.386111567867433],["▁Korean",-11.386938850541956],["W",-11.387103040008215],["sofar",-11.38728491313612],["▁pan-European",-11.387285696443177],["▁replacing",-11.38740055657872],["▁reaffirm",-11.388187166416413],["▁oblige",-11.388529334357015],["▁precarious",-11.388956509297746],["for",-11.389119509171184],["▁transposed",-11.3892243780391],["▁anticipated",-11.389586247013854],["▁Mercosur",-11.389838912602201],["▁installations",-11.39002847020073],["▁prosecution",-11.390053686828626],["▁legislate",-11.390631551706015],["▁somewhere",-11.3908743075271],["▁database",-11.391348277012078],["▁perpetrators",-11.391525906117941],["▁letters",-11.391529611139294],["▁globally",-11.391570668580012],["▁produces",-11.391815980731417],["▁emphasising",-11.393130604659788],["▁assurances",-11.393641271523837],["▁reciprocity",-11.393990173451666],["▁Mo",-11.39438701571729],["▁process.\nThe",-11.394982093637207],["?\nAs",-11.395522786754483],["▁independently",-11.39601217984115],["▁ratio",-11.396085549386212],["▁parameters",-11.396575563573192],["▁partially",-11.396715344071051],["▁deepening",-11.396738098258414],["▁duty-free",-11.397460349641396],[".\nG",-11.39753440558247],["▁States’",-11.397539224062205],["▁dozen",-11.397709986985696],["▁Socrates",-11.397921400148466],["▁shameful",-11.398418175261888],["▁speaker)\n",-11.398676812396225],["▁weigh",-11.3988367093128],["▁equipped",-11.399060067447113],["▁small-scale",-11.399206368014173],["▁confined",-11.399509827126302],["▁disappeared",-11.399752289955739],["▁distort",-11.400112687420307],["▁Jarzembowski",-11.400741154577933],["▁permission",-11.400770618293855],["▁deployment",-11.400782402691602],["▁lacks",-11.401530465541937],["▁exercising",-11.402436069857439],["▁replacement",-11.402754319310592],["▁Wallstrom",-11.404133862707921],["pro",-11.405387414563194],["▁phenomena",-11.405834542973627],["▁Lome",-11.405870071053762],["▁decommissioning",-11.406034332270394],["▁incidentally",-11.406345471427807],["▁premature",-11.406582828305025],["▁currencies",-11.407538120486326],["▁impressive",-11.407545034870079],["▁55",-11.408064839897275],["▁la",-11.408174128651154],["-out",-11.4083547845066],["▁announce",-11.408775555729925],["▁luck",-11.408916535628546],["▁asset",-11.409003507271407],["▁too.\n",-11.4093028808626],["▁inability",-11.409303697593714],["▁anyway",-11.410108941481365],["▁art",-11.410121002082505],["▁globalisation,",-11.410194158400193],["Instead",-11.410255705023225],["▁exercised",-11.41035477101011],["▁veterinary",-11.410954006837915],["▁preferential",-11.41095400853498],["▁paramount",-11.410959309838717],["10",-11.411296506518974],["▁tone",-11.41135842559671],["▁screening",-11.41155415751059],["▁issues.\n",-11.411728214182396],["▁strongest",-11.411834421604574],["▁Cambodia",-11.412238232987617],["▁parliaments,",-11.412457228456965],["credibly",-11.412666335604811],["▁mining",-11.41267045975755],["▁Democrats,",-11.412902424606507],["▁safeguarded",-11.412929687319355],[".\nWomen",-11.413024517309735],["▁waiver",-11.413072724477374],["side",-11.413244419424409],["▁processed",-11.4133175749602],["▁protein",-11.413653947424407],["▁Members'",-11.414044426309866],["▁world.\nThe",-11.414451406075244],["▁Reding",-11.415594586280104],["▁unresolved",-11.416099814529117],["▁prize",-11.416100443940618],["▁evil",-11.416361608675455],["▁economy.\n",-11.41703628950195],["▁crop",-11.417122940762187],["▁relocation",-11.417231394683174],["▁support.\n",-11.417411389611711],["▁Corbett",-11.417820984926479],["▁Caribbean",-11.41818246328044],[".\nAmong",-11.418615657311218],["▁complying",-11.418968219799494],["▁notification",-11.41935506300074],["▁p.m.)\n",-11.41964493380021],["▁Israelis",-11.419773043991768],["▁delivering",-11.420551274454574],["▁exceeded",-11.420578015390712],["▁teams",-11.420974783430378],["▁salary",-11.421272306724802],["▁deliberate",-11.421437787162962],["▁opens",-11.421484088540247],["▁area.\nI",-11.421603491342527],["▁internally",-11.423422563731243],["▁accompanying",-11.42347016511501],["▁exceptionally",-11.423776523005682],["▁Commission.\nThe",-11.424286813768017],[".\nCertainly",-11.42431973851875],["▁repressive",-11.424741973049905],["▁cash",-11.424777311023],["▁95",-11.425141676727483],["▁guard",-11.425209983001206],["▁Seventh",-11.425556599392802],["▁rape",-11.426056074308182],["▁envisage",-11.426243269314835],["▁Presidency's",-11.42632895717815],["Very",-11.426407401360915],["▁purchasing",-11.42647155574338],["▁say:",-11.42659547605334],["▁privilege",-11.427357164425693],["▁specialist",-11.42746291925253],["▁restored",-11.427777043181194],[".\nHowever",-11.427890594416944],["▁submitting",-11.428214358357074],["▁restoring",-11.428229876099621],["▁navigation",-11.428274829794546],["▁academic",-11.428624610526104],["▁professions",-11.428858075021711],["▁pressures",-11.429023906332485],["▁secured",-11.429228788453848],["▁Gulf",-11.42995292301271],["▁motivated",-11.430097108425793],["▁witnessing",-11.430347226722922],["ng",-11.430475534605591],["▁well-",-11.430509189771655],["ging",-11.430612585719466],["▁boats",-11.430632921164182],["▁investigated",-11.430740756937034],["▁sentenced",-11.4308472077252],["ja",-11.430966993495193],["drew",-11.431123456378174],["▁judgement",-11.431354642312236],["▁Jerusalem",-11.431698047154756],["▁entity",-11.431699543302594],["▁adjourned",-11.431779600844528],["▁promptly",-11.431862913227583],["▁pure",-11.432121977652727],[".\nSecond",-11.432198049060418],["▁unusual",-11.432423650629335],["que",-11.433282625713566],["▁recruitment",-11.433462388839267],["▁affordable",-11.433902984906602],["▁deeper",-11.433959719698862],["▁possible.\nThe",-11.43418558559411],["According",-11.434204886568846],["ever",-11.434436618293173],["▁year.\nI",-11.43447472661267],["-year",-11.434692729640766],["▁Ka",-11.434958537132811],["▁pushed",-11.435052638240187],["▁Dr",-11.435200846665644],["▁compliment",-11.435307308491156],[".\nTurkey",-11.43538815111146],["▁15%",-11.435396852902564],["▁standardisation",-11.435461669505537],["es,",-11.435747840459612],["▁stipulates",-11.435808192005702],["ND",-11.435948750998696],["▁innovations",-11.43610791867856],["▁inherent",-11.436388552381061],[".\nWould",-11.436961307982436],["▁upheld",-11.437082629926852],["▁confused",-11.437240695497199],["▁records",-11.438112772592136],["▁blue",-11.438298636524383],["Nuclear",-11.438709484071108],["▁Europe-wide",-11.439256503794773],["▁'European",-11.439590284418115],["cu",-11.439784681176302],["▁street",-11.440003192997292],["ka",-11.440159600920481],["▁disadvantages",-11.440190408053159],["▁aquaculture",-11.440470596944259],["▁dependency",-11.440488998608117],["▁Pack",-11.440508615215629],["▁signatures",-11.440712366724338],[".\nEU",-11.441395131091033],["▁policy.\nIt",-11.441414635726009],["▁circle",-11.441628272304976],["▁65",-11.441744710564828],["▁eliminated",-11.441764014621326],["...",-11.442001550300093],["▁timber",-11.442234245549106],["▁harassment",-11.442237915037634],["▁EDF",-11.442241466511428],["▁(C",-11.4425764342778],["▁additives",-11.443222884743719],["▁questions,",-11.44367245743179],["▁modernise",-11.443786284756328],["▁rigour",-11.444000483935937],["les",-11.444219476164456],[".\nMuch",-11.444309251765011],["▁simultaneously",-11.44435526424434],["ost",-11.444552222998915],["entrepreneurship",-11.444674982077764],["▁expanding",-11.444780703070895],["▁Russia's",-11.444994893959159],["▁chances",-11.445977816287737],["▁assumption",-11.446382739410353],["▁years.\nI",-11.446569835261602],["▁Erika",-11.446741700609074],["▁servants",-11.447166845632221],["▁COM",-11.447285976966132],["▁presidencies",-11.447543445010812],["▁Games",-11.447543643921033],["ned",-11.447885736911001],["▁thrown",-11.448856662005237],["▁EGF",-11.449319645792503],["▁surface",-11.449319696913843],["?\nAre",-11.449424920501809],["-friendly",-11.449660653351273],["▁successive",-11.449833857165473],["▁44",-11.450070565186461],["▁acute",-11.450284062351098],["▁environment.\n",-11.450679040665023],["▁optimism",-11.451141746172349],["all",-11.452019814842437],["▁protectionist",-11.452050130958048],["▁breast",-11.45243947330265],["▁overlook",-11.452547416729267],["▁speedy",-11.452871330800104],["▁afterwards",-11.45319174150428],["▁unlikely",-11.45414755234863],["▁govern",-11.454246198054873],["▁lived",-11.454361204456841],["▁wisdom",-11.454667249380687],["▁gaining",-11.455081611835382],["▁weaker",-11.455198457552886],["▁fairness",-11.455376668961637],["▁bomb",-11.455927043995974],["▁250",-11.457206142981903],["Despite",-11.457408857077297],["▁alive",-11.458152062351228],["▁managers",-11.458248790673476],["▁prosperous",-11.458255915056942],["▁introduces",-11.459099425330226],["▁prohibition",-11.459637956988539],["▁trials",-11.459697501001568],["▁142)\n",-11.460041494258737],["▁Sarkozy",-11.460043604452384],["▁creativity",-11.46004360445253],["▁conversion",-11.460047502929946],["▁lobby",-11.460160601472927],["▁Climate",-11.460457558249713],["▁dollar",-11.461552160148832],["▁deficiencies",-11.461842165603462],["▁splendid",-11.461842165603816],["▁hypocritical",-11.461842165643297],["▁Johannesburg",-11.46212798600201],["▁emergence",-11.462231458874705],["▁wasted",-11.462464670011348],["▁manifest",-11.46325530369447],["▁prohibit",-11.464077412789688],["▁law.\nThe",-11.464526045200524],["▁damaged",-11.465327049221312],["▁Sunday",-11.46544902794886],["▁cure",-11.465510905976917],["▁anxious",-11.465744479191233],["▁vessel",-11.46648366388464],["!\nWe",-11.46657801395076],["▁channel",-11.46661787112242],["▁wild",-11.467255456226159],["▁injustice",-11.467331619585831],["s.\nIn",-11.467564514429352],["▁benefited",-11.468379469021645],["▁radiation",-11.469068934239917],["▁arrival",-11.469068945366285],["▁oppression",-11.469072282665113],["▁Eurojust",-11.469085711070193],["▁virtue",-11.469292712217856],["izing",-11.469396632135059],["▁39",-11.469952085857742],["▁description",-11.470509202599889],["▁eleven",-11.470883944160033],["▁machinery",-11.47089847889573],["▁level.\nI",-11.471303933032683],["▁democrats",-11.471537928507612],["▁directive.\n",-11.471780217169277],["▁suggesting",-11.471882350609645],["▁endeavours",-11.47210728966278],[".\nHuman",-11.472613574374321],["▁excess",-11.472633330358207],["▁occurs",-11.472689846197143],["▁PHARE",-11.472701998014678],["▁se",-11.472930906806651],["▁utterly",-11.473003926291701],["▁neglected",-11.47321258503985],["▁divisions",-11.473985778608125],["▁frank",-11.474788698245378],["▁sector.\nThe",-11.475125409106244],["▁time.\nThe",-11.475881132865002],["▁vaccination",-11.476191432400597],["▁benefiting",-11.476214918647692],["▁gains",-11.476288800893883],["▁Costa",-11.476348364173298],["▁confine",-11.476388681904044],["▁incorrect",-11.477272468382138],["▁Armenia",-11.477803288906845],["lin",-11.477989850561617],["▁alike",-11.478131975303949],["▁Vitorino",-11.478176462582578],["▁shipbuilding",-11.478178638060704],["▁Japanese",-11.478192254886297],["▁commission",-11.478461835885348],["▁citizens.\nThe",-11.47918393241155],["▁retail",-11.479820574530423],[".\nRather",-11.479846254426894],["▁EU.\nThe",-11.479898098030517],["▁user",-11.480608687190385],["▁mistaken",-11.480710067705687],["▁spare",-11.481421436321334],["▁emphatically",-11.481858576177466],["▁inspired",-11.482071469958651],[".\nTogether",-11.482687305956201],["▁complain",-11.482698414844652],["▁allegations",-11.482786256237304],["▁Erasmus",-11.483112295334571],["▁work.\nThe",-11.48353164405702],["Thirdly,",-11.483665873043247],["▁blatant",-11.483681081205404],["▁Con",-11.484110852866344],["▁updated",-11.484235244914757],["ler",-11.485201217864109],["▁120",-11.485384520656064],["▁restoration",-11.485522757757828],["▁modify",-11.485527503038313],["▁Baron",-11.485691411144527],["▁resist",-11.485763400321645],["▁bold",-11.485808776144946],["▁adults",-11.486093398194903],["▁houses",-11.486394559467678],[".\nAccordingly",-11.487049730418175],["▁thirty",-11.487638628422962],["▁margins",-11.487822804310273],["▁bans",-11.48789996861829],["▁overcoming",-11.48811245059036],["▁sporting",-11.488262291911397],["dent",-11.488431156938304],["▁sustain",-11.488556343637034],["▁organ",-11.489013242203214],["▁Cypriot",-11.48905074996474],["▁nationalism",-11.489143605388232],["▁Pacific",-11.489216130005897],["▁straightforward",-11.489216130170313],["▁multiple",-11.48922133961922],["▁scene",-11.49089043038217],["▁catastrophe",-11.491843157955401],["▁Parliament.\nWe",-11.492059399937247],["▁unite",-11.492090946832963],["▁switch",-11.492154769031519],["▁maintains",-11.492316131064895],[".\nNext",-11.492358346435605],["king",-11.492614019882257],["▁lawyer",-11.49285153960637],["▁dramatically",-11.49307764512012],["duly",-11.493419472814573],["▁Ar",-11.493672627042292],[".\nShould",-11.493842791972462],["▁page",-11.494769303090873],[".\nTurning",-11.494981873243333],["▁vigorously",-11.495449574955144],["work",-11.495598598223346],["▁render",-11.496018967896227],["▁institutions.\n",-11.496336114252198],["12",-11.496374742003088],["▁persist",-11.496637721465113],["▁obligatory",-11.49664508789474],["▁cruel",-11.496666147870592],[".\nFortunately",-11.496669404838181],["incorporating",-11.496708198540333],["▁imprisoned",-11.49676144256976],["ure",-11.496793531906595],["ight",-11.497075031777019],["▁budget.\n",-11.497235654586925],["▁cooperation.\n",-11.497727198401199],["▁flood",-11.498030332293094],["▁saved",-11.4980482269182],["▁smuggling",-11.49850987452097],["▁evaluating",-11.498509874521456],["▁2%",-11.498754106945881],["▁selected",-11.49884825548424],["▁checked",-11.499041903950378],["▁lifted",-11.499446751707104],["▁newly",-11.499598404479215],["/or",-11.499794885594971],["▁rights.\nI",-11.499975396575895],["%",-11.499980277420791],["▁problems.\n",-11.500360722355335],["generating",-11.500380457120139],["13",-11.500555907020846],[".\nAgainst",-11.500930548719019],["▁risen",-11.501045393759373],["▁700",-11.501290397258309],["▁agreement.\n",-11.502039611109725],["▁occupational",-11.502931403403261],["▁cards",-11.503240640276548],["▁acknowledges",-11.503347349801382],[".\nPersonally",-11.503695423994623],["▁store",-11.503700133610165],["▁hospital",-11.503835736880298],["▁unification",-11.504261873212325],["▁intensify",-11.50434201446039],["▁action.\n",-11.504518687735374],["▁tight",-11.504811235986448],["▁annex",-11.50525858943826],["▁frustration",-11.50600756443194],["▁proportionate",-11.506007717446039],["▁humane",-11.506037323608957],["▁dominated",-11.506247937413505],["\n(The",-11.506303788788586],["▁concerned.\n",-11.506468862854266],["▁Ho",-11.506827033588541],["▁codes",-11.507277876262574],["▁signature",-11.507650589739338],["▁vegetables",-11.507797197343933],["▁fines",-11.507816627376494],["▁suicide",-11.507890806483434],["▁alleviate",-11.507890811935301],["▁formulation",-11.507911442039243],["▁decides",-11.508923727987835],["▁journalist",-11.509530068894456],["▁rehabilitation",-11.509777596055695],["▁pricing",-11.50977763239576],["▁hygiene",-11.509777637662935],["▁admission",-11.50977975625435],["▁Li",-11.510653185340852],["ck",-11.510702681129374],["▁countries.\nIn",-11.510944357294225],["▁co-operation",-11.511668455386221],["▁unjustified",-11.511673600993632],["▁(the",-11.512647945291008],["▁evolution",-11.513454382582445],["▁beautiful",-11.513561894618775],["▁Burmese",-11.513561894621047],["▁dying",-11.513565232866725],["▁democracy.\n",-11.513566544870642],["▁classes",-11.513653095678807],["▁coverage",-11.513748629588829],["ek",-11.514107175650594],["▁attain",-11.514175449969175],["▁Jo",-11.514337457461625],[".\nSubject",-11.514531460005383],["▁fees",-11.514811094418107],["▁denounce",-11.515031575774113],["▁celebrate",-11.515052724294067],["▁substitute",-11.51508142697982],["▁politician",-11.515109530261412],[".\nWhether",-11.515253850239365],["▁challenging",-11.515459427824911],["▁Cancun",-11.515459442547769],["▁incurred",-11.51546542784396],["▁decentralised",-11.515532783765808],["▁fundamentalism",-11.515775639479607],["▁TV",-11.51709174889907],[".\nAmendments",-11.517243041910604],["▁individually",-11.517290950137095],["▁Initiative",-11.517360568515834],["▁completing",-11.51736056851876],["▁striving",-11.517361817623538],["proving",-11.517549984441992],["▁consulting",-11.517873772281131],["▁...",-11.518263506094854],["▁conscious",-11.518452868046396],["▁camp",-11.51855443951579],["▁accelerate",-11.518837711000941],["▁passport",-11.518979690441979],["▁Ferrero-Waldner",-11.51926533041389],["▁Liikanen",-11.519265330414076],["▁piracy",-11.519265330427057],["▁retention",-11.519265546636841],["▁timing",-11.519271677323605],["▁imprisonment",-11.519276991041014],["▁behave",-11.519855446982056],["▁evaluated",-11.520224859089469],["▁Not",-11.52037593730656],["▁adult",-11.520582878528877],["▁holiday",-11.52069355619048],["▁forth",-11.52099515661735],["▁steer",-11.521148076429174],["▁advocating",-11.521173727360516],["Annual",-11.521175252721454],["ping",-11.521233490566292],["▁postponement",-11.521320663011716],["▁disturbing",-11.521572949092448],["ient",-11.521863743741218],["▁Somalia",-11.522416760082402],["▁contractual",-11.52251837893295],["▁conceal",-11.52261516426378],["▁seize",-11.522786654306415],["▁hidden",-11.523085783902715],["▁deadlock",-11.523092355200903],["way",-11.523125928450986],["▁stipulated",-11.523468157022448],["▁mouth",-11.524034784346483],["▁meal",-11.525928912587348],["▁flying",-11.526491109648255],["▁gambling",-11.526920868162513],["▁forgetting",-11.526929957924509],["▁Oomen-Ruijten",-11.527029162457415],["FI)",-11.527219609017845],["▁ethics",-11.527444406434043],["▁assuming",-11.52884404460986],["▁Lukashenko",-11.528844090980787],["▁concerted",-11.529015619119818],["▁di",-11.530291936565561],["▁coup",-11.530595023884004],["▁millennium",-11.530770727055156],["▁imposition",-11.53077076617641],["▁occurring",-11.530825374565225],["▁endanger",-11.531157776200114],["▁guardian",-11.531274426738927],["▁defeat",-11.532074945047908],["▁trained",-11.532168298337119],["01",-11.532321800516595],["▁dubious",-11.532701229829076],["Sixth",-11.53277394449952],["▁cornerstone",-11.533381177548577],["▁issue.\nThe",-11.53342389213243],["▁ASEAN",-11.533819233560916],["Mr",-11.533870810098165],["▁poultry",-11.534635465047687],["▁smart",-11.534636111863936],["ric",-11.534708076592235],["▁vegetable",-11.53473161759698],["▁goodwill",-11.534761613725262],["▁perceived",-11.534878463928148],["▁crossing",-11.535004818387595],["er,",-11.535282317130786],["▁pain",-11.53531500823141],["▁dark",-11.536523829831115],["▁stimulating",-11.53657344949887],["▁ignoring",-11.536573450853341],["▁workable",-11.536599511608097],["▁transported",-11.537430050874102],["over",
[...]
